[S]
[PAD]
[/S]
[UNK]
[MASK]
[SEP]
[CLS]
!
#
$
%
&
(
)
+
,
-
.
/
0
1
2
3
4
5
6
7
8
9
:
;
=
?
\
^
a
b
c
d
e
f
g
h
i
j
k
l
m
n
o
p
q
r
s
t
u
v
w
x
y
z
{
}
~
¡
¢
£
¥
§
¨
©
ª
«
®
°
±
²
³
´
µ
¶
·
¹
º
»
¼
½
¾
¿
ß
æ
ð
ø
þ
đ
ħ
ı
ł
œ
ɑ
ə
ɛ
ʔ
ʲ
ˈ
ˌ
ː
α
β
γ
δ
ε
ζ
η
θ
ι
κ
λ
μ
ν
ξ
ο
π
ρ
ς
σ
τ
υ
φ
χ
ω
а
б
в
г
д
е
ж
з
и
к
л
м
н
о
п
р
с
т
у
ф
х
ц
ч
ш
щ
ъ
ы
ь
э
ю
я
і
ء
ا
ت
د
ذ
ر
ش
ض
ع
ق
ل
م
ن
و
ي
ค
ง
ช
ญ
ด
ต
ร
ล
ห
ะ
า
แ
โ
ใ
‑
–
—
―
‘
’
‚
“
”
„
†
•
…
′
‹
›
€
₵
™
→
◈
☎
♣
、
。
あ
い
う
お
か
き
こ
さ
し
た
っ
つ
て
と
な
に
の
は
ふ
ほ
ま
み
め
や
よ
ら
る
れ
ろ
を
イ
ウ
ェ
ォ
カ
キ
ク
コ
シ
ス
チ
ッ
ト
ナ
ハ
メ
ャ
ュ
ユ
ラ
レ
ロ
ン
ー
一
万
三
上
下
不
与
专
业
东
两
个
中
临
为
乎
乐
九
也
了
争
些
交
京
人
亿
仅
仍
付
以
仪
价
休
会
传
估
低
体
余
作
便
保
信
值
储
儀
元
免
入
公
关
其
内
円
决
况
冷
净
减
几
出
分
切
则
刚
判
別
利
别
到
刺
前
剧
劉
功
動
包
北
半
协
卖
南
博
印
即
原
友
双
反
发
取
变
可
右
司
同
名
后
听
呂
告
和
售
商
回
国
圓
土
在
场
均
城
塊
士
売
壳
复
外
多
大
天
央
头
夹
套
女
奶
媛
子
存
季
完
定
客
宣
室
家
容
对
寿
将
小
少
就
尽
居
屋
屏
属
川
州
左
巧
巨
已
巴
布
师
帝
常
幣
平
年
并
幹
庁
底
店
度
廣
建
开
式
强
当
彻
很
律
得
心
快
思
急
息
情
惠
意
愛
憩
成
我
或
戻
打
払
投
报
拉
拒
拟
括
持
按
据
控
推
提
搅
撤
操
支
收
放
数
整
文
料
新
方
日
时
明
易
春
是
显
普
景
更
書
最
有
期
本
机
材
村
构
析
林
格
案
桩
梅
機
次
款
止
正
此
段
每
比
水
求
没
洗
浴
消
深
混
温
湯
溥
潮
灰
烈
焼
煙
照
熱
燕
燗
片
环
珍
珠
生
用
电
男
留
白
的
皇
监
相
省
県
真
知
石
砂
破
磨
示
禁
种
科
租
积
称
移
税
稿
第
等
签
箍
管
細
統
線
约
纽
终
经
绝
罗
置
署
美
而
耳
股
背
能
脑
自
臺
色
英
茶
获
華
蓟
薊
衆
行
裂
装
西
要
見
親
视
解
言
話
語
請
警
计
讨
议
讯
论
讼
设
证
评
识
诉
该
详
语
说
调
谈
販
貸
費
购
贷
资
路
身
车
转
较
达
过
这
进
述
选
透
通
速
道
還
都
配
酎
酒
采
里
量
金
銭
钢
银
销
锈
键
门
问
阪
阶
阿
降
際
雪
電
需
露
青
面
革
音
題
预
题
颜
额
風
食
飲
駅
马
高
鮨
鸯
鸳
黎
齋
ﬁ
（
）
，
：
##u
##r
##e
##n
##t
##a
##v
##h
##i
##s
##o
##l
##d
##w
##y
##c
##x
##p
##b
##f
##q
##k
##g
##j
##m
##z
##8
##7
##3
##1
##6
##5
##0
##4
##2
##æ
##ß
##ø
##9
##л
##ы
##ш
##а
##т
##ь
##е
##б
##я
##о
##м
##р
##ι
##ν
##α
##の
##よ
##う
##な
##г
##х
##ャ
##ッ
##シ
##ュ
##コ
##ー
##ナ
##ο
##τ
##с
##н
##в
##к
##и
##ρ
##φ
##η
##ω
##đ
##ч
##λ
##κ
##υ
##β
##π
##ε
##れ
##は
##か
##っ
##た
##に
##χ
##ж
##º
##σ
##ı
##μ
##γ
##ς
##ц
##щ
##д
##ل
##ق
##د
##م
##ي
##ن
##ł
##ð
##ع
##ォ
##レ
##ト
##у
##ハ
##チ
##п
##δ
##ร
##ง
##ล
##ะ
##ค
##แ
##ห
##ら
##ˈ
##ɑ
##ː
##ζ
##ю
##э
##і
##カ
##て
##ユ
##ロ
##ф
##ろ
##œ
##ช
##า
##ต
##з
##ر
##ش
##ا
##ذ
##と
##ほ
##ま
##し
##き
##ふ
##θ
##を
##µ
##ξ
##ス
##め
##い
##ə
##ด
##ใ
##ญ
##ض
##ء
##ン
##ク
##ʲ
##و
##ʔ
##ª
##イ
##ウ
##ェ
##メ
##る
##ъ
th
the
##er
##in
##nd
##es
##on
##at
##or
##en
##it
##ou
##ar
##ed
and
##an
##al
in
of
##re
##ing
at
##om
to
##el
##is
##ic
##ion
##ot
##as
##le
##ent
##il
##os
##ur
is
##et
##ac
##ec
st
you
for
##ation
on
##ay
##ly
##st
pr
##ut
##ith
be
##ol
al
with
##iv
##ers
##ig
##est
wh
##am
fr
ap
are
##ow
##id
re
##ir
##ts
##ad
##ul
##od
hot
##ter
hotel
com
##op
an
##oc
##ess
con
as
##ch
##ab
or
ch
##ge
ex
##im
qu
##ce
##us
from
##av
su
that
##th
this
it
ro
##ver
##em
##ew
##ill
sh
##ity
apos
tr
##ist
##and
##ort
##ain
##igh
##ak
sp
en
##ment
us
##ies
by
##ant
##ld
##art
all
room
can
##ated
not
##ct
##if
##ate
##ect
de
##un
we
##qu
your
##our
##ov
quot
##ust
##ast
##ous
##ard
##able
##all
se
##ell
was
##ive
##ere
##ave
##ap
##ore
##ice
##ich
loc
un
ar
##erv
off
pl
cent
##ib
will
ac
##um
##ip
##tr
ne
##00
cl
have
##ok
comp
##age
##ost
our
he
wor
##ag
##ish
##ial
##ail
##ight
ad
##ach
##ud
##ure
##og
which
##pl
##ine
inter
##ions
##ia
##ff
le
per
serv
am
##ound
##ite
##ould
##se
has
##ide
op
gu
man
##port
one
res
acc
##ace
##end
##ind
##oun
##ik
##so
up
##ark
##iew
there
##ical
##ome
so
ab
if
##ery
me
##out
also
##ition
##ub
go
##ose
##ire
##gh
its
##ro
new
but
their
##ans
rooms
im
city
des
##iz
##act
##cl
stay
##for
bo
##ern
gr
##are
##ities
co
##ance
##ath
##ations
##ack
rec
rest
##ree
##to
very
br
when
out
##own
##ake
##ign
they
##ong
##ough
guest
##ens
##ely
mod
##ther
##ep
do
min
##ally
##ase
##form
##ence
af
dr
av
more
##ass
##ile
only
##way
cont
##lo
tim
dis
##ult
bu
bar
##ary
##erm
exp
200
##ame
##ear
##one
located
##ven
##ild
##wn
sy
intern
##ike
##ord
##reat
bus
##ian
##ings
centre
##ber
##ue
part
rel
##ments
##aur
##ft
most
char
after
sm
##itt
restaur
no
other
well
incl
any
ph
day
bre
##fer
comm
##ful
pro
##ious
##ick
sit
includ
use
air
offers
und
prov
just
eur
over
pe
sc
like
##ks
##ond
##oy
##oth
##oss
cr
ind
##oking
##ax
##iews
would
fe
la
sup
##ational
ever
pre
avail
sub
dist
time
were
bed
##ors
po
##ang
service
##vel
pers
free
##ible
##pt
high
##pr
##alk
fac
##stem
may
inst
##ie
who
my
ag
##uc
available
##ater
world
them
fam
rev
reg
many
set
system
19
break
##ates
id
##ict
##ents
##ction
str
add
bet
park
minut
some
location
##eth
been
col
tw
apart
##ices
##ubl
than
person
every
sa
##ade
car
##ures
spec
##ilities
##ows
about
cust
area
these
hel
year
##tain
custom
walk
##te
work
offer
##ange
good
inform
##fort
fl
vis
##iet
need
##fast
trans
fir
ele
##ily
eas
his
##omm
##amp
##ope
##ual
##use
enj
enjoy
par
##urr
kn
access
##urn
great
restaurant
##enc
where
bl
breakfast
##iness
##we
sec
##ble
prod
##ient
##gr
star
coun
00
te
how
such
old
##ory
facilities
##aff
thr
app
lo
even
##ware
comfort
into
bec
modern
mar
bas
dat
find
##ular
down
had
near
##land
shop
dec
##ood
peop
requ
publ
exc
first
tour
##ection
##oll
information
##fore
##ux
10
##err
people
form
main
situ
under
get
em
##ral
##ech
del
##ogr
##aut
beach
ple
business
12
design
##ph
reviews
ed
priv
ide
cons
##ning
help
##old
lin
##ise
##int
##ied
##ants
met
##iend
play
val
through
##io
two
##les
see
##uring
internet
##ating
##ey
provid
hist
appl
gen
lar
##sp
comple
##ock
pol
##ont
dire
ful
##ages
cle
war
##ower
aut
situated
open
##xt
friend
act
##ru
art
##ality
amp
beaut
europe
##anc
hous
minutes
91
dif
sel
##lish
staff
##que
var
town
nor
hour
night
##ug
##ific
93
public
poss
##ets
make
sw
##ween
between
soft
contr
equ
##room
station
germ
##velop
data
now
num
way
##az
web
develop
within
stre
##itted
child
best
feat
close
cour
##ry
##tion
##ited
customers
##air
##ility
what
##als
own
##ert
rem
place
ser
direct
small
applic
heart
##ove
##ights
##olog
##res
away
stand
right
non
cor
visit
distr
german
using
##ra
should
software
##ner
ma
##yp
airport
sou
countr
then
sty
run
mark
build
pres
arr
##ards
##mitted
##por
##iful
##ons
proc
sim
##iss
view
shall
cos
##eck
eng
here
##ury
gener
##eri
bel
wind
##ness
special
each
##ress
guests
trad
international
ev
beautiful
differ
tech
##ix
ob
##pos
progr
used
##ob
conn
west
excell
hand
##ural
take
pal
##led
##ming
##ren
both
comfortable
disc
long
ec
equip
trav
central
##ier
fun
mon
conf
excellent
sol
##cc
including
site
##iver
##ged
##ting
gard
years
during
before
##itional
techn
bath
##und
sk
##ee
services
ass
private
cap
med
##ping
##aces
##ines
inv
friendly
mem
##ork
submitted
again
her
relax
pur
##els
call
##ause
possible
around
hol
inc
##cept
house
sin
back
##ired
train
sch
adv
cond
##ically
mus
histor
check
cre
##ject
##iles
30
##ional
ord
##iday
##ize
el
det
##aking
cho
##ists
clean
pat
few
##ple
##ics
program
24
##sel
ext
easy
attr
15
terr
end
made
prop
##ivers
##ys
real
unto
##ped
sea
apartment
##less
##uct
##ife
20
family
##ution
def
those
pass
##ever
local
##by
sign
##ount
want
please
process
##cr
accomm
sl
accommod
ref
##ether
oper
support
vers
##uch
##ished
port
##ink
##ather
ear
lux
children
term
different
fin
est
##ique
##ative
att
##ital
men
while
pool
class
typ
spe
found
##ron
vill
eff
large
card
enter
et
##ites
booking
net
same
number
based
##ently
reserv
south
dou
list
wr
know
##load
national
install
holiday
being
attract
price
18
produc
pop
center
##akes
restaurants
ret
compan
cas
because
es
experi
cult
meet
ideal
famous
start
##ms
##ually
since
street
##line
hotels
perf
apartments
maj
quality
##side
##its
dev
desk
shopping
partic
extr
##tern
must
phot
could
commun
download
ni
##ized
curr
##ek
views
tool
she
without
features
nat
north
resp
saf
##ank
surr
##gan
parking
surround
expl
sal
##ode
smoking
stor
##iving
import
##ism
##up
read
##ames
perfect
did
prot
last
full
order
dem
him
ren
sing
##au
din
##reen
power
##day
land
##ator
tot
##ilt
mult
##ement
##ann
music
##ah
##ected
##ene
int
##of
##oup
flo
systems
food
island
stud
rece
##ways
##af
major
much
prof
costs
short
building
gl
##aph
does
page
##ives
rent
wel
lang
market
nice
double
front
124
red
sites
##ten
##ects
##other
##par
windows
test
water
conven
pos
range
##ues
##ina
equipped
top
##eld
user
##atch
next
book
dep
however
accommodation
##til
##ash
charged
impr
foll
arch
technolog
stat
##ger
extra
langu
fi
##ony
sever
contin
##ason
inn
atm
level
provides
group
##get
furn
##tle
sur
tv
squ
personal
##owing
eleg
##read
welc
home
pay
win
##ty
##ensive
country
travel
##ivid
notes
upd
##uss
days
name
far
walking
##ially
tow
cost
conc
three
##osph
comb
standard
soc
areas
##per
opt
pack
##gest
experience
god
autom
style
er
comput
2009
known
##ively
##iety
several
fre
distance
##iev
##ton
spa
suite
total
interest
cal
##over
##opy
single
##bo
ent
atmosph
##ival
upon
webs
don
km
bedroom
come
muse
law
beh
etc
##ention
som
##ane
products
beds
hard
##ior
##mer
until
traditional
##ample
##istic
still
quiet
file
##erc
european
netw
11
tre
proble
##ined
later
garden
lead
provide
bal
ye
atmosphere
via
look
reach
perform
##ountain
life
##ri
##atic
##ots
100
##ately
##ins
museum
important
50
rep
lab
tel
##itch
##thing
files
include
organ
minute
16
applications
decor
rom
click
english
second
##eric
##inal
##itions
value
colle
present
sum
pleas
transport
##ency
development
##ember
line
step
show
square
lim
always
activ
spac
week
required
##erg
express
##bers
##iven
version
terrace
##orts
const
elegant
mag
dest
##ibut
control
key
##eep
sun
##ustr
function
things
along
individ
##co
resid
bathroom
##bur
descr
district
club
word
helpful
rate
purch
spacious
ve
##ium
built
env
popular
##red
inf
state
##ird
orig
attractions
##ev
unique
light
polit
##ense
##ised
convenient
tem
mach
doc
##lin
##ails
17
century
big
esp
say
##uis
##ains
##ults
##hip
##iting
germany
aw
let
##iron
##play
mid
online
prom
application
reservation
mor
historic
tick
25
sat
point
occ
##ider
auth
jun
##he
##eng
##arch
note
hours
instru
course
mountain
western
peace
##unch
##ime
server
website
##aw
road
shops
dig
##enn
called
lat
##ric
##ording
connect
host
though
##acy
##ither
network
lord
cred
anal
##ences
##aving
meas
wide
americ
nearby
rail
stop
##ted
san
barc
environ
##oor
##ool
tourist
fur
##ling
univers
##ference
among
mal
##app
display
fully
recep
##ves
four
##ified
##ination
lond
swim
fact
mot
means
profess
rates
##br
too
beg
against
meeting
##ability
space
times
litt
another
technology
mob
coff
##core
##olf
ann
che
##ibr
head
able
##stand
london
14
vi
##ino
charge
less
making
ask
ge
language
jo
sound
little
post
##ably
condition
ban
mat
##ona
give
##ps
case
includes
product
example
vide
buff
request
##alth
pan
unders
easily
cam
river
directly
complete
##ential
chang
search
game
create
##ify
turn
cast
##onom
repr
pc
particular
grand
credit
underscore
code
box
designed
choice
cuis
side
##oney
addition
metres
inte
##icy
above
company
computer
##ization
aff
##ived
##oph
reception
floor
cer
environment
conv
exist
allow
once
quest
content
command
given
13
##ats
trip
coffee
cuisine
paris
har
mic
##self
ital
variety
ber
tast
##esh
##med
##aster
resort
##ister
secur
swimming
mov
really
config
individual
excl
offering
camp
##urb
sn
suites
##lob
entire
##elf
luxury
##ces
tar
##ables
change
##erce
##ament
hum
select
menu
000
creat
nov
##ply
incre
integr
keep
wire
money
##ule
##itor
bars
log
wond
prin
leg
prev
contact
di
never
history
according
outside
##ugg
glob
##put
speed
position
lic
##acter
##ench
2008
ic
##gar
##ision
try
ens
econom
ll
might
quick
fish
team
ant
cultural
espec
except
everything
ver
renov
ins
secure
consider
rele
further
become
##ready
especially
yet
##oot
already
games
##aim
clos
address
pract
##ibility
##ument
tog
require
lov
often
drive
elect
##osp
character
copy
east
states
leis
golf
low
mad
table
##ended
caf
tax
##uf
##hing
##ij
exch
better
leisure
canc
image
coast
provided
##ai
entr
##ift
##porary
wonder
##arn
loun
199
wireless
live
lake
ste
contem
dom
##orn
places
needs
ho
##ster
estab
rad
united
buffet
pict
third
alm
##view
served
selection
kind
##aus
##oft
mobile
security
##bour
alth
specific
##ograph
choose
barcel
put
##ale
spain
mess
##asts
iss
historical
return
storage
various
##posit
gardens
archit
together
left
region
additional
communic
date
succ
project
text
receive
although
mil
makes
whether
chr
##iption
##alt
##ote
exec
ecomm
establish
##uction
##zz
##urch
digital
purchase
video
ecommerce
bene
##ience
##ission
care
##usive
##una
acr
countries
terms
welcome
##ada
summer
mater
works
gover
micr
rental
spaces
setting
complex
aud
##oms
##utions
therefore
natural
arrival
patent
##ison
stylish
success
bit
cann
warm
##ety
compar
40
users
##ung
##man
##ules
##ishes
feel
political
repres
22
hall
sure
common
screen
propert
##lim
##ops
capital
begin
##cap
offic
following
material
today
manage
contemporary
##ports
members
##let
church
safety
govern
early
lounge
either
##hib
french
architect
##ctions
health
##aily
##ground
##burg
berlin
##ides
ang
##ems
##ateg
exchange
bud
past
fire
##ones
##ecess
##selves
gold
sant
tur
##oo
##apan
record
christ
daily
field
sour
vol
##rem
having
##ased
##amb
adm
problem
renovated
##ipt
travell
##urious
enc
scr
court
##ians
linux
##iod
deposit
general
##fully
distribut
village
railway
##acks
certain
21
happ
##uly
##xi
##ges
recomm
phone
looking
dining
mill
##ulation
clear
fair
treat
##era
##ody
palace
social
measure
global
quite
bay
##here
print
##ands
appear
vict
press
whole
companies
mass
##rid
discover
options
fit
lot
que
2007
charming
relaxing
##ley
##road
appro
performance
green
##atically
period
older
barcelona
##urs
allows
working
##ott
conference
##abled
board
overlo
entertain
furnished
base
reason
shower
##aken
itself
tools
fil
rout
dry
across
japan
##be
##astic
black
luxurious
due
kitch
##ained
included
fa
ur
##ney
drink
##ising
elev
original
##oint
##imate
plan
##ma
##lex
current
safe
professional
foot
sle
account
php
link
king
lugg
event
author
month
description
luggage
sights
##ne
insp
super
##ve
complet
necess
##ises
fresh
##ager
size
##iter
beaches
ven
party
##ana
##str
##ploy
said
effect
##amic
option
almost
il
##ca
chann
accept
prec
decorated
pleasant
##sh
news
particip
ticket
cover
##ured
metro
ident
throughout
feature
mail
pa
send
ground
school
type
##erous
##alf
##ush
separ
respons
##ute
artic
dinner
cd
iron
##ocr
##ouse
largest
surrounded
cancell
benef
##ese
##ena
heating
simply
cities
lunch
think
##ouch
##ams
ski
kitchen
##yd
events
fav
rich
latest
mand
wall
living
##mb
shar
err
activities
23
fast
##cle
##ars
##ays
equipment
max
office
recently
media
love
shut
balc
meth
update
da
##imum
automatically
roy
engine
steps
completely
fax
##ored
streets
du
##uit
spir
usually
interf
connection
taste
##ints
result
below
depart
cannot
fut
vo
##ex
##otel
exhib
##vert
commerc
human
##antic
machine
came
wom
##jects
june
ht
##oming
prices
series
impress
bedrooms
##idge
compet
##dam
why
map
york
claim
understand
##ergy
dishes
wood
extrem
villa
casino
bord
vir
oppos
culture
device
management
hosp
##tings
concern
represent
entertainment
fine
hold
rights
section
afric
exclusive
##olution
plat
indust
##ances
someth
elevator
method
royal
##word
##urt
industry
der
##iqu
##iple
least
something
dam
late
##ele
adults
##anced
democr
commercial
##anish
##ases
sauna
pictures
wish
frank
sports
newsp
conditions
cy
five
##ners
##itten
micros
lay
##top
depend
execut
rather
theat
init
france
outd
player
peaceful
newspap
##uce
subject
needed
cir
##ration
alb
earth
father
pu
##ooms
phil
parts
laterooms
mo
##ze
fore
transl
madrid
##omes
famil
colour
devices
sil
amen
opport
bring
american
opportun
oth
thus
self
speak
hill
##xim
##oci
##plement
property
##ients
##ward
##uck
policy
simple
follow
motor
future
##ien
acqu
amb
##ought
vac
##iable
ir
white
nature
protection
watch
running
##hol
##ering
intr
cosy
analys
others
##ham
##eter
pain
##uk
report
learn
door
wonderful
broad
fant
##den
brit
regard
medit
son
save
##ano
##aza
document
die
tea
ideally
visitors
##ml
altern
##imes
##oved
imp
advant
details
taken
##ification
associ
wine
##fr
agre
links
castle
amenities
ul
enough
neigh
beauty
microsoft
las
sand
lines
photoc
lands
bat
cat
sav
takes
syn
themselves
sleep
##icient
magn
##medi
##arant
spect
mean
behold
mind
##ring
##ding
##ental
jew
lik
sens
##ler
sof
prem
evening
numerous
created
los
##dle
going
##epend
diff
controll
member
##iva
repl
##berg
##inks
award
source
##ret
##ude
manuf
bon
cards
done
half
pxi
season
email
longer
fitness
necessary
spirit
wa
words
mountains
300
den
round
##hood
##ature
##itr
independ
norm
existing
overlooking
##ators
##ella
transfer
foreign
68
##icult
houses
downloading
##ieve
outdoor
##ault
anc
##ledge
instruments
nam
rome
##ced
former
problems
italian
spanish
driver
industr
laund
prepar
solutions
constru
manufact
##cent
suit
##illed
##ago
classic
community
ten
##ead
##ories
share
points
struct
flor
assist
bank
sent
regional
register
teach
basic
university
analysis
##iff
friends
ess
explor
innov
shuttle
##aced
amster
mediterr
ey
libr
##ses
rob
abs
contain
2006
morning
amsterdam
jour
store
##ements
buy
##itting
production
##ength
##uration
invest
respect
leading
mandr
##uments
##ilar
youn
##ocket
lovely
laundry
mont
energy
guarant
cleaning
##me
##ession
suff
frequ
middle
got
mer
nights
disabled
2005
nav
russ
##icated
yourself
plaza
serves
cross
lob
delic
cheap
architecture
##eral
trade
amount
graph
##earch
economic
austr
ep
corre
500
eu
##eed
##station
research
instead
##cape
official
turk
action
cath
true
deal
##unning
brand
module
drinks
labview
license
bad
gre
jac
##town
##50
alt
implement
sheet
islands
winter
comparison
##sw
##ogn
suppl
regular
mediterrane
##ining
providing
developed
extensive
typical
costa
princ
##aged
immedi
brows
written
government
newspapers
mandriva
##iest
##mark
##eries
inside
heav
##eph
detail
currency
towards
difficult
gt
wi
##bs
##ica
memory
fantastic
pages
##ios
##ecat
appr
##quet
standards
balcony
##asing
expensive
settings
technical
surroundings
stunning
emb
similar
tradition
platform
bes
gall
july
##enty
customer
images
opened
collect
cafe
beginning
wik
##hops
##furt
compat
thanks
fu
touch
##ved
##inary
##ips
legal
icecat
60
hor
ip
##hr
##yn
traff
2000
highest
strong
os
pot
##oid
stock
##ident
boasts
remain
limited
conditioning
lobby
mediterranean
foc
upgr
newly
ironing
song
results
accom
boot
refurb
changes
body
gent
##omet
##lend
forum
instit
employ
communication
gar
##eal
##iking
active
##ahn
ach
format
teleph
fix
hair
knowledge
residence
interface
eg
kern
arg
edited
studio
groups
matter
path
##ille
guide
interesting
requirements
extremely
hospit
##ais
##che
adj
discuss
ancient
bout
##ls
##att
centr
players
hands
surrounding
thing
expect
prob
types
panor
particularly
recommend
lis
##bor
##ered
##isation
##ector
object
solution
default
question
release
##itz
imag
contains
##gress
audio
frankfurt
bab
dial
mun
miss
##ql
client
seen
##oke
compon
model
subs
obtain
explore
ensure
##pose
prim
##ula
usb
##uced
determ
taxi
flex
##anqu
stations
refer
plus
output
quickly
golden
dv
##df
##ci
##ids
comes
consum
package
introd
kernel
tell
viet
shows
prefer
corner
multiple
electron
circ
27
##de
cou
hu
##row
##where
##ades
uses
imm
estate
museums
describ
##ield
thy
##aries
##ava
##avel
arm
recogn
signific
installed
distributors
tun
##na
##orm
##edral
##antly
##apt
##iously
buildings
##erior
admin
error
##ging
gran
highly
listed
continu
somet
camera
advantage
mac
ped
##pm
##oud
prior
##ira
related
continue
superb
fest
jan
##isk
##opol
flat
installation
surf
women
executive
##oe
thou
##lect
##ief
opposite
cathedral
##li
##dh
##itive
198
added
accessible
photograph
aug
gal
lib
sem
##airs
starting
updates
rot
taking
##osoph
chic
tranqu
nothing
union
soon
crit
superior
downtown
versions
financ
holy
vietn
cell
##ril
worth
privacy
conveniently
photocopy
magnific
fall
pet
##ees
##och
concept
##ogle
leave
noise
offered
flash
maintain
privile
valley
corpor
generally
35
div
ut
##ened
##oken
hear
bright
became
banquet
questions
32
197
blog
statistic
philosoph
correct
kil
mir
##igious
##ided
selected
weekend
viol
sometimes
age
##tp
##dom
##eration
answ
languages
##erts
deb
##ague
google
datab
tours
glass
tickets
cut
##ym
##aint
spend
##aps
##ension
aven
load
southern
28
26
mount
pen
qual
sept
##izz
disk
apply
##ological
window
tower
exhibition
si
##ox
##ded
##wide
asps
cook
blue
idea
eshops
optim
hardware
faith
separate
bill
ce
ww
franc
complim
held
##ology
##ternal
##augh
young
avoid
courses
advanced
programs
match
pub
##iction
twin
educ
valid
photocopying
blo
cable
fund
##bon
ther
plug
##ibution
holidays
31
bur
strateg
sky
collection
configuration
article
dre
lower
sell
##house
scen
runs
occup
angel
santa
mom
master
##icts
forest
cold
color
appoint
floors
infl
traffic
liter
##ires
##ull
palat
received
compliment
mos
took
##ples
##ype
currently
origin
temper
impressive
ra
rules
##ta
obs
desktop
connections
refurbished
magnificent
##hof
##men
sport
defin
vacation
spectac
delicious
september
sund
wellness
deliver
attention
destination
thought
issue
80
##her
##iture
asp
spot
bridge
poor
higher
invol
ded
ham
mp
track
mode
generation
connected
proph
geor
library
journey
focus
telephone
dvd
cock
##iec
isom
##ube
button
ways
attractive
financial
fash
lies
mel
wal
##inations
##izing
useful
everyone
target
centrally
palatin
70
jud
pick
pocket
##uary
##ini
##arter
symb
worldwide
carr
visiting
purpose
training
society
vienn
victor
favour
maximum
isomalt
45
hyd
##aves
block
basis
meters
efficient
script
fashion
cart
wild
##ters
##life
##fs
##10
##orks
##edom
sex
indic
##prise
confir
roman
cancelled
voice
spectacular
miles
##yl
##ocks
##abit
buses
relations
photos
demand
industrial
gives
oct
april
##illa
##ously
##owned
functions
compatible
aim
six
##ext
##ivity
recent
phys
##inese
virt
theatre
british
wikitr
categ
##bar
##iced
sugar
neg
airc
monitor
trend
announ
measurement
hospitality
ast
fab
hund
thous
##atory
champ
compr
##press
romantic
america
travellers
gay
rap
vibr
##iers
##pts
##asse
conver
advert
parties
workstation
forms
getting
satell
fishing
cit
fail
sold
##pro
##eless
##estr
pret
193
##enced
underground
##raft
allowed
radio
message
cov
mix
zone
##outh
percent
behind
kilomet
cele
eth
##ny
##ka
congress
meals
milit
materials
probably
celebr
fly
ferr
edge
vari
switch
operating
write
telev
established
face
move
##atively
##itude
##arm
furniture
considered
cockt
hundred
caus
ray
swe
##mp
deep
##izes
fee
enjoys
supported
republ
prepared
eat
hon
##la
##itage
quarter
death
eastern
consist
##ruct
powerful
italy
integrated
complimentary
bicy
won
seem
manager
resour
indoor
values
stores
protect
practice
www
nar
pdf
tas
##can
anim
##sequ
##ept
anything
tourists
route
wikitravel
satellite
lif
oce
coming
perm
modules
cases
issues
browser
clients
cool
context
stroll
million
channel
##front
ii
sense
##yr
##ying
exact
items
##oker
stra
march
##lands
##azing
job
tit
tap
uk
##oon
##rael
closed
kr
##ocol
remember
veh
approach
panoramic
bag
##uff
chall
##usion
##ford
array
reached
months
border
families
29
wat
##ador
##asting
winning
japanese
austria
kar
stone
grow
attem
ready
payment
picturesque
opportunity
suitable
dark
divers
lift
zend
##reh
china
chinese
sug
196
didn
asked
absol
vehic
##ban
##go
##gen
##ida
persons
confl
northern
levels
agreement
jose
ps
##vi
##arily
##ama
exam
plenty
##ume
accur
194
colum
param
##resp
presented
cater
merc
rock
##las
##light
##ete
onto
##istration
resolution
##ption
relaxation
licens
channels
##iques
cab
cro
mention
##wise
##erto
##ounts
mys
renowned
welcoming
ride
tab
##uzz
##igation
spread
enh
##action
wherefore
seek
opera
##board
increasing
blood
influ
suggest
cad
lod
names
##aft
##ico
ones
##istan
mini
supports
edition
furnish
bul
ok
smart
elements
edit
testing
html
concerning
african
appointed
##arian
org
unless
climate
launch
skype
freedom
occas
joh
creating
##proof
television
led
rub
roll
tor
##aign
##wind
##opri
##istics
projects
euro
combined
responsible
database
cause
mall
rid
##atives
##asc
whose
transportation
cafes
components
vienna
gh
israel
conditioned
catal
august
cert
pap
talk
##iar
##ita
##iling
serve
swiss
password
banks
album
hom
tenn
wired
##ius
forth
prest
meal
bug
charm
otherwise
actually
combination
yea
limit
machines
campaign
acquis
huge
civ
cop
fed
ol
sam
##ya
##ado
numbers
heritage
technologies
surv
alternative
##lar
##ening
##aging
believe
harbour
benefit
independent
born
##uz
##iance
##emb
unc
brought
partners
featuring
remote
promot
entry
kingdom
walls
immediately
boutique
republic
mysql
##aj
input
anyone
arrange
signal
portug
salz
jacuzz
dedicated
military
90
pad
wid
##ball
compreh
review
soundproof
budget
construction
tennis
dyn
##cp
##ette
serving
staying
availability
published
direction
successful
daq
lost
ms
##back
##roy
stayed
doing
##iano
population
improv
inspection
january
##ba
##met
##ches
nightlife
advent
##onym
##burgh
approxim
paid
named
07
dut
##za
##ifi
provin
capac
trains
else
processing
multi
students
entrance
urban
ill
meaning
acquisition
nation
piec
ram
tom
isl
interior
restr
visual
relaxed
final
department
ben
dub
tal
van
vic
##right
desp
breath
flights
maria
puerto
lisbon
soph
tables
##orf
##iled
belize
himself
jacuzzi
kur
##ero
toile
began
##ester
grant
partner
someone
president
residential
bathrooms
authent
changed
ocean
approximately
lively
##uel
##ober
##more
##ceed
vision
appre
processes
terminal
cash
started
released
symbol
gift
##aming
##ulated
##verage
arc
2004
proxim
count
observ
october
went
##ef
##0s
##isf
orient
##itioning
perfectly
doesn
pleasure
displayed
damage
##estrian
36
bey
spring
draw
corresp
proper
photo
biggest
##standing
depending
manufactur
innovative
princip
furnishings
correspond
bir
kept
sac
neither
interp
drivers
cars
tourn
playing
capt
destroy
trips
steam
africa
democracy
appropri
cur
rang
session
beer
compact
amazing
progress
operation
recommended
neighbour
bicycle
33
fight
om
##lines
##inity
##estic
fruit
enable
emp
consult
artists
contribut
functional
landscape
registered
beyond
bahn
fill
gym
ha
hun
lots
poker
saint
##iant
notice
seems
##ellig
boat
flow
consists
police
electronic
##ala
forward
##utt
##opes
ship
locations
sales
happy
burn
les
sid
vip
force
roof
mostly
coll
edin
smaller
enterprise
laws
satur
civil
##onymous
authentic
hiking
##ici
whom
trust
usd
##quis
placed
compos
regions
element
tourism
distribution
packages
trees
constit
benefits
francis
edinburgh
mis
role
parad
marina
convenience
functionality
prevent
songs
aircond
pretty
hath
##uth
arab
##eeing
memor
advance
clubs
http
munich
tranquil
saturday
34
mich
rain
wifi
##haps
##pan
threat
##alu
##odes
##pted
markets
##poses
reading
combines
afford
battle
detailed
appreci
proximity
##rich
##sk
alp
deg
stars
situation
editor
possib
pattern
##ieved
convention
increase
grounds
claims
structure
exploring
gentoo
joseph
fold
ib
##ata
##elt
perhaps
marx
designer
intel
motorway
soundproofed
bust
eight
fig
ru
##ha
##cil
##ingu
##ifa
ability
internal
remains
districts
countrys
solar
destinations
analy
anti
massage
shared
cycl
avenue
countryside
hope
##eg
##irs
##emy
shown
##encies
directory
effects
majority
silver
bonus
subscr
waters
airconditioning
bi
yes
##craft
##pool
##ke
##gu
##eras
##isions
##asons
whate
##aven
trop
uns
scan
larger
conduct
intellig
farm
satisf
translation
fixed
festival
vietnam
moment
sophistic
aust
zur
##time
##gart
##19
##ione
stad
forces
##ulose
##ema
tram
##istr
subst
strength
exciting
obl
demon
booked
improve
neighbor
significant
dream
resources
whatever
hit
lan
nations
wines
##ald
##lev
##acts
shap
weather
arena
expected
distin
flight
belong
continental
veget
domin
pedestrian
privileged
capacity
tend
##ga
##ato
anonymous
chair
truly
##ista
splend
scre
delight
calls
interested
diag
buddh
fields
opportunities
essential
comprehensive
despite
400
bott
cz
gate
ice
##15
atl
models
cry
ago
easier
bless
publish
invent
founded
calc
activity
tarifa
sofa
gallery
haird
nok
story
friday
convert
plant
facing
##ublin
requires
##echan
preserv
writing
individually
##head
roads
exceptional
messages
embed
sunday
citiz
dublin
nord
rh
ros
##ein
##ulous
chance
seat
december
beautifully
refres
meetings
ult
saved
upgrade
couple
thick
##ola
prep
saw
oldest
finally
##ronom
integration
firef
film
sightseeing
responsibility
sandy
philosophy
gave
race
sample
##ias
andal
adult
specif
warcraft
towns
##azz
summ
instructions
reasonable
favor
premier
controller
russia
described
cadiz
48
piano
sector
##min
##isc
##aded
conce
##ipp
greater
finest
doub
keys
normal
potential
mp3
bot
mond
rule
ramb
fort
comfor
opin
expans
2003
contract
study
documents
covered
guarantee
appropriate
38
ak
filled
##cd
##onse
centres
interact
transform
soul
palm
purposes
sunny
november
palatinose
cand
mig
mart
##otic
##enth
exerc
##ibe
mex
bedding
192
carry
opening
possibility
proced
objects
wanted
status
automatic
reput
analog
novel
copyright
confirm
restrict
bou
catch
vel
ath
##etic
washing
unl
cloth
compl
minor
busy
charges
enjoying
playa
background
programming
signs
slow
earl
temple
promen
snacks
cancellation
vibrant
column
john
firefox
cin
length
mine
mechan
nest
##itan
##aria
##omb
anywhere
feb
sched
speaking
packed
tastefully
temperature
tropical
55
band
dun
gain
##dorf
##ura
spoken
clim
goes
growing
justice
applicable
##obe
extend
reduced
liked
relationship
croat
francisco
comforts
aware
giving
mother
rac
##sl
##band
##fl
##ky
##atz
##ils
bear
reference
##emark
minimum
##cript
slight
books
establishment
articles
democratic
tunes
virtual
dim
gas
java
loss
oly
tag
##ss
##oration
##asis
##ulate
chat
outstanding
agree
enjoyed
secret
formats
arrive
response
panel
accompan
sophisticated
demonstr
core
gather
ig
##enia
##itation
inh
reports
root
upper
19th
##encia
programm
150
defined
snow
moz
isomaltulose
carte
olymp
fif
mur
pun
##taking
##wards
##pc
prague
##uts
##iring
##ulations
##tered
unfor
##acters
modified
drag
characters
ideas
owned
patents
termin
towels
magaz
stops
turkish
##attan
angeles
physical
czech
06
mu
pure
##km
##osen
##acion
sud
tra
subm
delux
discount
stored
updated
hostels
accepted
initial
regarding
turkey
corporate
therm
sweet
800
gb
##der
reb
##abilities
manner
settle
counter
developers
evalu
incor
profession
previous
##words
eye
deluxe
ball
lap
pic
##arning
alone
##amm
unit
brid
relev
commission
feed
fulf
##ancy
pools
economy
understanding
##itzer
education
thousands
conflict
37
##table
##11
##isy
pred
alg
##uls
consequ
##usal
shoe
##ante
unwind
##oks
manual
drop
expert
colon
owners
specialities
improved
join
configure
printing
routes
adjust
promenade
aqu
tree
tube
##eks
##ae
##haus
##ili
prime
orch
servers
restored
overall
string
poland
produced
pci
colours
besides
province
tournament
ju
lack
mission
pak
##ych
##86
confer
##ills
usa
supply
excurs
trademark
accommodations
foundation
protocol
statement
welcomes
##ieval
cameras
picture
flexible
##aught
42
jer
##ara
##idden
weeks
servant
manh
recon
2001
theme
produce
council
becomes
wars
souven
##holm
answer
kilometres
paper
##uttgart
hairdry
az
bike
das
lts
sus
sect
wed
##equ
coop
relig
experienced
behav
leaders
kinds
methods
ultr
russian
forums
dialog
exactly
salzburg
ca
dh
eternal
##aud
##liness
##da
##con
##iny
stuttgart
reality
##istry
adap
adobe
instance
decision
played
villages
label
universal
turned
carefully
nokia
75
faster
gir
lives
risk
##ole
##uries
chosen
##ims
##agen
stays
actual
##posed
medical
creative
treatment
treatments
venice
effective
florence
pubs
austral
manhattan
3d
gast
mile
nether
##ores
##ilst
##aca
priest
whilst
arts
heard
learning
firm
##ruary
presence
requests
convers
harm
association
eyes
babys
hyde
prestigious
expansion
february
unforget
44
dus
diving
fle
sort
##dr
##esco
##enz
stick
##chron
chap
shine
trig
truth
allowing
canal
wealth
##platz
noisy
mainten
remove
marketing
surpr
networks
entirely
certainly
initi
ambience
associated
implementation
splendid
600
dog
mi
nic
##son
##body
##ito
##edia
##bert
germans
developing
arrived
difference
programme
signals
elegance
somew
straight
zurich
embedded
citizens
andalus
reputation
blend
cul
rural
ze
##ville
##bec
fram
##ads
export
spl
scale
specify
blocks
excel
switzer
monuments
sale
increased
properties
measurements
breathtaking
relevant
babysitting
unforgettable
switzerland
09
1st
53
diction
gn
mas
till
##nel
##ellow
plates
##uded
resol
scient
obv
printer
appears
wait
assistance
carried
catering
64
none
ring
##ued
##iability
##ja
##13
##ige
##thotel
item
spons
enables
clock
##aga
religious
marb
nearly
mainly
consc
medieval
websites
competition
documentation
ipod
prophet
hairdryer
39
average
##ait
##cast
##kn
##isch
ist
external
##theless
enabled
doors
driving
reliable
computers
performed
nevertheless
trying
participants
lunches
critical
involved
caused
##usalem
fat
lamp
pow
ri
rare
##rd
##wich
##ares
##omp
##entr
##ett
concl
##char
revolution
flav
swed
stands
simpl
winds
creation
landmark
##zza
encour
woman
hills
synchron
favourite
growth
attempt
psych
##quisite
pakistan
jerusalem
95
aer
doll
hang
ta
##nik
##onic
##icip
stage
##chant
##gend
##fortun
declar
owner
typically
reservations
##eva
politics
barcode
annual
movement
volume
clearly
familiar
institutions
fundament
mentioned
affordable
specifically
maintenance
99
bang
dates
fem
lad
lie
naz
ox
rat
##han
##ooth
##lich
##ypt
##jo
##onies
##eness
##anch
##eters
sust
alliance
perman
expand
registration
assemb
attack
reserve
reduce
combine
says
instrument
travelling
schools
skiing
robot
netherlands
65
bor
jes
mouse
native
upl
vast
vend
##ck
##60
##ari
told
##elle
sehr
##acht
##place
##cles
##ensions
setup
specified
metr
convent
followed
##uka
waiting
stockholm
##opolitan
originally
bulgar
atlantic
bapt
dan
fasc
gour
hub
kill
lets
##hotel
##wood
##ystem
##code
##erb
trou
acad
##ipl
impl
modify
aftern
euros
peak
emph
varied
serb
solid
infr
individuals
exception
frequent
rotary
comprises
examples
occasion
federal
dynamic
boulev
gbp
cup
cots
dang
sap
##gment
##enk
##eds
##acent
alco
rend
queries
dead
seas
units
disapp
scene
visa
appar
decided
actions
extended
attach
salv
interests
saying
likely
explorer
immediate
absolute
portugal
vicinity
ein
lists
pia
sov
##ving
##hop
##work
##ania
##alm
##iger
trial
##ump
heated
##ogne
minim
blizz
variable
generated
effort
intended
landscap
heavy
mirr
category
challen
paradise
incorpor
marbella
alcohol
hy
mak
pul
apar
revel
##ective
##icht
brew
crow
worked
##phone
reflect
operations
protected
rentals
hostel
moved
rapid
inhabit
blizzard
joy
vary
##rain
##eat
##well
##ki
##gal
##mas
##inating
inner
prost
reasons
asia
unfortun
indeed
##anged
polic
respond
balance
##heim
traveller
layout
imposs
frequently
cocktails
task
slightly
01
bound
dol
dir
het
je
mit
sony
vent
##uh
##oen
##itely
##osed
##urance
##stat
##iro
##ander
lock
clust
minib
subway
195
everywhere
completed
muslim
villas
escape
roma
verily
practical
compared
newslet
bonn
heaven
beside
souvenirs
habit
lou
lakes
lush
sams
##iation
##sc
##idence
comment
chain
rooft
##ifier
deploy
meant
goal
##izer
experts
scul
parks
cosm
refund
classes
glory
organization
seconds
displays
feeling
linked
britain
employees
egypt
adjacent
interpret
neighborhood
distinct
afternoon
inhabitants
kon
rt
##va
##west
##fall
ingr
##tery
asian
chem
usage
seven
centuries
guid
boasting
diss
goods
apple
marri
polish
passed
slov
efforts
looks
info
venue
identity
horse
violence
##barcode
cocktail
islam
intellect
ely
fear
hos
kl
tbarcode
wager
##ds
##point
inj
offices
plants
managed
brother
reveal
flag
emerg
##seldorf
terror
##amese
totally
##anned
posting
represents
filter
chicago
fabulous
ferry
diverse
vehicle
riding
croatia
excursions
dusseldorf
samsung
alex
dav
gd
kids
kuka
mm
nik
sar
wife
##rant
##rov
##night
##vers
##atures
##orith
##icit
##acc
##thren
trib
trope
##ques
##ache
meat
brethren
science
instant
thank
valencia
seeing
presents
simult
purs
retr
intimate
profit
##box
1000
amongst
commanded
creates
communications
encry
sharing
errors
theatres
construct
graphics
determine
administr
trendy
title
thickness
algorith
religion
uplo
haven
mb
xp
##oh
thee
##unk
accord
recording
airlines
distingu
formula
conserv
courty
importance
trek
recorded
engineering
wooden
jewish
discussion
opinion
sculpt
simultane
berg
pizz
wave
##ll
##food
##gi
##70
##20
##inated
##ading
wear
seats
guard
##inder
cris
suburb
poly
sets
parli
starts
standing
seafront
clicking
taxis
##bourg
christian
survey
mexico
framew
soviet
ingred
43
eld
hat
ira
##ho
##hat
##hold
##iago
isol
proud
exquisite
##istol
##astruct
leaving
##reek
minister
phones
crown
evil
earn
profile
travelers
calm
changing
additionally
furthermore
santiago
paul
maps
containing
navigation
vietnamese
george
announced
variables
hundreds
conscious
infrastruct
iraq
2d
49
ease
luc
sized
##uous
##12
##orca
exceed
spy
centers
##ishing
resorts
bron
2002
cologne
marble
attend
studios
malays
geograph
previously
converted
earlier
cooperation
australia
prostit
impossible
intellectual
goth
ire
ke
pil
riv
sor
##ray
##nic
##bl
pray
openc
resist
recip
moreover
superm
saith
delet
contrast
marked
england
slot
refined
milan
scrip
discovered
graphical
##bsd
galleries
announce
influence
widely
empire
monday
gourmet
tropez
opencms
divid
jam
ot
vista
##rom
##ße
##erte
##ington
comments
conil
exit
##allel
plans
##force
grad
commit
facility
strict
applies
complement
developer
operate
reserved
templ
latter
heads
planning
departure
replac
introduced
advertising
toilet
ranging
stadium
ltsp
susp
trigger
framework
ireland
nh
##urf
stuff
##opp
brings
contents
freebsd
ecu
universe
chef
moving
exclus
structures
montre
weekends
penins
adventure
##iciency
alpine
ramblas
boulevard
parliament
ax
bak
cot
mol
pin
qur
rise
##aton
beat
alle
##used
tried
##anda
canada
weight
guided
imper
gets
helps
equal
assign
musical
seafood
connecting
records
##strasse
participate
awarded
spiritual
independence
guaranteed
flying
parameters
rollup
manufacturers
neighbourhood
delightful
ign
orchest
fundamental
challenge
elyse
46
bird
fountain
gmb
jur
rank
util
##gian
##je
##inter
youth
forget
leaves
##ikes
sole
desired
bristol
geneva
serious
##iera
monument
menus
18th
##book
football
inspired
mailing
austrian
principle
strategic
cryst
unfortunately
newsletter
gmbh
47
63
bos
daugh
gi
iv
lt
mouth
por
##uite
##ouver
##abor
discl
sym
index
transm
underst
artist
removed
palma
classical
organis
constantly
measures
entries
identify
jews
normally
covers
tasks
vehicles
accurate
enhance
lodge
prepare
concepts
seaside
courtyard
au
bell
kol
lcd
sen
##card
##bre
inher
##reg
##stein
spots
neph
legend
amid
recre
contained
disp
housed
incred
orders
portal
magic
250
junior
environmental
commandments
configured
insert
sofia
cookies
challeng
ghost
dubrov
bustling
nestled
professionals
dictionary
jesus
infrastructure
62
oasis
pm
pix
sitting
wants
##isl
##stra
##ivery
fried
##iment
sher
seal
dispos
relatively
fees
visible
visited
becoming
capabilities
videos
tasty
snack
execution
premium
surface
victoria
categories
##ilingual
solarium
screens
climb
traum
conferences
dubrovnik
08
bod
fan
felt
hus
hof
jav
lam
lived
math
rar
rig
##nes
##isely
##ente
forever
alps
whe
reform
chf
##uses
suited
spent
enth
broken
dra
190
adding
##erry
delete
handle
extension
studies
repent
membership
##exp
borders
replace
supplies
obtained
consumer
properly
appreciate
exercise
magazine
thermal
piazza
supermark
54
jet
kde
na
tib
##ua
##bus
##eria
##erie
##urally
isn
pros
beij
##arta
interc
desire
recover
syd
apartament
nearest
decide
designated
##ruction
serial
directors
generate
advice
extent
student
organized
residents
motion
volt
distributed
regularly
boutiques
primary
aspects
honor
permission
piece
destroyed
rooftop
accordance
ingredients
beijing
85
een
era
luck
pac
pour
rand
tub
vul
vanc
##riet
##iences
##gets
cham
locals
plain
ourselves
barr
commem
feet
county
calling
accommodate
presentation
affect
sources
queen
sensor
innovation
definitely
delivered
thousand
mallorca
dutch
pieces
granted
favorite
bridal
policies
sydney
vancouver
52
dance
dual
hop
peter
rou
sd
vector
zim
##icing
prize
##unt
una
unlim
heath
##agon
##ishment
coord
brands
bread
workers
informal
tex
delivery
eden
stret
invite
schem
installing
experiences
automated
leader
joint
firew
investment
cheaper
achieved
narrow
accuracy
possibilities
confirmation
unlimited
ba
gif
hidden
od
##sch
##off
##wr
##ication
##icians
forg
##ivals
##irts
chief
trail
##unction
unesco
permitted
##irect
committed
airports
crim
india
persp
agency
everyday
marr
signed
processor
slopes
downloaded
demands
continues
##boot
organiz
sounds
reprod
domestic
pressure
##ydr
cycle
controlled
industries
flexibility
hamburg
enthus
bro
fare
kit
nap
sons
tip
xl
##link
##wan
##30
##orge
##ared
##entive
##stad
##step
##arters
##ello
wasn
unp
mans
mins
inclusive
crime
indian
twenty
finding
applied
genu
remov
styles
attribut
wrong
looked
latin
teams
architectural
healthy
authority
teaching
accomod
maintained
victorian
fashionable
absolut
increasingly
principles
corresponding
interactive
culinary
heathrow
02
59
bol
dish
gat
hire
lit
nan
pill
sight
##uits
##eno
##enger
##anian
##ela
##asm
stim
ont
##utes
alike
alph
##esty
usp
weak
opens
throw
appeal
dating
auto
attacks
entered
casa
traveling
combining
elegantly
##hips
ensuite
suffer
fuerte
primarily
determined
circuit
semin
utility
plugin
parameter
birth
refreshing
aparthotel
98
fal
kle
vit
##rics
##laim
##pet
##gers
##24
##omas
##uled
conform
##verages
shalt
enchant
drives
##uces
##ampp
metal
courts
remark
reader
college
expression
doctr
requested
practices
coastal
layer
6819
platforms
garage
circum
##opolis
##dharta
scenic
arcade
siddharta
sustain
understood
fol
fell
homes
mold
tyr
##eated
##set
##field
##inc
##ora
##inger
reven
orange
tracks
##une
adop
adapt
manif
##oughly
smith
myself
appart
120
differences
backup
propriet
operates
portable
listen
tested
fairly
venet
interfaces
administration
continued
hearts
scenery
champs
oblig
hosts
divided
peninsula
56
bav
bah
font
hast
sides
um
##wh
##gl
##onia
iso
##stations
react
reject
exists
suc
sev
unus
laid
parallel
efficiency
glad
tests
automation
leads
labor
weekly
bigger
diam
antique
victory
quebec
precisely
concerned
agreed
remaining
cutting
sexual
##yll
monitoring
degree
folder
mozilla
female
oxford
mirror
gothic
exclusively
sail
##iors
##pa
##ani
prison
beverages
chairs
##cend
##emat
##elling
leather
##endo
##uba
cooking
bund
phoen
colors
empt
provider
assum
medium
elig
finished
pleased
malaga
alternatively
respective
sufficient
supplier
achieve
baby
component
astronom
laptop
uspq
codes
dive
hes
pamp
poll
row
rio
rivers
sv
tul
xampp
##nal
thai
##ingly
##entura
##eway
canary
deuts
##ours
sequ
##elled
arb
##pled
meg
committ
twice
accessories
comfortably
remained
ends
entering
attraction
multim
concert
moroc
occur
ensures
loved
returned
appearance
hospital
advantages
photocase
seasonal
critic
mercure
substant
bottom
doubt
simultaneously
voltage
78
cf
nfs
sql
tail
##dy
##aling
##lets
forced
priced
##oder
##chester
chips
quant
cliff
interv
brass
modem
subsequ
sett
greatest
finds
possess
##erta
arriving
handling
baths
refle
retail
treas
##iveness
keywords
movie
addresses
characteristic
florida
literature
mosc
negot
ramada
adapted
montreal
elysees
sheraton
manifest
aid
dur
eating
eiff
fans
fitted
gul
gaming
ky
kore
lights
mut
oil
raw
tall
von
yellow
##vis
##hydr
##oes
##mo
thund
##ulating
##uscan
showing
##aints
##ova
##apy
planned
##tress
##erne
grac
dress
##iang
enjoyable
businesses
polite
developments
arranged
##isson
traditions
inviting
els
operated
explo
closer
careful
url
coverage
balconies
regardless
manufacturing
corporation
selling
seeking
41
cord
mr
pier
zu
##inate
##ila
##lyn
##emic
spr
enemy
##ifies
boats
scott
highway
striking
customs
patch
terraces
purchased
micro
keeping
icon
releases
victims
definition
palatinit
ukrain
intelligent
diagn
preserved
settlement
lamps
permanent
trouble
chemical
dine
greek
ran
##ugh
##ois
##wick
##cts
##bles
ons
unf
arms
willing
clar
peru
desert
##assis
supposed
transit
marit
consens
artistic
capable
schl
schip
archae
17th
digit
grande
domain
optional
##dington
enhanced
rubber
bottle
athens
accompanied
dhcp
split
nazi
minibar
cosmopolitan
xlstat
absolutely
58
gly
gosp
kir
mist
##eem
##eous
##yon
##inos
##ascript
##osing
##olo
##ido
chocol
exotic
ships
spin
seating
##apest
adam
##club
##iana
europ
stress
adds
carl
parents
basel
designs
discre
speech
esc
renew
##ilton
##asonic
organisation
constant
sanct
matr
cerem
existence
budapest
argument
paths
army
##ormina
animals
manufacturer
nordenia
ultimate
procedures
trademarks
powers
refundable
crystal
javascript
tibet
eiffel
gospel
ahead
fon
fib
gone
kal
##ni
##tor
##hi
##hen
##oz
##yan
##fe
##kit
##zig
thin
thor
##ales
stable
##aya
##erse
##oded
shad
shore
acres
whenever
scot
highlight
personnel
knew
consent
##quez
##rooms
##azquez
directions
viewing
engines
invites
elim
operators
majorca
statistics
calibr
hardly
keyboard
promote
movies
radisson
churches
representatives
reporting
replaced
missing
immig
galax
answers
aspect
failure
campaigns
sacr
somewhat
taormina
nephi
apartamentos
04
84
bc
cw
diet
ech
gem
gps
hence
jul
nin
nom
tu
wit
wing
##ez
##no
##hire
##erate
##aser
stated
##ationally
alarm
usual
plastic
##umb
guides
exped
overview
pref
carbo
transpar
valu
visitor
porto
retain
positive
extraord
showers
letter
authors
irish
doorstep
imagel
referred
preferred
significantly
forests
licensor
portugues
paddington
burning
cycling
behavior
revelation
imperial
disposal
circumst
succeed
eligible
schiphol
700
dc
kh
kam
pir
zion
##zar
##36
##32
##enburg
##otten
als
##amed
chassis
##emies
seed
adequ
##sole
airline
##ucks
species
##urred
evenings
editing
mah
simulation
trading
luxem
finn
attentive
retreat
poster
concentr
limits
awa
electr
characteristics
##ijk
governments
##ooop
happens
happened
overlooks
resulting
competitive
synth
teachers
institute
municip
introduction
recognized
temperatures
advertis
coven
launched
shape
velazquez
unlike
reconst
crisis
moscow
imagelooop
ci
cs
coc
jack
kan
lag
pent
sad
zoo
##ael
##king
##zy
##omo
##ican
##ests
##amin
##abling
##usch
wash
plac
dise
pharm
agencies
themes
strugg
director
20th
operator
reserves
topics
repair
labour
decoration
controls
fourth
joined
ille
participation
puerta
frequency
achiev
consumers
aims
islamic
patterns
muy
sudden
sections
chapter
dollars
fascinating
malaysia
riviera
rarely
zimmer
carbohydr
cott
mast
ng
px
pod
push
rim
tuscan
voc
##tles
##dm
##bach
##fol
##mon
##itate
##eland
##acon
hotsp
##agers
adri
##ernet
##erness
smooth
indul
facil
maybe
##ucing
decades
emot
marks
proceed
sins
attitude
wrote
cultures
stories
glas
alongside
insurance
closely
lovers
successfully
officer
planet
impression
watching
greet
moments
negative
vibration
illustr
analyz
andalusia
doctrine
committee
3rd
dust
vin
##vo
##vre
##ii
##iel
##cy
##ken
##gow
##erd
##esc
##osc
##osure
##acle
frame
fridge
enorm
enemies
##iforn
weap
##oked
thereof
phase
prohib
##ieties
para
wherever
##ifications
handy
advis
patio
finish
californ
logging
encoun
printed
thinking
extreme
holds
bringing
formerly
navig
egg
matches
mixed
ethnic
martin
feedback
colonial
alexander
consciousness
incredible
wheel
random
tyrol
phoenix
57
66
fp
gum
hab
hell
kong
nine
py
pas
ports
ts
ud
xml
##eals
##ned
##aux
##iere
##si
##wor
##pe
##pers
##rees
toler
##isa
##acies
##ece
steep
##aments
fron
##iding
rein
##abil
canon
##ateau
##ourse
accounts
coach
linen
warning
publication
righteous
detect
detection
bookmark
technological
inns
traveler
factor
##bruck
affected
legisl
positioned
steel
returns
eventually
engineers
implemented
supplied
division
billion
carrier
jobs
wiredu
memorable
ultim
terminals
submit
gastronom
priesthood
attached
empty
extraordinary
glasgow
67
bb
bost
kings
nt
nas
nut
tiny
vine
wc
##uise
##ries
##po
##otive
sp4
##ipe
clin
ads
booth
coins
hels
larg
invited
cleanliness
installer
multilingual
waterfall
bookings
lighting
midst
promise
##engers
1997
##ography
surely
reasonably
holding
newspaper
upgraded
electronics
judge
confirmed
oriented
birming
capture
michel
procedure
clothes
scientific
bangk
interpretation
upload
bronze
prostitution
scripts
morocco
negoti
circumstances
adriatic
duration
oh
pine
wast
wick
##log
##gio
theater
##oria
##itory
##oted
##entially
withd
##chen
shift
locally
##ials
##udes
##actions
bond
##athers
dram
charles
proof
scxi
ages
helped
corn
generator
schol
189
##auer
filesystem
showed
awards
turns
##itories
hole
dryer
effectively
sending
jewel
normand
journal
dealer
panorama
correctly
mounted
sundays
ethernet
sacred
##know
assembly
dirty
perspective
tulip
cwt
witness
portuguese
california
89
bow
han
hong
liability
nb
pag
ross
saving
sands
socket
wil
wiz
##iam
##list
##fur
##mm
thail
##enom
##enos
andre
##ented
forb
##utional
algar
api
anton
exter
shell
spoke
deals
acknow
heat
interiors
bra
barber
internationally
charter
scand
scope
agric
blank
decent
101
formed
editions
warrant
##anca
specially
discounts
techniques
propos
supporting
explicit
receiving
positions
winner
packaging
connector
universities
factory
appeared
blackpool
depends
broadband
libraries
navy
georgian
indicates
improvements
flowers
conducted
seattle
washington
olympus
expertise
sweden
dangerous
minimal
husband
mathemat
criminal
brook
arbitr
luxembourg
illegal
enormous
largely
birmingham
bangkok
thailand
agricult
2nd
51
fet
gut
hal
hung
mental
rug
sed
tut
tamp
##uw
##hor
##bed
##oring
##itors
##outs
tooth
##acio
pride
##igen
reich
##iration
##open
tro
tres
##andon
servants
manor
##ansk
braz
##ensity
commerce
cruise
regulations
flopp
excav
##rupt
stream
generations
extensions
##inki
communist
naturally
salt
statements
##boa
entit
annot
productivity
convin
audi
christmas
happen
representation
controllers
investig
merely
lisboa
fabrics
converter
duty
dubai
countless
blessed
refresh
restrictions
girl
dolom
constructed
ott
friedrich
vulner
enthusi
##stadt
valuable
helsinki
algarve
brooklyn
73
88
hi
iphone
mitt
pav
pension
tai
wake
zo
##east
##aaz
##xx
##pal
##park
##25
theory
##ati
##anz
##oli
##oding
conqu
aren
centro
##agne
abra
##erman
charl
criter
informed
connects
skills
passengers
casual
majestic
surprise
automotive
telec
##eeper
posted
princes
coastline
1999
angle
broadway
tener
assistant
browsing
accompl
coupled
walks
lifts
certific
evaluation
surprising
obvious
david
deleted
##straße
unusual
chocolate
floppy
77
ay
aus
dal
ether
hyp
luz
oak
wav
##ties
##tons
##yt
##car
##coming
##page
##bb
##bahn
##feld
##any
##rel
##omatic
##ecks
##oche
##essions
query
##avia
##eller
manually
abund
branch
phr
phenom
myth
idyll
workstations
transf
marine
##lando
##erra
directed
mais
solo
checking
listening
topic
tvs
concerts
16th
environments
male
begins
communicate
covering
spectr
horiz
festivals
liberal
educational
strategy
seemed
talking
possibly
encourage
emphas
nikon
mansion
ultimately
05
61
92
bern
cav
hip
kamp
liqu
rose
rue
sister
tat
vr
##lights
##mann
thir
andor
stan
pra
beers
alc
##idential
##tera
orlando
##using
tri
trails
allergy
noted
##ibly
##ounds
##ounting
##ghan
grace
afghan
contacts
breakf
##ictions
personally
decl
helping
monte
##lessly
passes
communities
paying
labels
expressed
instruct
connectivity
pcs
logo
logic
legit
electric
copying
films
latex
executed
suppliers
approved
fuel
cooked
optimized
wilderness
indicate
demanding
champions
consisting
conflicts
consulting
waveform
trauma
drawn
gifts
genuine
proprietary
gracia
scottish
viney
withdra
bought
died
dwell
ga
gear
hen
jp
james
kos
kens
nr
og
overs
rum
sas
taught
##oa
##come
##gage
##64
##eren
##isd
##urable
##stend
frag
como
chile
shield
##aka
##aked
##unya
segment
unix
compress
##iah
manchester
##ansa
boy
smoke
disturb
mayor
registry
bask
delights
plays
##ancing
monaster
signature
180
explain
explains
demo
archive
archives
cala
organised
politicians
hosting
##bridge
camps
globe
1998
admire
precision
reported
synt
dealing
compatibility
strongly
gentle
imaging
privileges
ceiling
narr
attempts
catalunya
figures
intelligence
migr
clothing
ultra
obviously
windsurf
landmarks
declared
##erbird
academy
habitacion
organisations
commemoration
thunderbird
scotland
calibration
finnish
kensington
binary
ger
lose
ment
pon
ty
tec
ub
wb
wolf
##ras
##nings
##ao
##jack
ing
##eta
stones
##oles
confort
shr
enabling
canoe
unable
##umin
compli
abandon
avaaz
exper
crist
whereas
##issance
skin
territory
defeat
passing
passion
refr
estim
extract
helpfull
headqu
searching
integrity
cancel
stein
approx
authorities
iran
paintings
learned
regarded
deny
argent
objective
granada
surfing
photographs
literary
lifesty
diversity
uncom
arrangement
subscribe
fifth
bulgaria
jamendo
challenges
pacific
enchanting
multimedia
archaeological
hotspot
frontera
arbitrary
brazil
abraham
tenerife
transfers
bour
dor
ftp
hp
herm
kais
loud
vene
##rad
##ieth
##des
##pack
##finder
##gas
##aco
##uted
##olic
##irola
enforce
##ovis
sep
acts
accel
aber
deserv
##iza
outsk
avi
prelink
facade
secl
loop
decisions
privately
playground
##ockets
artwork
##issions
palais
##ierge
invention
15th
defend
toolkit
rena
##days
toward
##ivalent
repeated
resident
occurs
##engirola
##ifying
novotel
increases
integrate
cannes
drinking
venues
precious
identification
woods
broadcast
##friend
namely
fuengirola
tells
priority
funds
occupation
consistent
resource
cabin
principal
diagr
conventional
disappoint
apparently
landscapes
sustainable
##while
taiwan
idyllic
outskirts
7th
bil
dess
giant
hers
kw
pant
vor
wishes
##uge
##ria
##hot
##bit
##ju
##80
##14
thurs
##inent
##orious
##itter
##arf
##rete
##osa
ash
shoot
enlar
seam
compens
compiled
leip
serviced
resc
##soever
abb
##uber
buttons
boast
grown
brow
brief
guestrooms
disney
smell
beta
everybody
sao
flair
parent
blu
skill
medic
ended
explan
protest
header
asking
acquire
impact
sleeping
sensitive
robots
crossing
oslo
literally
virtually
celebrated
ruby
copies
kurfur
ranges
subscription
satisfy
##azzo
disappear
administrative
spyware
commitment
orchestra
daughter
bodies
stretch
consensus
boston
auf
bish
cm
cere
dipl
haus
lane
pear
sip
sought
ton
wis
zero
##nia
##iour
##sen
##files
##ker
##mar
##33
inch
inexp
##omed
##icial
##osl
##stall
##iden
chew
trick
##ando
##unes
##astr
##urem
interview
##rox
##rob
drug
disable
reliability
agents
strange
carib
beloved
specialized
holes
endless
define
versa
termini
ordered
depth
follows
concierge
##heart
creator
keeps
1996
monthly
dupl
represented
moon
sentence
guarantees
licensee
collected
expectations
sporting
animal
iii
bugs
improvement
observe
drawing
scanner
schedule
scheduled
warsaw
louvre
algorithm
distinguished
sculptures
resistance
adequate
mathematical
audiovis
breakfasts
##stendamm
audiovisual
bung
jard
luf
lago
nurem
rod
sizes
tips
wet
##away
##held
##fare
##key
##iti
##areness
##icity
##stre
##idad
##opr
checks
##thansa
##ewhere
tray
plane
leon
guesthouse
##ensional
mineral
supplement
##icted
strip
flesh
##ommun
formal
emails
designers
consec
contribution
evidence
cape
cream
cleaned
powered
foods
behalf
secondary
prompt
matters
triple
login
ensuring
stead
radi
commonly
fireplace
millions
massages
exhibitions
franklin
preferences
tranquill
loaded
failed
kilometers
tapas
suggestions
occasions
fighting
revealed
elders
templates
texts
accomodation
##laimed
gulf
elsewhere
ukraine
matrix
suddenly
etherboot
lifestyle
renaissance
lufthansa
69
bind
bree
caught
della
gorge
oc
penn
pull
rin
ris
rust
roughly
sab
sessions
##var
##hagen
##ih
##war
##xpress
##bel
##gy
##gin
##mouth
##oni
##oust
toky
prix
reward
console
##imo
##ortion
spell
canaria
##overs
aro
ampl
thereby
bruss
draft
cruz
regime
flower
transactions
##encing
linens
meter
providers
ample
housing
equally
whatsoever
visits
styled
portra
multip
##afts
redeem
calend
destruction
purchaser
letters
measuring
affairs
affili
convey
harr
officially
angels
millenn
socialism
blackjack
ambiance
avenida
qualified
judgment
1945
progressive
silverfast
lanzar
extends
fulfill
synchronization
lady
serbia
ecuador
ltc
transmission
legendary
rejected
certificate
leipzig
kurfurstendamm
nuremberg
87
86
96
dar
ef
gp
ges
gained
gaud
lav
lind
rip
sir
saints
yog
zones
##hel
##water
##case
##pass
##mx
##mic
##most
##35
##17
##ede
inasm
stere
##ested
anch
##emas
shot
notting
seg
##apped
##agr
goals
grill
bran
doz
driven
relative
##icking
highlights
1950
marse
peoples
delay
##rupted
nightclub
sword
believ
assess
inval
passport
writ
downloads
multipl
purchasing
infring
midnight
junction
specifications
##lette
precise
separated
tasteful
representative
derived
damages
painting
foreigners
6815
storey
subsid
consumption
recognize
divine
debate
aircraft
catalog
certified
ruins
behaviour
initiative
##ettes
conclusion
landscaped
guidel
marriott
pizza
isolated
jurisd
amidst
pixels
climbing
scheme
europa
covenant
wicked
criteria
secluded
bungal
tokyo
brussels
lanzarote
inasmuch
4th
900
ai
cu
dl
dict
dock
gib
hack
haz
killed
lens
mere
nu
nos
rows
sic
tong
tert
tired
vice
wise
##ship
##bury
##71
##iner
##oret
##ilia
##ersey
aside
cha
chal
chose
##the
armed
##tries
abroad
meets
brown
##look
relation
sits
crash
cruis
instantly
delivers
equivalent
souls
handic
crew
choices
slots
produces
##anners
towers
treated
organic
wordpress
americans
identical
duomo
circle
translations
cellar
falls
sierra
faithful
raise
prophets
melia
wales
wallet
soldiers
ferries
##going
toiletries
botan
tags
andalusian
gnome
riad
serbian
venture
muslims
distinctive
encryption
crowne
replacement
prosper
recovery
organizations
gateway
diagnost
awaits
fpga
innsbruck
wizard
hungary
kaiser
browse
03
76
72
bau
bien
gs
hd
jazz
ter
##esy
##itel
##ouira
##arians
stability
fruh
rear
orn
##aks
sees
##apore
compost
height
adwords
##plan
graz
cozy
brill
proven
scat
indicated
superv
bedded
customized
helper
friendliness
webc
seriously
realize
refuge
singapore
waterfront
continent
awareness
moral
cheese
turning
accordingly
returning
acropolis
treaty
massive
queens
initially
sandwich
banking
graphic
greece
employment
imagine
promotion
daqmx
degrees
transformed
cinema
fleet
dogs
nicely
bulgarian
occasionally
algorithms
birds
nbsp
tutor
refriger
herself
bid
gig
gems
hect
hide
hier
lingu
md
nou
nis
rice
rush
vat
yacht
##uing
##oors
##free
##ingen
##ications
##asso
##ulator
##imp
dei
dealt
##ape
worst
##agues
leaf
manip
managers
##ending
##igned
bush
partly
faces
regulation
goodheart
transn
modernity
decre
norway
evol
evolution
handheld
discip
trained
choosing
multif
bali
organise
tempor
lessons
parisian
tastes
icons
renovation
considering
specification
halls
##bean
participant
identified
maxim
opposition
translate
merid
epo
altitude
collective
recognition
baggage
samples
arrangements
padi
composed
buddhist
restricted
slowly
gathered
consequences
wedding
somewhere
##ischer
salvation
cluster
clusters
strictly
alpha
##bahnhof
withdraw
rescue
ah
bist
dos
dies
fathers
hors
jacks
koh
lig
mild
sake
tan
##ros
##net
##down
##col
##cia
thread
toled
##isms
##acles
##eca
stall
##utical
alic
##irl
spat
seb
unt
unsp
william
##okes
heark
healing
interaction
newest
grab
grave
gross
coin
restore
craft
parc
knows
blind
linz
artific
swf
serbs
directive
coral
belief
hero
ordained
ordinary
portfol
intention
##after
payments
organize
doctor
receptionist
commands
targets
considerable
1994
messe
officers
victim
sleek
necessarily
freshly
shares
sleeper
suffering
describes
databases
tracking
olive
talks
appreciated
bustle
figure
mechanical
bandw
rebu
##ulsion
conversion
remarkable
sailing
scholars
headquarters
thursday
wisdom
chewing
gaudi
compostela
transnational
bistro
5th
bin
bikes
cay
cort
curs
dj
fs
garn
hau
kor
lage
nv
uit
x2
zar
zeal
##eur
##hz
##cer
##com
##bi
##bot
##bij
##kl
##kel
##gent
##enon
##itarian
##alia
inqu
##etime
stal
beverage
alf
##amar
##irt
cometh
##cha
##cher
##cepts
##illo
##ifice
##ections
##ovo
##ovic
unr
opp
##ika
abd
##robe
grade
buchar
##ptuous
strike
greatly
teat
marvel
basil
consol
valle
completion
clever
palazzo
elite
defence
processed
slav
versat
devil
couldn
northwest
intuit
concent
110
presentations
sumptuous
sunset
temporary
machining
occurred
jung
measured
commandment
elections
radical
##bourne
discovery
##beat
##shield
translated
acquired
paint
painted
respectively
younger
jacob
1989
semi
optimal
strategically
trends
causes
certification
homely
partnership
contribute
##guard
rhine
dunes
relationships
sectors
girls
##drop
blends
swedish
marriage
suburbs
pilot
inherit
firewall
brasserie
settled
reflects
korea
righteousness
dolomites
mitte
monastery
ingles
venez
inexpensive
caribbean
breeze
millennium
haupt
bucharest
dated
gamb
jersey
ligh
rs
rational
ss
##iq
##lasting
##cing
##pp
##bank
##62
##94
##inates
##arium
##ingo
##asma
##ento
apache
##oca
chron
quark
spo
spark
spake
##anta
canyon
##oves
##ardo
plasma
heid
##ogen
lev
managing
coat
modular
##former
contex
buenos
overnight
persist
twel
engage
##obile
income
advise
passenger
southwest
lasting
reduction
testim
squares
personalized
personalised
sunsh
tempt
malta
mobility
heading
140
affl
selecting
anticip
verify
issued
beneo
participating
compete
ambass
difficulty
embass
horr
describe
continuous
occupies
focused
efficiently
licenses
federation
hungar
analyze
publishing
rambla
columns
mechanism
gnu
baptized
maker
gdansk
supermarket
chamber
attributes
false
revenge
carbohydrate
encounter
exterior
entitled
telecommun
declare
tranquillity
guidelines
toledo
alicante
contexts
ale
bm
bens
cow
cave
gro
kuw
lu
lem
loy
mx
m2
mood
moor
ost
pes
pep
pots
rely
sorts
tang
tformer
vatic
##ns
##tub
##hs
##lers
##lig
##di
##ko
##76
##18
##40
##42
thomas
##nder
##icate
##oso
stew
stairs
fortress
pron
##ivated
anth
chin
chamb
##verty
sphere
encl
alloc
##ouses
league
##aceutical
boards
restart
outlook
relating
afterwards
airy
aires
prove
##others
poverty
carri
##teen
enjoyment
marc
emer
##xture
europeans
##azione
specialist
palacio
solely
checked
elabor
terrible
realm
knowing
extras
sheets
safely
explained
multitude
shortly
winners
keyword
networking
annivers
joining
closet
closest
practically
requirement
lowest
claimed
virus
opposed
colourful
sensors
teacher
trafficking
arguments
references
photographer
violent
dreams
photoshop
celebrate
karls
israeli
memorial
inventions
summit
cinemas
racing
##flow
programmable
discounted
rapidly
emergency
advertisements
troops
kampusch
basket
##desk
intuitive
twelve
sunshine
kuwait
ces
cel
coup
hil
kre
kem
liable
mould
nicht
rav
rica
sax
sie
turb
ware
##gb
##inj
##install
##ener
##arc
##arity
##edy
##alty
prol
##estar
##cht
##aboration
chess
chateau
robert
##eware
##isters
##arten
##pling
leeds
descend
brah
ministry
ave
anymore
crus
everlasting
pole
strang
carn
accessed
marco
touristic
situations
##ontin
##ruption
featured
corrid
discern
##eee
assume
listings
188
conveniences
fares
concrete
harbor
insist
1990
1990s
putting
milk
scroll
faq
buying
refurbishment
discussed
administer
continuing
continuously
photography
diskeeper
champagne
shaped
vegetables
vegetarian
buddha
minority
programmes
emphasis
crowded
bergen
assigned
seminar
klein
adopted
venetian
schloss
galaxies
pharmaceutical
normandy
scandin
andorra
##stream
marseille
brilliant
portfolio
79
83
aan
bull
ct
gam
hay
ieee
li
mort
mare
pace
ppc
rated
rising
sopr
tant
zum
##rat
##hem
##cano
##piec
##bal
##jord
thys
##nda
##esis
##enian
attain
##omple
##ische
##asa
ish
##ecc
prado
##utral
alter
wharf
whirl
fruits
##idth
reposit
rejo
chip
##ima
quart
suf
##illes
shel
##akech
unif
arise
neutral
compil
##achi
guy
guad
upcoming
gren
brick
brava
disput
barg
partition
##ittings
wouldn
distances
revol
decis
requiring
actors
corners
viewed
generous
believed
captain
ending
retains
salon
intent
surchar
freund
lawy
reachable
colleagues
origins
headers
campo
prince
verona
copystation
distribute
pressing
queue
albanian
puzz
motorways
motorcy
merch
brandenburg
horosc
institutional
armor
maintaining
validation
skyline
involves
romania
dynam
shipping
collabor
saturdays
michael
obligation
hitler
migration
dimensional
protocols
labeled
template
symph
laman
supermarkets
marrakech
diamond
substantial
shadow
municipal
kanun
prohibited
##worth
bbc
phenomenon
windsurfing
multifunction
artificial
bandwidth
concentration
repository
bast
hilton
ket
ly
mhz
ow
oven
pione
rul
tid
tight
tues
vert
vital
ward
##don
##yth
##pd
##fest
##kon
##kam
##jan
##77
##inery
##oul
##alle
##rec
##reb
##ivir
oracle
exem
##emble
triang
plot
worse
worry
##ogy
soe
abstr
newcast
##ensively
timing
sys
##berger
noble
score
scuba
craz
crimes
breaks
carmen
flu
transition
marques
deck
##phones
meta
norwich
remem
belgr
bathtub
advised
listing
retained
readers
singles
inters
flook
posts
combat
calle
await
professor
##ophone
130
logistics
characterized
##zzo
workshops
audience
patentable
recordings
volcano
boarding
fastest
layers
ambient
associations
laser
battery
meanwhile
absor
epc
altec
traditionally
petr
privilege
plugins
aimed
variations
permit
inputs
ibiza
ultrasonic
mixture
resolve
dollar
expanded
solidarity
salvador
brewery
crowd
jean
louis
monumental
recreational
pillows
ontbij
criticism
transparent
udev
forbidden
spectrum
branches
refrigerator
meridien
hearken
basilica
ambassador
vatican
whirlpool
71
a2
bart
bass
balk
bands
dip
dll
fittings
jr
pase
yfiles
##uer
##rome
##eaux
##tic
##hill
##wall
##zer
##enhagen
##itar
tod
toll
##ilings
##oster
beings
alive
##iveth
##iders
##abe
trous
depos
##unas
yourselves
seasons
##umes
##000
comply
perl
perpet
amounts
grav
grange
aventura
commons
##icken
persec
myster
agent
themed
flv
transd
lined
contrary
wayfinder
remind
solve
capit
backdrop
patr
installations
producer
producing
##ahr
pays
linear
activate
popularity
buffer
configur
humans
novella
taxes
1992
beneath
career
periods
routine
acceptable
sharp
concerns
irre
suffered
epp
upgrades
fixes
loading
ceilings
hamm
permits
bags
rocky
johann
improving
illum
##efined
interpre
ibis
##haust
dominated
chairman
doubles
opinions
fifty
dragon
surprised
academic
exceptionally
respondents
terrorism
pilgr
axis
seminars
tailored
subsequent
springs
maritime
ceremony
struggle
nutr
dramatic
explicitly
afghanistan
vineyards
syntax
bishop
gorgeous
gpib
fruhst
spatial
heidel
soprano
freundlich
newcastle
74
ae
bomb
cig
css
dot
gend
hr
hague
liver
mong
nd
niet
rm
races
sick
tav
voor
##pi
##poche
##fo
##29
##erk
##erver
##atown
##itable
##ali
##osh
stack
stamp
stood
##igan
reign
##adays
##ulates
asc
chi
enlight
##alled
une
unn
##agu
newer
provision
provisions
cruc
indirect
preach
subjects
distcc
poet
systematic
##teous
flaw
pars
counsel
basically
playback
swap
nowadays
courteous
##erty
directories
specialties
handled
palest
longest
assort
refers
portion
musicians
static
erg
trem
machinery
factors
##brance
annex
14th
movements
preview
##ographic
barcelon
puts
execute
inspiration
richard
wishing
cypr
philipp
speaks
irr
preparing
essa
potato
discussions
siem
cookie
optimize
occupancy
raised
licensed
influences
suggested
lodging
kurd
symbols
curtain
collaboration
akvis
magazines
juan
##conn
##entrum
hanging
metropolitan
alcoholic
konig
recreation
roulette
baht
astronomers
pxie
tuscany
indulge
fetish
rugged
tampere
rinpoche
calendar
zealand
remembrance
ontbijt
paseo
transduc
6th
caves
dow
eb
eos
ecl
fc
foy
fert
filt
gun
hurr
ix
ja
kg
kick
ling
pip
rating
sod
tcp
vote
wm
yug
##ng
##ye
##fig
##jection
##61
##59
##itudes
##ario
##anes
##isp
##ician
##oto
##osse
##urg
stair
##ste
prax
pricing
##ollo
albert
whisk
frames
##owed
repos
conj
allies
canals
##oven
loch
locate
accepts
neoo
##ffice
amaz
ups
##ubs
broch
outer
avant
phuk
crafts
fever
worlds
workout
election
##gry
appeals
metre
weblog
smallest
cork
specialty
eco
technique
attended
escap
dinners
receiver
homepage
destruct
##burger
midi
promises
hostal
displaying
matrox
secured
addressed
1995
establishments
fault
linking
separately
spirits
bordeaux
platz
vacations
agreements
premises
premiere
preparation
jaca
introduce
significance
tranquility
philosophical
qualities
therapy
mpeg
targeted
wildlife
##orkshire
comprom
lifetime
tabs
albums
copenhagen
adventur
symbolic
filling
constitution
belongs
complicated
consequently
leadership
dialogue
harmon
harmony
##known
incorporated
slovenia
emerging
elder
hatred
daughters
bavarian
subsequently
sacrifice
electrical
masters
waste
agricultural
liquid
ponte
diagrams
unspo
consolid
anniversary
essaouira
filters
neooffice
phuket
81
813
aa
dans
fellow
hc
hind
hond
ian
kun
lub
lyr
mg
mary
mails
mounting
pets
pisa
rect
tent
vot
vil
vess
wir
wien
yorkshire
##works
##gium
##mund
##inian
##onal
##oric
##iten
inev
##oma
##entine
##etr
##ersed
##esth
##idents
reels
exe
##imm
##cemic
##aver
shor
shock
enrich
yours
quoted
##apix
offline
cloud
compare
hash
##role
##izable
brun
##asses
barbec
exposed
commod
eurost
overcome
##ieg
colored
transaction
delta
poles
autum
viewer
herein
discourse
monaco
confidence
patri
##plements
2010
defects
slide
installshield
nato
protot
freely
160
activation
castel
tasting
speeds
##ija
admission
21st
printers
##veau
cds
deriv
broadc
sofitel
grey
touches
garmin
couples
cells
petit
debit
scenes
occupied
mosque
bicycles
karl
darkness
lodg
limitation
##bao
tournaments
authentication
arabic
folders
buddhism
carrying
dimension
sponsor
flavours
permanently
danube
trials
guidance
gradu
forgotten
hesitate
megapix
clarion
glycemic
eggs
waterfalls
maisons
bilbao
compensation
diagnostic
nouveau
jackson
oppon
testimony
uniform
450
bench
cum
cach
cair
diver
density
fake
hano
jum
kay
kiss
lac
pv
ply
pied
pair
ssl
yield
##rop
##nie
##how
##oard
##lana
##fk
##matic
##66
inacc
##oman
##lem
##etto
stol
prizes
##utive
##utory
##ami
##abel
exhaust
##vere
spare
seo
##aper
unknown
##iber
##uding
mann
outlets
exposure
charity
sciences
suprem
facts
##fortable
basin
excess
mainland
##author
##phe
eddy
metaph
playlist
streaming
##rau
belfast
belgium
excellence
handler
##under
skip
medi
condem
wanting
differently
finland
wrath
imported
updat
gods
performing
performances
magical
purchases
humid
exchang
cancun
workshop
angl
paste
holder
flora
container
epic
grew
heavily
similarly
stronger
corporations
burg
favourites
astoria
celebration
influenced
promoting
bahnhof
hunting
threats
farmhouse
distinction
vegetation
screw
olympic
fulfilled
wednes
vendor
injury
encrypted
prayer
orchestral
koln
senior
pixel
lucky
married
veneto
##ught
discretion
renewed
sanctuary
expedition
kamer
diseases
weapon
acknowledge
invalid
tertull
bauhaus
sebast
hungarian
benson
chinatown
belgrade
liverpool
foyer
yugosl
hanoi
82
94
aesth
bits
bij
db
danish
gust
giron
hug
lamb
mc
och
pond
rib
rhe
rays
rpm
rocks
ti
tones
yester
##uant
##run
##eira
##tes
##tost
##bad
##bul
##fish
##gang
##ggen
##zo
##51
##90
##erick
##inn
##inas
##atization
##alp
tob
##elete
##elijk
##icop
##asy
prosp
beam
alh
alk
##amo
fred
##irche
##ushing
itunes
##akra
sek
uniqu
##sea
##soft
soil
##izations
grat
coal
persone
twent
carbon
marv
basement
touring
emble
deleg
beachfront
throughput
fulness
autonom
publications
waytost
serge
eve
confidential
bathing
capability
memories
passage
writes
184
devfs
landing
receives
profiles
reduces
continually
societies
computed
##inski
labwind
midtown
mormon
hosted
pcm
antivir
exceptions
messenger
pastries
socialist
hillside
documented
investments
investigation
alta
##borough
superbly
chiclana
peters
answered
strategies
picked
viennese
1939
smartphone
copied
oliver
promotions
blessing
preserve
candid
athlet
croatian
fulfil
azer
encouraged
aerob
locked
egyptian
wearing
isolation
gradually
ltd
inserted
challenging
sealed
naples
bavaria
immigration
ninete
nasca
charlie
surprisingly
championship
##friendly
portrait
stereo
subsidi
hauptbahnhof
karlsru
siemens
autumn
updatestar
tertullian
sebastian
girona
waytostay
labwindows
bun
ced
cod
cant
cables
ccp
dil
eine
gest
gang
gates
gimp
hur
hans
kod
lect
nous
pum
porn
rides
ryan
til
tort
voy
vouch
##ui
##roc
##aid
##vania
##ventura
##ht
##lan
##mers
##mus
##mail
##22
##erated
##oro
##itative
##anbul
##rect
##ecca
forec
##stairs
almer
##estone
##ulent
##opath
##avian
##emis
tries
trace
notification
arist
nev
##uda
intermedi
perce
gui
boost
baro
expo
##berry
nobody
undelete
proved
provence
croc
indones
persian
faced
betting
colosse
carp
flats
knock
embr
##ologies
confr
sink
detected
patches
##icsson
defining
accommodating
finance
classified
enterpr
casinos
salou
renting
computing
##boards
##books
trevi
activated
malt
requesting
elected
complexity
patented
warmth
##ungs
##ambh
##iptions
happiness
entertaining
acceptance
virgin
damaged
speakers
independently
delicacies
focal
bootrom
missed
fallen
loads
matching
colorful
mercy
limitations
survive
width
benj
talent
orientation
curve
omn
contributions
lanes
blessings
dunge
murder
settlements
scientists
revolutionary
render
neighborhoods
cotton
ranking
fuerteventura
sequence
ranks
phrases
estimated
webcam
sandwiches
teatro
pronoun
bargain
decisive
surcharge
abstract
conjunction
lyrics
yesterday
alhamb
a1
a4
cain
cvi
dome
dame
dorm
dancing
fern
gel
gaz
hav
hust
ka
lj
liv
nick
pomb
rab
sr
tir
vl
vig
wur
wol
wound
waves
zag
##rive
##rants
##eus
##nt
##tar
##hl
##syl
##oj
##dings
##wa
##fle
##zin
##31
##300
##65
##52
##inth
##org
inequ
##rection
##osis
##actr
beams
##olis
##estro
##idia
##idental
reun
reef
hotell
chor
chart
##image
##illing
notify
unbeat
placa
guess
bohem
##ername
groc
restful
restoration
brothers
timet
buck
expelle
commut
preference
##pression
whoever
helicop
eleph
teeth
undert
genre
autos
##xtures
##uges
evident
palau
assured
medina
holly
backpack
schr
historically
patients
numbered
southeast
writer
surin
welcomed
packs
ericsson
reaching
expressly
sunb
mattress
existed
harv
excluded
camping
logical
insight
closing
cafeter
1993
courtesy
happening
authorized
necessity
##shire
engineer
dependent
savour
transferred
namib
innovations
investors
merchant
heavens
approv
wiki
recommendations
missions
telling
recognised
falling
physically
celebrations
licensing
borne
composite
michigan
rainfor
##richt
satisfied
satisfaction
neighboring
picasso
ownership
adapter
priests
istanbul
flavour
declaration
conventions
killing
makers
pulse
varying
deployment
pursuant
conservatory
repentance
obligations
deutsche
tibetan
echo
reconstruction
disease
cottage
cottages
navigate
pyren
convinced
zoom
pantom
anchor
nottingham
nightclubs
inheritance
chambre
triangle
mongol
repositories
barbecue
eurostars
azeroth
karlsruhe
almeria
baroque
confront
benjamin
alhambra
pombal
cafeteria
bare
bio
biking
cp
f1
fen
fel
fate
fails
fusion
fancy
gap
honey
lum
mes
mant
ny
nich
pam
pup
sul
sockets
x3
xdm
##lop
##win
##beck
##gate
##atr
##orous
inland
##asi
##asp
isch
##etta
forty
onboard
##sts
predom
beef
alumin
##igu
reaction
rewards
##adel
anger
congr
##ched
chest
##eme
##emen
shores
username
notre
notable
##quets
##api
##apping
unauthor
##ums
##agger
perish
##ikers
##ikely
upsc
soap
imposed
##forge
coating
mining
contest
timer
barri
expulsion
##orde
##iances
relief
persu
aggress
stras
twist
saunas
customary
easter
parade
marien
basics
deco
acting
varies
varna
varieties
controvers
cosmet
disco
incomp
patient
defense
classy
cardiff
reducing
entity
donations
telesc
presenting
lima
letting
stopping
malware
motel
boxes
commander
humble
##itorial
prevention
##ugging
licence
fisherman
considerably
fairs
overlook
daem
viruses
silic
silence
sleeps
minds
collector
employed
imagin
pedro
surfaces
photographic
debian
spending
siena
burial
obsc
journeys
honour
protecting
animated
catalan
passwords
prestige
corresponds
neighbouring
trusted
calculated
rosa
mexican
unlikely
purely
juice
chapel
zeer
resolved
psychology
ratio
vendors
revelations
trekking
recipes
complemented
enhancements
##office
removing
cliffs
carlton
fonts
thorough
succeeded
synthetic
placing
rimini
weapons
antonio
enthusiasts
vriend
instructor
compliance
abandoned
jardin
pennsyl
dozens
jurisdiction
bungalows
cruises
nvidia
versatile
gambling
elaborate
discerning
##piece
cyprus
alkacon
twentieth
marvell
sergeant
nineteenth
enterprises
hustle
unbeatable
pyrenees
pennsylvania
8th
cem
dent
dong
dsl
iber
lying
nero
ought
rud
slo
walt
##tv
##sburg
##lists
##cion
##fy
##fix
##kk
##mith
##master
##moon
##37
##39
##atan
##oub
##arat
##eding
##angh
##alb
##omphe
isa
##etv
##etooth
##ecch
##ston
whoso
apollo
##aba
##abl
##gean
roots
##emade
shah
##andro
spam
##unte
unm
##ipse
##tra
compactr
heal
##agn
pertain
amph
guilt
guitar
##izi
##izers
grants
resting
##enses
modes
minus
##ermo
anyway
overwr
distant
pointer
regul
strand
strain
carpet
flies
transmitted
parque
accessing
whereby
##iente
counts
emper
edward
actively
develops
builds
obst
obey
household
schon
territorial
proportion
processors
slr
refuse
operational
retiro
perfection
##eneg
intens
glam
glorious
fixtures
severe
updating
towel
optical
freeware
magde
instruction
connectors
begun
camb
prevents
diab
mighty
antib
##ufeira
##ijn
wonderfully
governor
volcan
volunte
kitchens
albufeira
watches
painter
impecc
battles
teachings
essentially
eyetv
implementing
upgrading
outputs
divisions
hydro
solder
1938
ps3
cabar
malls
homemade
sampling
adventures
observations
oriental
contributed
shipped
scanning
dominant
catching
weddings
conversation
psycho
robotics
injection
bosnia
barrier
stretches
mutual
ceremonies
reconstruct
annotator
thirty
triomphe
legitim
uncomfortable
enlarge
bluetooth
medicine
explanation
cereals
drugs
scattered
mxf
kemp
grenada
symphony
tuesday
aegean
cigar
enlighten
praxis
wednesday
uniquely
personeel
expellees
upscale
compactrio
350
97
astr
ctr
cure
cub
caut
finger
hate
hamp
jorge
kid
kites
kling
lign
lump
nerv
rc
rial
tiles
vod
vila
wo
wides
zand
zip
##uum
##ran
##eas
##ti
##tl
##houses
##iot
##oir
##ben
##34
thon
##enberg
##arios
##edes
##eling
##elago
##isse
##illy
##acing
prik
alberg
apr
reina
##adian
comfy
asap
##abul
chel
chill
chains
chicken
exh
##iments
quarters
suits
shaft
shambh
shangh
##aker
energ
usr
deport
##elli
unw
uninstall
arro
arte
plate
##ipelago
neo
neat
hass
##actic
recall
brut
moderate
expos
charts
breach
scar
scanners
subtle
highways
reverse
regent
colony
firms
##amped
excit
102
##raltar
128
mai
generates
specialists
palermo
confusing
invo
incur
advers
terrain
territories
madeira
propag
realized
realization
luxor
protects
ordering
redirect
teststand
archipelago
statutory
soccer
baltic
reaches
170
stopped
mobil
panasonic
camel
pcie
integrates
wonders
antiques
tablet
architects
microw
governed
santor
volks
globalisation
duv
resulted
impressed
mapping
alternatives
savings
sensit
essen
cheapest
fuj
gentiles
activex
adjo
immort
tunnel
1975
moses
kilometre
switching
causing
sweep
columb
suggests
##uela
captured
sidew
solaris
##keit
hitachi
bottles
invented
calculation
specifies
summary
488
akan
candies
mechanisms
consequence
sustained
troubles
danger
boundaries
terrorist
conservative
guardian
suburban
lucerne
geographic
geographical
sorr
barrio
commemor
prisoners
riverside
durham
mistake
thoroughly
prefix
advisable
alexanderplatz
gastronomic
conquer
experiment
assessment
gibraltar
refugees
stalin
embassy
telecommunications
potsdam
guyana
puzzle
trouser
heidelberg
shorter
plymouth
schroder
##lopil
emperor
volcanic
kitesurf
priklopil
asap2
shambhala
shanghai
arrond
bam
bib
bunk
cc
cakes
ds
dense
eads
ft
fer
gage
hike
herr
hitch
i5
ken
lug
mul
moo
mxi
nuc
naked
pd
pec
passe
rf
rough
rai
ritz
tear
tft
uber
ves
wer
wavel
zentrum
##nan
##name
##har
##hard
##lion
##dd
##cial
##fts
##jana
##68
##67
##44
thames
thumb
##inct
##inux
##esome
##otech
pruss
beware
fraud
orth
##imar
quaint
allied
canopen
##uni
##astricht
##apes
unexp
pln
##ibilities
admitted
interd
acclaimed
##ende
abol
modifier
disks
buzz
barbar
symp
smile
scal
crop
feels
freeview
##print
##ucose
somehow
twg
offerings
easiest
##encial
##gression
appet
equality
##ologists
maastricht
runtime
##issement
generating
belved
winding
equiped
funny
skilled
invitation
checkpoint
proposed
defines
##cribe
founding
devoted
northeast
intense
glucose
##perate
##rians
repeat
collections
residencial
179
awesome
prominent
railroad
chefs
banquets
snork
pasta
luxuriously
wallp
initrd
vacuum
denied
denmark
exploration
embod
huel
utmost
1970
qualifier
involving
focuses
scriptures
comprising
raped
deeply
titan
1967
catered
ghana
promotional
tomor
constitute
stadt
demonstrate
bridges
initiatives
zeit
sponsors
sponsored
expanding
instrumentation
peaks
retrieve
##hofer
earned
exceedingly
scripting
announcements
tubes
removal
vitamin
laboratory
treasures
escort
concentrate
municipality
csv
bookmarks
legislation
gastronomy
clinical
excavation
jpeg
disappointed
diplom
consecutive
rustic
writers
caye
valleys
quarkxpress
persistent
bmw
horoscope
kettle
interpreted
eclipse
destructive
anglais
yugoslavia
ccpa
dilig
indonesia
hollywood
magdeburg
ctrl
ligne
rialto
nucle
belvedere
aar
aix
bure
dental
eto
eee
fm
fits
hired
jump
ks
lor
lut
lun
lok
lud
lyon
merg
pue
pont
paph
rer
rude
tam
tough
tie
tied
tale
ugo
wider
##rag
##lor
##lock
##lined
##bas
##bere
##kg
##keep
##greg
##mi
##my
##map
##eres
##inen
##inely
##onial
##atu
##eners
##ometer
##elly
ford
##lying
##stone
beans
##olly
##igo
whit
##irable
##adas
##adem
##chu
chester
qui
##avista
trap
##aki
span
##mented
notably
##uno
##asty
uncle
offensive
##iph
##train
clash
worship
percept
manus
accident
##gha
##forced
grid
grass
brush
drunk
displ
busiest
partially
airways
subd
##angel
reveals
breaking
sauce
##teenth
flows
fira
bled
secre
counted
mars
getaway
125
##phs
ideology
metals
waren
autob
possession
contracts
maus
handles
travels
herb
incon
backend
30am
30pm
detects
realms
refused
differential
founder
producers
storing
reads
##auk
##annon
##ahl
intend
studied
receipt
glac
innoc
wins
standardized
##peria
entities
168
stephen
activists
weekdays
##evo
178
175
annoy
cheer
lesser
gea
banus
productive
campus
creativity
economics
consideration
bitter
feelings
volunt
globalization
safeguard
precaut
void
voices
competent
theaters
outdoors
losing
ancest
structural
buyers
epis
difficulties
##hran
booting
institution
garments
centrum
liberty
sixt
billi
bills
prophec
indicating
variant
consistently
animation
##adores
##embly
haag
subscrib
bottled
calculator
citizen
transformation
demonstrated
snowboard
fifteen
aquatic
dictionaries
heavenly
deployed
spybot
baked
ranked
conformiq
seventh
pierre
kirk
galaxy
michelin
ohio
acknowled
warranty
abundant
enforcement
repeatedly
##hotels
binding
believes
infringement
hierarch
prolong
mannheim
pcmcia
colosseum
strasbourg
marvellous
albergo
unexpected
sympath
aj
aux
cus
cens
dart
dazz
eul
etern
fo
falm
gy
gab
hak
haut
hinter
hvar
ik
kenn
lest
nach
neck
oem
rack
sz
vous
wings
##eer
##tors
##wing
##with
##cad
##bound
##gs
##gia
##mod
##mont
##100
##21
##erl
##onian
##orum
##itas
##rew
##reich
##recht
toast
##eline
##ioned
##ota
ongoing
##ols
ali
alien
##igr
##igm
##estial
reh
reus
##uliar
##ocus
chances
quay
quad
quint
itiner
##iller
shif
shirt
shannon
noticed
##ateur
##ouri
##appr
unch
aragon
clip
compile
worn
##achakra
##ogly
##ogether
##ogene
interch
interconn
##ffield
amend
##ounding
resur
sovere
abide
aboard
goed
bob
boots
##acker
outland
##assa
##assol
disaster
expenses
##iants
daylight
bremen
scores
laugh
##ucc
strings
saus
customize
walked
knight
00am
marnie
bases
105
ideological
autoc
swan
contrad
streams
##raid
maestro
soup
engaged
connell
discour
assert
schm
##plex
##plein
portions
esta
communism
toolbar
sheffield
readable
studying
##otherapy
balanced
organizing
functioning
espana
awful
promised
pointing
digest
postal
mature
##amente
selections
nova
verification
##ospace
characterised
##arney
radiation
establishing
microphone
successor
scratch
bays
separation
kitchenette
mandatory
circles
halfway
florentine
altogether
browsers
potentially
subsembly
flexray
introduces
1980
semantic
1979
philosophers
debugging
angelo
honest
columbus
launching
occasional
msi
provincial
360
composition
fortun
fortune
extending
programmers
mozart
aquarium
splash
windsor
vending
rendering
lakeside
##holders
announcement
baker
beaten
disclose
inherent
dispatch
prosec
coordinate
revenue
bundle
treasure
korean
kalachakra
retaining
ngak
legislative
jewelry
warranties
vulnerable
accomplished
abundance
horizon
horizont
legitimate
tyrole
argentina
pearl
##robes
versailles
segments
sicily
inquir
lighter
emerge
corridor
rejoice
lawyers
configurations
johannes
hrs
assortment
tremend
transducers
stolen
athletes
nevada
ljubl
zagreb
aggressive
impeccable
enlightenment
excitement
microwave
peculiar
passeig
huelva
tomorrow
paphos
falmouth
sovereign
tyrolean
650
bh
bacc
bilingual
cms
cpc
dort
doth
eater
gm
gare
gages
haw
hahn
kom
kap
kite
kits
khan
lion
mou
rit
rost
sq
torn
wax
wlan
##rage
##rence
##lies
##wig
##ycl
##fen
##gom
##mad
##mond
##zog
##zano
##48
##28
##erable
##atab
##enhof
##urity
stages
reel
##adin
##adar
ascend
##abad
exagger
##usions
##ewise
shame
shade
shots
trams
##iston
##akers
engr
##ecting
unity
##trop
##tronic
compuls
lend
lean
perth
accum
abilities
gron
coinc
dism
phased
maya
agr
strasse
workflow
flour
visas
accession
##weight
modernisation
marg
marath
decline
formation
delft
##ieder
completing
artes
##airy
##aires
seren
corros
markt
builder
belt
monet
garde
schw
creations
defeated
refin
portals
finishing
poolside
populated
multis
receiveth
##afen
redes
posiz
statist
payable
freed
atmospheric
11th
repet
decorator
vegas
temples
espan
pointed
digits
credits
joints
13th
harsh
prints
legacy
positioning
lounges
1991
barcelo
churchill
christians
admir
encomp
discovering
elevated
competence
layouts
philip
alternate
saves
likewise
manufacture
montju
naval
catholic
altstadt
princess
collecting
telephones
hospitals
determines
circular
describing
liberation
##enedict
blogs
blogdesk
qualification
applying
appointment
melbourne
aston
fabric
mixing
percentage
ethical
variation
cooling
approaches
attempted
didnt
1940
rolling
visualization
toilets
haar
hunger
civilization
rainy
yeshe
shapes
fridays
complaints
bearing
accompany
punishment
balls
commissioned
predict
concluded
assembled
roboter
killarney
reflected
reflecting
slovak
tribbles
crisp
surveys
paulo
intellectuals
keen
complementary
molto
reproduction
reproduce
gladly
pamper
cordial
fiber
ciud
emotional
##voort
gums
wilhel
excavations
phrase
tatatab
compliant
lagoon
tongue
hectares
horses
chronic
carriers
compilation
wardrobe
tavern
adventurous
lubeck
subsidiaries
unauthorized
cemet
zandvoort
santorini
columbia
dazzling
eulalia
corrosion
montjuic
tatatabot
550
ace
cb
cake
coding
eag
fow
gfk
jury
jane
jena
kual
lc
masc
nad
ov
oder
pi
qr
qtronic
rw
tiff
vist
vie
ville
wilt
wences
x86
yard
zh
zerm
##rim
##eb
##nem
##vd
##vic
##hand
##hum
##bish
##born
##gut
##gence
##gone
##m2
##mot
##zilla
##16
##69
##47
thine
theoret
##ertain
##erals
##inis
##enet
##arin
##eda
##anj
##icode
##iculous
##etics
##acu
ster
stip
stub
prag
bea
alber
##ivate
##ersion
##igal
fresco
##tsch
hotfix
##tering
##ocl
##chair
chu
chiang
spite
##anto
##ifiers
##unge
seine
negr
##oku
##agic
##ailing
adsl
##ogging
leid
soak
grou
##athan
broke
outs
expense
##order
sms
inclusion
anytime
phases
daytime
crying
poison
aged
revised
regina
strat
##ommon
blanc
00pm
tehran
apps
append
decade
108
10am
edu
lincol
playstation
##space
nightm
publicly
swall
remn
hearty
corp
arrivals
generic
discs
eclect
excellently
advoc
fewer
extensively
attracts
defect
attracted
185
centered
retro
safes
storm
intim
intensity
rented
statue
squash
entre
donate
lawrence
balear
##riad
pleasures
descriptions
doctors
sato
satan
mountainous
##awa
recept
panels
castell
moves
snap
loving
leisurely
textile
distributions
##mael
effectiveness
royalty
moist
sofas
3000
manufactured
robb
absence
stocked
##ometry
handset
missouri
prima
1988
galway
rotarians
maintains
divide
avenues
funding
blocking
neglig
monitored
eaten
titles
1968
1960s
oneself
uncommon
duties
tomography
restriction
unsubs
substit
##ippers
gathering
juices
excursion
exported
mask
resolutions
sponsoring
aerop
aerospace
ladies
ratings
borough
baptism
rendered
mirrors
hygi
dolph
meantime
iraqi
bronfen
attending
rigid
sdss
schemes
appealing
astronomy
pollution
reflection
dhcpd
immigrants
concentrated
carbohydrates
facilit
facilitate
emotions
andrew
braun
agriculture
ottoman
shrine
steinberg
shooting
seamlessly
abbey
risks
harris
lavish
1950s
terre
ornament
stalls
sparkling
moorish
stewards
warehouse
##ontinental
scandinavian
ishmael
merchants
exempl
perpetr
mysterious
unnecess
poetry
fciv
##ispens
unspoilt
cairo
supreme
rhein
petersburg
ryanair
helicopter
sunbath
rainforest
cpu
predomin
dslr
##ecchio
regulatory
kempinski
lumpur
hassle
arrondissement
pueb
##oglyphs
ljubljana
baccarat
eateries
ritual
marathon
ciudad
kuala
zermatt
lincoln
eclectic
hygiene
auch
bis
ble
bids
baj
cous
cip
curing
creek
eix
ff
falk
fought
gter
garten
hag
hull
jord
lp
lom
lille
mt
mike
mounts
nac
niger
ober
pp
pel
pig
pest
pust
pitch
pira
pyr
pisc
pda
rag
sot
sut
sind
ties
tone
tents
tier
xf
zw
##uild
##rf
##ean
##eing
##nen
##aic
##vin
##hall
##iw
##iate
##lauer
##din
##disk
##wald
##cs
##power
##pread
##bors
##gel
##zen
##zhan
##27
##200
##ен
##ро
thb
##inia
##eses
##atie
##orp
##orie
##enze
##aro
inver
##omin
##ominations
##icul
##icia
##icious
##asia
stir
stabil
prist
##ados
##admin
anic
angry
##oco
##ocation
##esse
##chi
chiant
##geois
quiz
sham
shake
trium
trucks
##isto
spice
##anted
canadian
notorious
deem
##quick
##asters
##astics
##arden
##erez
unbel
arzhan
acoust
neue
compass
ours
amus
amber
amateur
guer
mana
desay
grows
##acking
modifications
dru
dres
phurb
probe
##ickr
underne
overwh
scans
scsi
indispens
myst
regards
twitter
carlo
hela
informative
firenze
blow
modernist
excels
mainstream
delays
##olds
genoc
polo
germain
childhood
presidential
handed
paladin
solved
solving
garda
invas
holoca
incarn
1500
portray
estep
attorn
attitudes
nationalist
populations
experiencing
communal
flood
glazing
welfare
redem
posit
personale
paypal
socially
optimum
enters
115
1600
constr
residenz
##eve
americas
searches
tariff
economical
verb
steak
radius
stylishly
comparable
402
santo
christoph
fieldpoint
encoded
fairy
##otti
inspiring
schoolforge
responsibilities
cancellations
beneficial
duplex
familia
silent
motorb
rounds
##icultural
naming
monteneg
merged
baden
hospitable
probes
objectives
obtaining
1980s
augsburg
petition
conception
utter
corrected
agenda
glasses
occupy
occupying
mosqu
fashioned
sixth
champion
comprised
##pressed
sweets
mercedes
bulk
torre
uncertain
##ajevo
observed
battleground
cyclists
substance
substances
delighted
inventory
##iasm
miguel
earliest
losses
punta
adjusted
##acao
flavor
attempting
metropolis
daniel
##ystems
implied
incorporate
horseback
sarajevo
administrator
distinguish
simultaneous
pizzeria
malaysian
replacing
triggering
ignore
disclosure
incredibly
reforms
intercom
enthusiasm
pillow
weakness
assumed
intervention
exploitation
maritim
carlos
nominated
achieving
pxe
pushed
greetings
tolerance
cornwall
witnesses
hanse
toothfriendly
refreshments
shielded
wolfgang
acceler
seamless
gesch
dictators
botanical
leafy
coatings
saxony
vertical
persecution
capitals
fruhstuck
barceloneta
curtains
brochure
megapixel
intermediate
crocod
daemon
vriendelijk
widespread
adjoining
haute
resurrection
posizione
haarlem
cemetery
wenceslas
balearic
unsubscribe
eixample
piraeus
underneath
overwhel
holocaust
montenegro
a8
boss
bold
cn
cited
cache
dm
dall
eug
eps
eager
fjord
gains
gele
ie
iz
ich
iata
jones
jeal
json
maz
munch
nur
nets
pit
ping
pink
rival
rss
ssp
sagr
tg
vas
vint
wow
xpress
xfree
yach
yah
zadar
##tland
##aa
##iac
##sim
##yg
##buff
##fan
##kind
##gle
##jet
##just
##mart
##45
thinks
##onald
##atics
##atri
##enes
##itious
##anza
iniqu
##isons
##icion
##leep
##level
##ilian
##etically
##ecar
stake
##ayer
##sten
##stek
##utic
bend
bears
alert
fran
franch
apt
rey
reboot
##irm
##ulus
comod
##oper
##abeth
##imal
thistle
##eways
shed
shout
shelf
shades
traces
##andra
##akow
spher
enqu
uss
alloy
notation
##ctic
dear
weimar
quotes
##aste
seville
unre
arose
arctic
offend
plateau
##ipedia
heel
##aille
##achen
##ogp
interl
lex
guggen
acces
ifco
impos
boom
boiled
##ernob
grain
grilled
recom
##ensch
afraid
aviation
noon
##icket
overl
distort
instances
##ieu
fled
flickr
##amps
##urring
marsh
considers
larn
##rupp
remot
corruption
runlevel
proclaimed
speciality
confess
confusion
##cci
detector
##pleas
201
##crib
slippers
sheep
explos
readily
##anni
intensive
combinations
##mergut
##rium
tele
colleges
showc
limp
177
255
notebook
thoughts
motogp
##brand
##brian
ceramic
parisina
configuring
noval
integrating
legally
quicker
renovations
madison
texture
milw
patentability
beginners
##apani
periodically
faire
planes
departures
exhibits
competing
bordering
representing
holders
meditation
associate
catastr
controlling
friendship
delicate
##erald
officials
##market
wikipedia
employers
recommendation
clientele
immov
recognizes
tune
worthy
avoided
scenarios
raft
involve
targeting
blocked
1930
celebrities
organs
papers
samui
salzkam
reviewed
neighbours
empower
constitutes
misunder
ibm
analyt
##guide
farmers
##garten
strengthen
belonging
publisher
inventor
prepay
summar
contractual
racism
terminus
sweetness
evaluate
predefined
dropped
lacking
##oleum
firmly
wealthy
initiated
maspal
simplified
simplicity
synchronize
apparent
crowds
minibus
konst
gdp
uploaded
sorry
alleged
disclaim
sympt
unpre
attributed
appartement
bahia
bundes
quantity
spinning
analyzing
encountered
geared
henry
campsite
habitaciones
bourgeois
desserts
chalet
tutorial
temporal
temporarily
garni
celestial
brahman
crusade
##omplete
crazy
postscript
deposits
crucial
ixquick
wmv
hindu
vessels
candidate
pronounced
bohemian
autosar
suriname
sloane
pertaining
volksw
sorrento
nuclear
##appropri
horizontal
tremendous
wilhelm
leidse
unnecessary
genocide
estepona
attorney
sagrada
xfree86
salzkammergut
maspalomas
bac
bach
bub
cite
dell
dann
feri
fitting
fox
gom
gior
hart
hint
hann
hirs
kb
kund
kios
kitz
len
lanc
m5
mam
nec
ou
o2
piet
pause
pounds
rally
sig
sew
sene
tum
tuck
viv
vall
vivid
ya
zen
##uan
##uent
##ross
##eu
##nas
##vian
##sis
##sche
##senk
##oi
##wash
##yi
##yz
##yard
##cards
##cuss
##pad
##jes
##mn
##83
##63
thal
##eros
##erget
##inite
##inte
##itat
##edge
##ingham
##isen
##icide
##otom
##leans
##ilm
##urd
isla
##etz
##acas
sta
stain
stiff
forte
##sters
##oline
alte
##ivial
apts
apolog
##adi
##ulin
##odox
##teries
asks
orph
orleans
cher
chanc
chernob
##employ
##emedia
##ews
trapani
##iste
##andum
##mente
##mentation
bytes
##ifiable
wein
unemploy
arising
plural
plunge
##plane
interst
##see
##sek
accent
therein
sooth
goede
imply
desires
##forward
gray
grades
graves
gramm
recru
britten
outline
barb
smok
phon
undoub
indigen
everest
facsim
regret
strive
parker
colazione
safer
transgress
parl
prodrive
teen
thriving
finder
findings
107
mainz
undergone
delle
playlists
openly
openoffice
swing
swift
##ertal
##ertel
##ologically
maar
presid
specialised
bother
funk
bathrobes
skins
trainer
sche
schone
advances
patience
signale
slip
slides
porte
##loader
nationalism
retention
multicultural
##aha
redhat
stately
##getown
squared
winch
farming
erp
##tona
##overed
gardena
romans
pleasurable
helpfulness
awake
malaria
faction
geoglyphs
casting
castles
affects
1394
exclusion
integral
contacting
verd
milford
auditor
warmly
407
volley
baysw
masses
lottery
authorised
humanity
competitors
democrats
cyber
earthqu
speaker
analyses
impair
caters
syngent
senses
differs
##cedented
robust
researchers
governmental
##markt
garb
telephony
referring
jani
1985
semic
critique
utilities
brighton
1978
1973
1970s
mirab
diskless
educated
sells
raid
spotless
favourable
converts
advertised
1936
televisions
ocee
strauss
straße
1948
spreads
suggestion
miniature
smartphones
editors
ghetto
dynasty
provinces
talents
draws
misle
memorandum
threatened
editorial
bonuses
conductor
tends
nordic
rosette
novelty
dimensions
accompanying
sweeteners
##hausen
sorted
triggers
riads
metrop
dissol
sculpture
ignored
ivan
transmit
dispens
fireworks
genuinely
dishwash
molding
sevilla
assumes
hesperia
substantially
tallinn
exploit
discreet
eliminate
transparency
jackp
podc
vocabul
##world
proposals
tampa
pavil
waveforms
compression
confortable
cristina
dlna
tutorials
rebuilt
marvelous
anthrop
allocated
thyssenk
motorcycle
hammam
pilgrimage
ascot
compromise
derivative
lodgis
metaphor
aesthetic
aristocr
inequality
timetables
undertaken
ischia
aluminium
cosmetic
telescope
unwanted
invoice
##keeping
mausoleum
prolonged
cusco
interchange
dortmund
groningen
desayuno
indispensable
redemption
hanseatic
vintage
prepayment
unprecedented
volkswagen
senegal
chernobyl
undoubted
signalexpress
bayswater
syngenta
vocabulary
thyssenkrupp
3g
6pm
750
9am
a7
aids
bom
bingo
df
dign
dalm
dpi
d300
hs
hurt
horde
kress
lil
luis
mtr
mud
mcc
mecca
nort
pall
pud
pors
pork
raf
ruled
sich
sib
soll
tc
tiv
tak
tau
tamb
v2
verm
vella
vecchio
wang
wint
wma
wyd
xs
##uv
##rian
##eff
##vas
##vide
##hou
##doc
##dery
##welt
##ycle
##xy
##pace
##bab
##fu
##jud
##mate
##mans
##zone
##38
##но
thule
theft
##atem
##atra
##orr
##oral
##arbe
##anas
aton
tol
##eli
##icular
##otte
prere
##uting
beasts
##olas
##ivating
franz
reju
##terdam
comedy
##opo
anten
angha
##ocou
chand
exeter
##avan
rov
shining
tryp
troms
energet
alla
notices
notified
deeds
quote
##astically
unpr
acid
##tro
##oko
adorn
##urel
##ogue
##plus
lehi
servic
amer
amalf
reset
resize
resemb
abode
mezz
##ansen
##actory
coold
##reeks
bras
brain
modification
ministers
##assage
barely
sitges
bets
personality
sauber
flock
transports
transgression
paras
knights
accessory
bla
loft
formally
underlying
appliances
warfare
##ologist
shouldn
shoulders
arrays
confed
asset
assault
capita
incom
incident
incurred
ordin
endure
propose
signatures
##cription
wrought
187
esplan
respects
explored
salad
protagon
##anne
floating
##afe
glance
##parable
tops
traveled
faro
automobile
reply
romp
clicks
limassol
expresscard
destiny
residences
politically
##linary
geen
postwar
cambridge
integer
flooring
globally
economies
angles
appearing
routing
professionalism
accepting
precio
##ouched
skiers
woodlands
alban
coloured
silk
impart
minded
likes
manufactures
##agoza
structured
containers
respecting
correl
badly
apprent
embark
collectively
##ync
recommends
imagination
dialect
introducing
sooner
utrecht
brightness
1977
violin
qualify
ceased
georgetown
judged
pickp
symbology
hydr
demanded
advertise
1933
lifted
krakow
bullet
riders
israelis
bugzilla
survival
improves
capacities
talented
kurgan
constitutional
##sky
pedestrianised
publishers
favorites
exercising
schedules
secretary
mozamb
submission
thermocou
picchu
predecess
souvenir
##config
fleming
straightforward
implies
minimize
incorporates
incorporating
dirt
##screen
sarah
tribes
administrators
exceeding
sorrow
resistant
##romassage
axes
fountains
##schwe
gatwick
reactos
elsa
synthesis
achievement
proceedings
vincci
coaching
normandie
investigate
vulnerability
enthusiastic
##bbled
overseas
experiments
bournem
cereal
diplomatic
tricks
amplifier
affiliates
hazrat
prosperity
md5
cursed
zaragoza
loyalty
basketball
administered
thyssen
guadalp
lamanites
##worthy
tidy
intersection
absorb
nutrition
gender
palestinian
potatoes
votes
broadcasting
caching
delegates
kodach
voucher
carpets
grocery
namibia
approval
cambod
sensitivity
sweeping
orthodox
snorkeling
etoile
ludwig
secrets
eternity
##ogeneous
statistical
braunschwe
sunbathing
cipra
pristine
druids
excelsior
yahoo
guggenheim
larnaca
novalja
milwauk
rafting
leidseplein
soothing
indigenous
presidency
misleading
dishwasher
undoubtedly
antenna
amalfi
cooldown
bournemouth
guadalpin
510
aac
bog
baza
bisc
cv
dum
dag
duc
dairy
gil
hid
hib
heng
jah
kad
lon
lumin
m4
mij
noch
ostr
piv
pula
rider
rij
tout
tack
tens
tons
t10
tiled
uv
vow
voted
weren
x1
zoro
##uy
##taya
##aug
##hes
##hoot
##ders
##cut
##path
##pci
##bis
##buh
##frau
##kd
##kin
##gatan
##mitt
##zing
##232
##99
##esia
##esbury
##onn
##ename
##enza
##arr
##anile
ink
infer
inade
atlas
atrium
##entral
##osoft
##acs
##acity
##stler
##uta
bei
alto
alster
altered
##ivation
##ivia
##igt
##igue
rewr
##adic
##adata
##uli
ans
##ocity
quir
##ewe
shakes
shoes
tril
traf
##ande
##ainted
##akr
##antes
deer
weigh
##apse
##apolis
unh
unve
unjust
ard
acrob
##oka
adul
guatem
manages
manuel
mankind
accounting
##ikh
##iker
mead
##roid
##rood
butter
implements
cityguide
grind
graft
outlet
##ensils
modest
minh
drum
avira
timber
buch
buena
partial
relat
relies
wells
proxy
proves
peb
pequ
crops
crowned
poz
##anger
1918
parked
cargo
customizable
informations
visually
##group
lover
marino
##ogram
metadata
warnings
##rup
##queira
norman
publicity
reminis
##reserv
corps
coremedia
hereby
hereafter
obed
monkey
sket
holland
backed
conde
muscles
30th
240
signing
slave
slope
verse
esteem
casabl
startup
photon
currencies
salads
singing
##auf
##enei
flooded
glor
glen
surre
homeopath
packing
calories
beheld
##aneous
harder
quietly
balinese
expressions
enviable
256
barcodes
##lington
##ophob
exclude
campanile
snipp
logos
logger
legs
insom
kindness
audit
turin
210
treats
planets
inspections
completes
participated
##usha
voip
representations
moham
##uke
magnetic
transferring
5000
pottery
bootloader
determination
circus
pedr
##opolit
liberd
rotterdam
holyrood
philosopher
cuts
cease
therape
mastering
mosiah
definitions
aspart
hydromassage
covent
switches
switched
honore
examined
kurds
omnia
consultants
hunt
prevented
rhet
rhyth
andaluc
complain
demonstration
demonstrations
submar
incorrect
australian
sticks
surprises
miami
##ischen
##etti
simplify
letsgom
implicit
brewed
##mask
filtering
recipe
recipient
reciproc
suspended
ignor
draenei
intercontinental
crimin
adopt
obliged
diameter
svalb
deutsch
cfd
dressing
chemicals
kirtland
shadows
dcf
khandro
covenants
placement
struggles
randomly
pyth
bbq
judgement
negotiations
friedrichstraße
emphasized
vineyard
jpg
kosove
narrative
migrants
deserve
deserved
enlarged
duplicate
ocx
redeemed
bungalow
lenses
handicapped
supervis
supervision
linguistic
disciples
ligging
tanks
uitstek
cowdery
sufi
sufism
municipalities
gravity
illuminated
ndt
irrational
fetishism
amazon
enriched
coalition
pumps
##music
perceived
dungeons
buckingham
commuter
backpackers
pantomime
diablo
volunteers
reconstructed
enlargement
hampshire
troubleshoot
wallpaper
glacier
innocent
admiral
janeiro
eduardo
moisture
pusteria
chianti
triumph
amusement
dresden
jealous
munchen
spheres
chancell
facsimile
volleyball
mirabell
podcasts
rejuven
tromsø
rompido
kodachrome
milwaukee
grafton
reminiscent
casablanca
liberdade
letsgomobile
svalbard
5pm
512
8am
810
aur
afor
cass
cement
cogn
cuba
daim
dsc
derry
dzin
eh
fights
gad
giles
hut
kat
kel
kms
krem
lew
laur
mdf
node
nodes
pct
pian
qt
rings
sque
tuss
ug
vm
wre
wand
wels
wished
xvi
zell
zona
zentral
##rit
##rical
##ea
##aire
##hd
##iert
##len
##lad
##lberg
##dog
##wer
##care
##copes
##bone
##making
##23
##ер
##ны
##на
##erst
##inians
##onna
##orously
##itably
##alities
##alone
inappropri
##entiful
##uras
stap
stella
forem
prater
##ersch
##ersoft
frustr
frances
##adena
##opius
##essa
orb
chaw
##thy
roose
##illah
apostles
traged
trinity
##aine
##ighter
##ighth
spas
spray
spelling
##ifilm
##ectives
##quate
##usted
unter
unload
unpleas
plentiful
clo
clips
clocks
##ags
##agl
##aggio
##acher
##inea
interven
leiden
pero
servicing
reside
##roit
desirable
boil
greno
gropius
coasts
cobbled
rests
restruct
##tober
brad
bruges
braille
drama
avec
exports
pho
justified
scoot
preis
prejud
##velt
freeze
##prom
famed
strikes
somebody
##text
worker
workar
parr
blanca
thrown
datas
downstairs
10th
formations
deliber
129
designing
##phere
warned
artis
variants
townhouse
equator
wayin
##azo
rembrand
styling
presum
arrow
belle
specialises
obama
##oba
discontin
discrim
confident
skating
assurance
purple
backward
historian
patong
pattaya
programmed
terran
defrag
localized
slog
attic
classics
classification
etna
nationality
casc
##ahan
gloss
imprison
eric
freud
##ieves
calming
donation
museo
presenter
lineage
activist
constell
destined
##ensee
temp
promising
##heid
networked
mobiles
vii
buffets
excluding
iconic
antiqu
copystations
exchanged
steaks
stefan
hoi
alma
complexes
##ungen
capitalism
turks
admit
encoding
greenery
##otta
slept
balcon
departments
exhibitors
understands
translators
##ienz
lasersoft
catania
replaces
shareholders
youngest
merge
russians
epoch
correction
altis
employee
formatted
discussing
munster
missile
determin
##aptor
macau
1987
rotating
conceptual
utensils
banqueting
violation
debut
favourably
indication
categor
rapport
1937
coves
seemingly
remembered
waterm
1966
1960
1949
furnishing
oktober
oliv
uncon
salzburger
benalm
correspondence
compactpci
consultancy
gymnas
sidney
constituted
arabs
cycles
belonged
vegetable
atlanta
##iscip
unlock
complaint
johnson
lengths
##flows
murm
rebel
evaluated
adjustment
reconcil
cooper
##oleon
gastein
blended
psychological
attacked
sapl
##enko
hybr
pursue
profitable
distinguishes
##giore
geography
deletion
parliamentary
organiser
##brew
dispon
wheels
reformed
nao
sdk
coordinates
firewire
baqueira
perspectives
reproduced
napoleon
birthday
folk
interviews
peruvian
consensual
grandeur
escal
lagos
laguna
achievements
booths
dramatically
journalists
pagan
hyper
compressed
ubic
hermitage
aberde
leonardo
consecr
multiply
writings
jurisdictions
evolved
heroic
spoil
horror
horrible
loyal
kreuz
ruling
todo
dotted
annexe
fertile
elderly
kunst
inevitable
inevitably
prototyp
prototype
opponent
opponents
inaccur
condemn
bahnhofstrasse
tobac
frederick
emblematic
lectures
embrace
pupils
marienplatz
controversy
imaginative
overwrite
obstacles
exhort
shaftesbury
camelot
duvets
fujifilm
lugano
embodied
perception
manuscript
schmid
exaggerated
monetary
astonishing
invasion
mosquito
franchise
kitzbuh
garbage
dalmat
porsche
braunschweig
pivot
zoroastr
guatemala
insomuch
therapeutic
dcf77
foremost
chaweng
roosevelt
grenoble
rembrandt
benalmadena
gymnasium
9th
bite
batch
bored
boch
cope
cote
diana
ez
e3
eze
foster
gord
geck
gale
hues
hiring
ips
j2
jal
jag
j19
kult
kiev
kai
lith
lip
lech
lbs
lapt
mest
mim
mamm
nc
ner
nose
nax
naut
pse
pend
pact
pie
pope
pending
rath
ridge
sb
sag
sants
sont
uri
umb
utop
vs
wage
wie
wij
wander
xyz
yarm
zee
zijn
##uity
##rose
##nis
##vent
##vement
##hu
##oons
##lag
##lord
##dale
##yer
##post
##bled
##backs
##fold
##ji
##made
##muse
##53
##та
theories
##onte
##atent
##aring
##arious
android
##anim
##algar
ingen
inaug
atms
toy
toss
##elect
##otto
##uro
##acca
##olon
##olle
##olith
##oland
ales
alan
ally
albe
##ivities
##ivalled
##iga
fri
frost
reut
##adir
##opard
anx
ank
##gem
quito
roger
shuff
trin
trunk
##anden
##anti
##antis
##antage
notions
notwith
degen
##uner
seav
seperate
##iche
unicode
offsh
plaka
plastics
cla
clay
clif
compound
hex
##agna
interrupted
lee
##sey
manu
##ikon
abuse
##roen
boys
gras
grip
grapes
mint
drm
buen
##ermalm
expend
expatri
syl
synd
busses
scyth
##onduct
craw
cramped
cricket
indoors
supra
supplements
everg
subt
highland
highlands
##prene
aggreg
1919
##icting
parkland
##etheless
yearly
customization
flush
visibility
fired
eleven
parquet
accessibility
##web
##graph
starb
teas
loire
excited
excitation
103
forming
emilia
emerald
12th
consort
metab
seefeld
warwick
selva
hourly
swind
nowhere
numer
##azza
owns
standalone
nonetheless
##rafts
arrog
proclaim
specializes
palms
palette
palpa
discos
monastic
bathrobe
assets
capp
invis
herbs
heroes
incoming
incomplete
schn
eliz
elbe
cleaner
programmer
realise
realistic
##uctions
passive
passages
slider
ears
luxe
termination
foundations
netreserv
knoweth
pricey
retired
culturally
downloader
salob
##atories
multil
##ementioned
##anna
intact
watering
continents
freel
freeway
calorie
donc
112
performers
organising
decorative
romer
infinite
lightweight
machu
174
1700
mornings
##enna
malmo
motto
motors
motivated
coffe
coffees
geo
affinia
ceram
securities
configurable
creature
creatures
legion
insects
practiced
contempor
domingo
almun
projector
governing
distributing
dryers
blackberry
fauna
eventful
freshest
##ushi
faxes
departing
laying
dependencies
subjected
albania
irresp
irreg
iranian
painters
fantasy
savior
denial
constructions
##center
essence
absurd
montmart
crossroad
dealers
greco
strongest
egosoft
probability
primoz
determining
goldener
consumed
preferably
pedest
1982
gala
galactic
critics
cellular
hearing
1976
1974
miracles
violate
280
cooker
optimization
drew
masterpiece
literal
delivering
dedication
focusing
judges
pickup
physics
announces
citroen
congresses
approaching
kara
examination
croats
influential
preston
promotes
tomb
tomato
cashier
trustworthy
composers
threatening
unser
sophistication
tendency
4000
calculate
roses
conceived
monde
exercises
velocity
backgrounds
evaluating
adjustable
reconc
religions
nicest
framed
assemblies
borgh
baptize
locking
commentary
rooftops
flags
tribun
pursuit
retrieved
triggered
alleys
intercity
intercult
texas
odds
appartment
pampered
dressed
sanctified
eliminating
eliminates
prefect
advertisement
pentax
pentium
washbas
##folk
illustrated
clinic
proposal
praise
electricity
cabinet
diagram
affiliated
dozen
chaos
queensway
disciplines
withdrawal
unrivalled
slavery
jungfrau
levante
temptation
afflictions
lemuel
peppers
carnival
scandinavia
merchand
dynamics
kurdistan
hurric
##immee
kissimmee
inaccess
condemned
exchanges
autonomous
aerobic
aerobics
fernando
elephant
incompat
brutal
propaganda
interdiscip
autobahn
billiards
sausage
inquiries
refinement
nightmare
entreprene
exemplary
jordan
lomond
deemed
guerilla
gelegen
tucked
unemployment
winters
esplanade
hengstler
luminous
mijas
trafalgar
adultery
poznan
aspartame
supervisory
daimler
tragedy
oktoberfest
saplpd
aberdeen
kitzbuhel
zoroastrian
bochum
gecko
laptops
yarmouth
notwithstanding
scythian
irregular
9x
auss
bone
bible
bios
cet
curious
couch
dit
dose
dens
dors
fing
fot
fond
foss
g8
g1
gpl
gcc
hud
hood
holl
hits
haf
horn
icc
jos
jogging
kow
kra
lite
lyd
lienz
ml
m6
mate
mug
mcd
nag
nue
nurs
null
ore
oox
pound
pairs
pump
ry
sach
sult
somm
saps
sushi
tire
tact
tuls
ust
va
ved
xin
x11
xrf
yen
κα
##uj
##rc
##een
##eating
##nam
##tube
##aan
##vm
##halt
##iated
##du
##dn
##walk
##yy
##cock
##creen
##pre
##bear
##bra
##fin
##kt
##gie
##gau
##jer
##zip
##170
##ло
thum
theor
theres
##insoft
##ono
##oned
##ori
##itic
##itated
##arse
##anal
##alo
inches
atom
##omer
##eles
##elen
##iscan
##ascha
##oses
##eto
stuck
forment
praca
##utz
##ithread
bez
ald
align
##ivable
fra
reper
##odge
hote
hoteles
congest
##chr
##chment
##chairs
##abited
chir
chapt
chili
##imer
##immer
suk
##thof
##thouse
##emaster
shamp
shink
shirts
tru
##mental
allerg
##ifs
deact
quotation
##elles
##ellers
##apers
unite
unaff
unpar
unified
uninter
unanim
centric
##umeric
##trak
##troll
neust
clan
heed
##agos
##udio
##places
interrupt
##sex
guinea
accused
soho
abound
ifema
meats
mega
mezzo
citys
grup
reckon
recycl
brat
outf
outcome
##ignation
##ensa
##eppe
afp
drak
timeless
expects
##wns
relais
relatives
phang
justify
euroc
overt
overpr
overhead
##othe
crane
cracks
agu
##ucts
##ateral
regency
regulated
1900
strass
struck
addinsoft
colomb
needy
parco
paragl
parchment
wherein
starhotels
counters
throne
loan
loose
loops
hadn
dece
106
10pm
underwater
ems
edges
##intosh
valent
geneal
polio
warmer
actu
norfolk
equation
equestrian
remod
styl
markovic
generators
##erias
specials
##posium
palaces
ecus
monk
monopol
technically
assure
callback
endors
locale
supporters
estates
esther
typing
##ronics
installany
1800
companions
sheer
sheikh
natascha
diners
multithread
##parts
posed
##ashed
farms
##osphere
ern
##boat
hardwood
clicked
sumatra
pleasing
limerick
expressway
prompted
##awi
##aws
railways
malay
malacca
begotten
annually
vianden
italians
snom
novi
iceland
economically
veranda
insulin
electro
madame
cancer
entrances
steigen
kindly
putin
220
capitalist
architectures
pastel
pastry
turbo
recorder
##amba
greenwich
filed
filename
urls
footpath
authoring
inspect
##veill
preced
precarious
mandarin
democratization
puyi
vacc
irres
impul
impose
cattle
assisted
investor
frequencies
gotico
focuss
knowledgeable
argue
consuming
armenian
continuation
macdon
1986
1984
photographers
financing
divemaster
penang
penalty
qualifying
wwii
matched
thermen
burst
mastercard
802
melch
rape
failures
1930s
honored
protective
permissions
psd
examine
accurately
lodges
talked
samuel
daqcard
urbanization
ramdisk
tomi
benz
tales
observation
observatory
drawings
curios
contributes
misery
paradox
paradigm
biological
satisfactory
strengthening
buddhists
planted
##iscal
candy
1920
1920s
minorities
gaining
racist
demonstrates
rooted
olympics
murten
punct
rebell
piccad
citizenship
masks
ipods
fatal
##ompe
simplifies
aerial
femin
fascination
boulevards
sapwin
pulled
flagship
##boxes
sculptors
prostitute
prostitutes
##alleled
montreux
utilize
legends
apartamento
chambers
hoping
jointly
odd
organizational
removes
assumption
tailor
quantities
possessed
manifestations
ukrainian
onsite
highlighted
expedient
expeditions
pirates
analyzer
haben
steeped
##points
negotiate
minimalist
ogg
gentleman
menton
ubiqu
acceleration
vorbis
protestant
duplic
fulfilling
efex
lindner
delayed
catalogue
wickedness
untouched
scholarships
jungle
emerged
krems
crusad
bullring
dispute
balkans
fruhstucks
kurdish
pipes
staircase
escaped
honduras
excessive
forecast
mattresses
honeymoon
congrat
glamour
caution
potsdamer
rfc
##otechn
aaron
bureau
inconven
annoying
cheerful
fortunately
moulin
compulsory
stratford
intimacy
receptions
robbery
negligence
pyram
compassion
netscape
xpressmusic
tivoli
atonement
rovinj
energetic
incomparable
albanians
apprentices
kadewe
inadequate
mohammed
troubleshooting
chancellor
aforementioned
welsh
hybrid
schmidt
pseud
umbrel
xyzmo
##museum
seaview
evergreen
starbucks
elizabeth
netreservas
irrespective
montmartre
pedestrians
karaoke
borghese
intercultural
hurricane
incompatible
interdisciplinary
lydia
ooxml
tulsa
formentera
chapters
shinkansen
unparalleled
installanywhere
steigenberger
macdonald
piccadilly
4pm
8pm
bent
bce
bore
biz
bots
baus
bacon
cube
ccd
damp
dund
duck
fier
gz
gol
hess
hob
heter
hitting
hopes
hemis
iis
iec
jak
jams
jerez
ko
kot
kurt
kein
lions
lasts
lama
m3
mock
m62
noc
noun
nacht
nathan
pg
pis
pitt
pins
pushing
rast
rage
roles
tb
tz
tin
tud
tuk
tmp
ucc
ws
wag
##ufer
##ried
##rock
##tw
##halle
##iably
##lon
##lit
##dan
##cell
##cian
##part
##bian
##burn
##build
##file
##kw
##keeper
##kirche
##gments
##jour
##73
##72
##56
##55
##τι
threw
##onne
##atur
##orms
##itary
##aran
##arre
##arage
##anet
##anine
##anumeric
##alc
inbox
toaster
token
##eliest
##isette
##icism
##oten
##otted
##asian
##lec
##entives
isot
isle
##acement
sto
ston
stom
##ayana
##store
prenz
bew
beet
beard
beech
##erson
##igor
whims
##ampt
##owa
reass
##irch
##adero
##ulia
##essed
##imir
##usa
##thorn
##emann
##illot
shark
tragic
##istor
sperm
spices
spins
usable
##antan
cane
canos
canarian
notion
##unc
weiss
##quin
##allo
##alling
seals
##erend
##apark
##ichte
unst
unav
arises
aryan
plush
##try
##trim
##udi
##ogel
periph
amtrak
guards
guys
##ported
##ender
uphill
upstairs
abuses
ifa
##ubert
goeth
##osevic
newcom
imped
##active
##forth
grub
cob
moder
minerals
avons
##loon
disrael
200m
partitions
relo
relate
nood
wellbe
undist
scaling
scales
suppose
suppress
agadir
revival
regents
idol
stren
straw
stromb
minuteren
colise
twins
caring
helm
flip
fluff
parental
##wegian
secular
##gris
##grove
tee
modernised
marin
marie
marry
excuse
104
109
formulated
formigal
emissions
##phi
##phen
helpers
metall
genius
warp
artworks
norwegian
swear
numeric
webpage
serene
mait
souter
arrest
arrang
arrested
engel
generously
belgian
specialising
traders
eva
evacu
obsole
ecological
centrale
##ieren
funky
monarch
incentives
backsl
endor
204
defiant
slim
slain
slower
slaves
porta
portage
wrapped
retire
companion
cultivated
devic
extrav
##ekt
toolbox
##ismo
singular
powerpack
profits
glaz
marketplace
##tenham
##ashes
archiving
surg
surveill
farmer
costly
concurr
behave
quietness
11am
decorators
romance
lime
limestone
activism
constrain
maggiore
##ibute
##links
##ools
recepcion
##bria
headed
bano
panam
harness
italia
novels
logged
globals
ensured
insights
considerations
closeness
practise
golfing
madness
madele
##ijke
steven
contempl
hook
communicated
milosevic
audials
volvo
volumes
happily
##ridge
reasoning
routines
drying
urgent
##shot
sends
responses
responsive
richmond
walled
engineered
duo
duke
translator
irc
watched
painful
sono
agrees
neighbors
sync
jewry
replen
registering
branded
greens
jacques
altavista
implementations
touching
osaka
##ometers
garages
discusses
##borg
imagined
circuits
immac
immun
immersed
granville
festivities
petty
brightly
1971
debt
francais
avoiding
validity
validator
therap
burden
burials
complimented
definately
involvement
mpg
prophes
symbologies
romanian
##ylon
comprise
soldier
1932
ethics
deeper
contextual
growers
1965
1969
cabins
croisette
okay
launches
swissotel
civic
illness
nationwide
tombs
arcades
capturing
curves
collapse
composer
preventing
ruh
cyclomatic
waterside
dominion
diagonal
calculating
hairdress
prepaid
akt
transforms
cinque
climatic
racial
terminology
picnic
azur
azia
firmware
mih
masl
powell
implenia
joyity
policemen
mitarbe
conservation
##holder
geographically
elysee
bosn
symposium
nephites
##islava
screensaver
traumatic
1906
naar
forgive
organizers
attribute
accomodating
litigation
alphab
alphanumeric
birthplace
kleine
vitality
pamph
deutsches
sequences
megillah
782
interval
possesses
retailers
kyiv
kyriad
supposedly
glyph
fibres
##feit
highlighting
dietary
##ottenburg
##ameda
synthes
wheelchair
tsogy
reinforce
reinforced
canonical
negotiated
scholar
bowling
hanover
andrea
proposes
convince
investigated
friedrichsh
paved
charlottenburg
dali
oakland
waver
phenomena
thirst
kosovo
dessau
tonal
multiplex
multiplayer
hackes
chalets
scatter
bidet
diesel
crafted
rebuild
abduction
venezuel
rs232
telecommunication
pesos
moulding
siege
lawyer
pioneer
mysteries
rectang
patriotic
benchmark
kayaking
hugo
wounded
##inthia
elephants
mongolia
barriers
persuade
dentist
isaac
edwardian
antibes
cabaret
deportation
hitchcock
kenya
tears
tftp
wavelength
thumbn
##myadmin
amendments
autocomple
swansea
engraven
redesigned
eagle
rwanda
theoretical
negra
swallow
dolphins
stewardship
ambergris
crocodile
eugene
yachts
##buffet
remotely
disclaimer
interstate
semiconduct
rafael
tauern
prerequisite
confederation
cambodia
acrobat
pebble
rhetoric
python
gadgets
tussaud
unpleasant
reconciliation
disponib
tobacco
j1939
##olithic
consortium
salobre
ceramics
almunecar
washbasin
inaccessible
kowloon
sultan
bratislava
phangan
ernst
dundee
prenzlauer
disraeli
wellbeing
fluffy
surveillance
madeleine
mitarbeiter
tsogyel
4x
9pm
a3
aster
aka
bn
bitt
bury
bones
bella
bauer
banners
dt
dont
durch
fuss
fiction
footh
fiera
fiscal
gans
gwn
hail
hatch
jed
jas
ku
kd
kin
kant
kost
m1
mound
maur
muit
ness
nah
ook
oli
poul
ric
rous
ria
rick
tay
tart
tended
tension
vain
vive
vere
vik
vern
veter
vaj
wird
yards
##eav
##nius
##tat
##test
##tech
##aig
##vit
##val
##vang
##hore
##horn
##lic
##like
##cover
##poke
##bd
##bing
##bet
##bow
##fjord
##kar
##gans
##ggio
##jada
##masters
##58
##500
##0m
##95
##ат
##τα
##erit
##onut
##atus
##oran
##oraptor
##enstein
##itis
##itous
##itud
##ouk
andean
##anmar
##alen
inex
##rep
##rend
##requ
##inge
atenc
tox
##eled
##elet
##iso
##isal
##icz
##ilation
##ilizer
##uri
##eted
stro
stern
youtube
##statt
prat
prone
##olina
aless
alley
whales
wholes
wholly
fraction
froz
aperit
##idation
##idim
##idio
##idently
rex
rever
rejection
hottest
hotellet
comte
##oping
##ophe
##opoker
anche
##ocom
oral
##imeter
##usk
suicide
robe
##emination
##ewor
##ewell
shiny
truck
trato
##ainen
##akt
spind
spont
spicy
canaries
##ifacts
##ateful
depr
deje
##unks
##quay
##ourg
##ellen
##apoint
unint
unob
ark
acer
##umann
claus
compelled
##agni
adver
adhere
amd
##ideg
oppose
opulent
guin
guild
accents
##iki
##ikk
abel
meer
##ubius
##ghada
grasp
bry
brink
outlined
outrage
##epe
dojo
drain
timers
disabilities
##erme
smoked
noises
commence
projection
overland
peer
craig
indif
indef
feast
bedford
freezing
myanmar
##ethoven
carne
carved
carpark
visc
visions
needing
blame
bloss
bliss
blacks
blvd
##iento
howard
mari
decree
emir
emulate
businessmen
vale
vald
genoa
##ockey
polished
cleans
acted
artifacts
nightly
contrib
equals
courage
serp
directives
corrupt
corrupted
maiden
marking
##porter
trades
westin
westmin
palate
monitors
skys
capri
incidents
housekeeping
historians
ell
elvis
detroit
24h
endeav
realised
accommodated
finals
retouch
devon
salam
saloon
protests
demol
renamed
diner
gloves
testwell
booksh
fiat
travelodge
soci
socio
packet
packaged
eros
erasm
quieter
111
##rij
##inson
showcase
##player
moroni
peacefully
##enne
touristy
malicious
anna
conditioner
maturity
camere
riverbank
environmentally
quests
137
harry
##urbed
snatch
selective
prevail
dioc
fisherm
insult
securely
practition
domburg
kindred
messiah
milano
chris
comparatively
22nd
governance
anglo
turistic
encir
mills
millor
fairground
fairmont
baseball
filtered
phpmyadmin
##shof
cdg
mandre
dawn
humanitarian
impresses
wooded
executable
doorway
batteries
sensational
sofab
waited
waiter
6820
teaches
buyer
gottsch
grecian
bespoke
touchscreen
##hrane
argued
##aiso
recommending
imaginary
immense
immersion
granite
macintosh
1981
rotation
worthwhile
##ocha
debates
optimizer
billing
franca
validate
317
31st
buried
angela
originating
##herland
dvds
picking
indications
physi
##presso
failing
ferrari
consistency
approached
1946
merciful
##itaire
samoa
survived
vicarage
consultant
contributor
hungry
civilisation
elemental
elementary
arabian
##ski
biograph
conducting
preserving
preservation
doubled
interactively
exercised
velo
dunas
gatherings
olympia
feeds
##ulsions
manuals
ultras
##daq
##agenfurt
nicer
zeil
specifying
pakistani
females
liege
vendome
danubius
frequented
einstein
hyatt
1953
1954
slovene
slovenian
klagenfurt
injuries
pursuing
pizzas
guarded
keine
kebab
prayers
suspension
utilizing
forgetting
enhancement
riga
rigorously
coordinated
baix
forgiveness
bolzano
stimulation
stimulate
stimulus
ontario
sustainability
adapters
assuming
durable
cordoba
unfold
digitizer
renewal
fibers
ninth
adequately
cochrane
ngala
portsmouth
detecting
896
rossio
blankets
vulnerabilities
cavtat
triopoker
fragments
narrator
passionate
deserves
briefly
haushofer
promptly
steady
portraits
##agraph
gsm
maximize
beliefs
intentionally
garnier
versatility
northwestern
venezuela
anticipated
embassies
enclosed
descendants
corridors
dynamically
owing
volcanoes
philippines
brochures
harmonious
vilnius
hereinafter
confidentiality
codec
hurghada
porno
voyage
omniscan
dungeon
wurde
wolff
obscure
iberia
iberian
chelsea
exposition
scarborough
commemorative
bambo
##lioni
lokas
voluntary
precautions
prophecy
subscribers
discourses
sovereignty
marginal
mascagni
vistas
remnants
piscina
unbeliev
phurba
dictatorship
overwhelming
dallas
interlaken
distorted
symptoms
hirsch
recruit
smokers
auditorium
earthquake
pavilion
dignity
##videoraptor
mezzanine
thermocouple
predecessor
bazaar
unveiled
meadows
pedrera
reciprocity
ignorance
criminals
kremlin
pianist
wreck
deliberately
discrimination
murmur
naxos
swindon
freelance
doncaster
prefecture
overpriced
irresist
ubiquitous
bausch
stomach
undisturbed
coliseum
devicenet
78224
frozen
westminster
erasmus
gottschalk
7am
bs
bian
bount
cerv
cib
cerc
cada
dai
ery
eighth
fid
fury
gc
gon
gew
gige
greeks
hiv
hir
hipp
houst
hikers
hockey
ihr
igu
jar
joke
kv
kes
kent
kast
kans
kdm
lak
lup
lava
lido
mog
mik
mack
mund
meca
nai
nancy
oath
pt
pf
pity
pand
pach
puls
poco
rp
rus
ramp
rises
sf
sg
sang
serr
sided
saga
tiger
uff
vd
vap
vond
vril
wies
wip
wto
wages
wys
wives
wls
wounds
xv
zwe
zelf
το
##aione
##vy
##vor
##vet
##vie
##hn
##hens
##oise
##lib
##lings
##dron
##dered
##was
##watch
##yu
##cz
##cars
##cotel
##colo
##pick
##bay
##bies
##bird
##fg
##far
##fly
##fair
##father
##fahan
##gor
##jon
##jar
##moor
##zant
##74
##96
##ом
thro
thieves
theod
theological
##escent
##onso
##orle
##orph
##orio
##itos
##ouw
##arius
##alks
##alya
##alema
inhib
##isput
##enta
##entes
##ileries
##urant
##urated
istr
isabel
isfahan
##eten
##etrics
##eco
stur
stav
stove
stakes
forge
onwards
##ayette
##sted
##stuff
bef
aligned
altona
##igl
##iges
##amos
##amous
frau
##owitz
reap
##iri
##irical
##adv
ana
anat
ansi
asi
##abs
ors
chim
chlor
exalt
quorum
##uset
##avi
##aved
it8
##very
##eman
##emla
sha
sho
shat
shir
shaw
troll
trash
tribute
##andr
##aky
##aklion
usability
byzant
alles
canter
notch
##uneration
weil
wears
##usting
##alla
##allio
##ellery
##apagos
unac
unqu
unites
plains
##iban
##ipts
hein
heights
hebrew
worms
ade
adams
adler
adria
##pler
interfer
leak
leider
leban
perug
perched
percuss
resemble
accidental
upto
upmarket
abbre
gond
##root
##erno
gros
grateful
coher
dover
drier
drops
##loo
disob
disinte
disadv
baraj
expiration
##berto
partitioning
nobel
wellington
anybody
undefined
justification
overr
overflow
peu
scc
cran
feas
facult
##ieb
mykon
myspace
agua
regress
betray
parkhotel
caribe
##owski
custody
##teo
##tex
workflows
paracas
##urnished
blas
blasting
blanes
##weg
##wealth
##ientes
starfle
##affe
thresh
margar
bash
basso
basque
datal
downhill
shoppers
formulation
##echten
123
1200
##phr
ideals
consulate
valves
warn
##ugi
swept
contrasts
##ertime
remission
reminder
remuneration
sercotel
arrives
engl
bellev
handmade
funch
funicular
confused
solitaire
sitekeeper
invit
herbal
heraklion
purity
trainers
schle
crete
elves
patron
attribution
endang
endurance
localization
signpost
##ounters
sli
reflex
##atherine
classroom
ett
eta
wrap
casas
devot
particles
##izedek
curry
currents
surrounds
sala
rename
powertrain
landline
multidim
##ahemla
##ofs
##ofocus
foodstuff
profound
shortage
gli
redistr
depicting
severely
payout
caleta
119
performs
importantly
repell
167
constance
suns
vegan
vega
envis
lightning
tempted
##linois
173
sayings
promin
hostile
malawi
factories
motives
141
lesson
geological
geometry
joins
postcards
banner
turnkey
pcb
codex
affair
affirm
convinc
convivial
135
berkel
##eshire
individuality
##amento
creators
preval
contacted
##garia
verde
verbal
insect
inserts
insuff
loungers
radios
communicating
textures
textual
##alta
40d
commonwealth
beginner
healthcare
berliner
sourced
admiring
travelled
encounters
distributor
treatise
bayern
pressed
urg
kingd
illinois
preceding
pleasantly
230
departed
exhibit
commercially
cyr
outdated
translating
hilltop
##ucker
acquaint
intrig
broader
diehr
diego
associative
meanings
jewellery
replied
rounded
6870
construed
sentences
##iffe
montaione
graphs
touched
remainder
employs
employer
formatting
egidio
baba
modeling
dvb
electronica
270
tuner
galicia
galapagos
critically
answering
penetr
qualitative
seller
poorly
hamilton
wald
judicial
judgments
cartoon
converting
sweat
deaths
consisted
oceans
strolling
tito
karma
##viertel
1944
croiss
tabern
seekers
rubbish
torrem
catalonia
homogeneous
partnerships
promoted
widest
directional
##baum
granting
counties
orientated
compactdaq
contributors
functionalities
civilizations
degli
unset
crypt
inventive
summers
summertime
##iscovered
mp3videoraptor
mondays
contractor
contracting
inhabited
picard
colonies
reconfig
##conf
flee
flea
sticky
culmin
excelente
390
powder
taipe
nazis
instrumental
borrow
modifying
attachments
piazz
brewing
breweries
##uhl
1958
1957
newsletters
commented
dissent
fears
encrypt
##ohn
christianity
earnings
exceeds
##blick
suspected
allevi
imperative
equalizer
assignment
crystall
screenshot
poured
hoped
rouen
router
##schaft
conformity
folio
folkl
adaptation
backups
umbrian
sexuality
prisoner
moroccan
kyoto
cordially
willingness
tuileries
ciut
coconut
penthouse
washed
pharmacy
podcast
indulgence
tolerant
annotations
ottimo
declined
boyc
disturbing
disappointing
taiwanese
stretching
duplication
stripped
steadfast
risen
spells
yogh
##passed
##358
hazard
sicilian
handicrafts
botanic
diagnostics
grazalema
gigantic
lingua
evolving
epoque
threads
binaries
zarahemla
inquire
alfred
abduct
venezia
lighthouse
cesar
chessbox
liechten
guadal
disputes
pioneering
fluent
petrol
balkan
##aguay
indirectly
flaws
unspoiled
honda
mg2
vessel
patriot
derivatives
broadcasts
lodgings
megapixels
mediator
humidity
huntington
gustav
##baden
gratis
autonomy
antivirus
cedar
omnip
bargaining
gaze
reunion
harvest
pantomimes
xdmcp
controversial
silicon
##agnetic
amphib
cabarete
cigarette
immortelle
sidewalk
sidewalks
i586
pdas
prussian
scalable
merging
voluntarily
precaution
episodes
prophecies
acknowledged
ajax
census
rehabil
itineraries
shifted
kaprun
rostock
dismiss
multisim
encompass
stipulated
stubai
albergaria
hotfixes
chueca
aeroport
predominantly
ffii
xf86
christopher
motorbike
enquir
recomend
##cribed
immovables
lancaster
thalasso
dfine
kresse
tambien
xserver
##manship
protagonists
pickpockets
biscuits
rijks
andalucia
uitstekend
prejudice
parrot
deterministic
watermel
lithu
shuffle
offshore
crossroads
merchandise
mcdonald
shampoo
unaffected
uninterrupted
footpaths
melchizedek
pgp
whimsical
strenuous
obsolete
extravag
constraints
bosnian
waverley
autocompletion
salamanca
sofabed
896358
bamboo
irresistible
houston
uffizi
stavanger
perugia
disintegr
barajas
starfleet
bellevue
convincing
taipei
liechtenstein
2x
2km
415
7pm
a9
auction
bess
bere
bark
bild
bade
bacter
biod
bmp
bikers
cen
cgi
dx
dod
danc
dying
d90
ea
eind
erect
fame
fcc
feral
fassa
gand
glo
hated
hither
hda
hmi
ia
iepe
jin
jon
jets
kas
kalk
kerts
kha
komp
k20
kauf
ld
lark
luk
mour
mime
nay
nod
nau
nina
oems
pid
pab
pose
pens
pile
pains
pipe
qw
rd
rj
ron
rails
rains
rpc
sall
sfr
sda
tou
tac
tian
txt
tiss
tank
tuna
tenth
tensions
vom
vos
vitt
valk
vanta
wan
witt
wiss
wenn
xx
yarn
ydoc
zr
za
zut
zleep
на
не
##uard
##rass
##rights
##ei
##ejo
##nut
##nels
##tan
##tag
##turn
##aia
##vice
##haw
##sa
##dv
##dies
##dera
##wave
##wear
##cere
##cuts
##xp
##xual
##bc
##base
##bons
##fahr
##focus
##kov
##glas
##jor
##mes
##maker
##makers
##zi
##zburg
##zhou
##08
##41
##26
##ль
##то
##το
##ие
##ław
##atel
##enl
##enor
##arus
##arina
##aled
##alist
ineff
##reib
atop
##omy
##omon
##eliers
##isi
##iser
##icer
##otels
##lement
##osha
isola
##acute
##ecd
staged
##ayo
##stoder
beethoven
alar
alger
alerts
whale
##americ
reop
##irchen
##advis
##ulp
##oders
##odies
comic
##opan
asci
##aby
chev
chats
cherry
cheshire
suisse
##thotels
rog
roast
##emi
##illon
shim
trout
tract
trance
traced
tratt
##andia
sparc
canape
degr
##oured
##ources
seated
##ellschaft
locom
arn
pla
##ibu
##iburg
##tract
neu
neur
clause
compiling
heater
hegem
##acha
##ogh
lever
leap
pert
##ounded
hasn
manic
##endorf
##iko
thereafter
soge
abusive
abominations
meyer
##osexual
desks
##izia
##cling
boating
groves
coz
recurs
restoring
brack
brunch
bresc
guesthouses
##ensen
##ensible
modo
mines
drill
drilling
contention
contests
timest
disag
dispar
disabling
barn
##ueil
parted
partake
nob
bret
commenced
##icks
airplane
overly
crush
cruel
##axi
laz
preh
prelim
mayfair
##ieux
famine
revital
reversed
regimes
id3
stroke
colchester
carts
caravan
customised
goodness
flam
flocks
paragraph
paraguay
knopp
bland
blast
blues
securing
teh
howto
##affiti
thru
modernly
marm
decimal
decolon
formulations
eman
delphi
126
meticulous
warming
actor
staffs
##uga
cours
##rypt
corr
corso
corral
maquis
runners
handful
ecos
monster
monopo
beforehand
##unda
skis
skies
##eek
invoked
herbert
herzog
incentive
sincere
schoon
condomin
##ionale
ordination
158
proport
##uctive
202
##byte
slid
##ucher
portability
portmap
finca
neteller
reservoir
wrist
1830
1880
devote
natives
safest
saler
salute
salmon
##atori
intake
red5
tester
depicted
arches
payload
automob
erad
compute
freiburg
calib
caldera
##ivaled
musee
114
ballet
10000
telnet
collegi
stepping
infinity
infections
docks
morals
##engarten
##enny
##ennes
latitude
factions
annih
geom
camer
gameplay
castello
repression
boxing
affaires
existential
beret
humili
selectively
diadem
quickmask
fisher
antalya
closes
electrom
domina
domains
hohe
estaba
almight
messaging
textiles
##alties
comparisons
hallway
##letizing
##onese
sourcing
encoder
certainty
milling
clearing
fitz
queues
overlooked
filing
authorization
optionally
##caemic
identities
identifiable
paella
duk
voj
bordered
opposing
hospes
damn
dependency
executing
alba
followers
ambitious
##hammad
##uku
associates
batt
saver
synag
magnification
sensual
sensory
prepares
robes
robbed
investing
suffice
crosses
brandon
fixing
argues
circulation
##oudi
##oeu
galician
cello
1972
kilometer
miro
debug
loader
penal
qualifications
sihan
billboards
ceo
funded
burma
originated
deliveries
georges
judging
symbian
carries
scripture
virtue
wikitrav
##estrial
##estricted
prett
republique
cooler
strait
ukash
krestic
29th
darkmoon
1962
1941
enhances
enhancing
torr
toron
ridiculous
copper
bornholm
bornemis
msn
##baar
belizean
sacre
captures
progressively
contributing
haunt
##utti
burned
miserable
arabia
threaten
ruime
ruhr
biosphere
##kehr
tender
calculations
favorable
1927
##itania
dimin
punk
muhammad
##aciones
traitor
commissioner
aqua
councils
caen
gaste
sorting
##enzo
sticker
6000
zeus
scientist
ratjada
jesolo
apparatus
salvia
aparthotels
unfortunate
1951
1952
deploying
##accio
1000d
##ohl
ingredient
proudly
praying
peninsular
bakeries
neighbourhoods
giov
giud
sealing
disposition
rigdon
recovered
luckily
plainly
affecting
coordination
unpatent
mansions
nanotom
stimulating
doctrines
adaptive
appartments
bundles
astronomical
pampering
svg
criticized
intervals
settling
settlers
treasury
tallest
exploited
glycaemic
renewable
kamers
saddam
smoothly
emotion
greeted
greeting
analyzed
advisor
udp
bondage
bowl
wizards
andreas
annotate
investigations
dolomiti
zoolog
##xxx
conquered
casualties
ayre
liquor
stansted
praia
gaul
henri
monasteries
mentally
canoeing
estimates
steinbach
prelinking
explanations
disappeared
rodina
steadily
fulfillment
swords
hazards
webcams
mdt
evolve
unrivaled
unrestricted
cleverly
tempting
luft
raval
insisted
8360
ctc
revolves
intentions
bastion
##allee
fluid
gendar
stamps
parsing
palestinians
ergonom
philippe
konigs
transducer
ebay
lingma
whisky
whiskies
escaping
adventurers
consolidated
clouds
exchanging
aesthetics
prospect
gesture
vouchers
chorus
nyc
legitimacy
vodka
cheltenham
energies
kitesurfing
lutton
ponta
displaced
episode
unexpectedly
gabri
hinterstoder
unchanged
prosecution
gmt
coincidence
serenity
freedoms
encompasses
tiffany
zhong
##motion
grouped
corpus
castellana
pueblo
puebla
rituals
nigeria
##iwyg
acoustic
utterly
uncertainty
cnn
catastrophe
analytical
bacula
stainless
fortezza
orphan
impaired
dissolved
mozambican
pequeno
sketch
lewis
ugly
inappropriate
staple
bradford
workaround
slogan
ubicacion
inaccurate
jalan
kultur
mammals
rathaus
inaugurated
tossa
sylvie
cappucc
invisible
reckoning
colombia
paragliding
actuators
##otechnology
pseudo
hemisphere
rastro
tudor
unstable
maitre
endorse
glazed
panametrics
foothills
viktor
##oukville
aperitif
dejeuner
erosion
fishermen
practitioners
ultrasound
keswick
lupus
wysiwyg
percussion
abbrevi
mykonos
regression
threshold
funchal
signposted
berkeley
insufficient
kingdoms
rehabilitation
kertsman
k20d
vantaa
zutphen
brescia
preliminary
monopoly
condominium
sihanoukville
unpatentable
6am
613
axi
bic
bard
bistr
bump
banned
cly
cout
cact
cats
cush
catherine
dere
dach
dass
dio
darm
d60
dns
dwelt
etr
fool
fbus
fusing
gj
gor
gle
gault
ginger
hg
hin
hort
hints
hoch
hikes
i3
ion
iter
jelly
jolly
ki
kav
kaz
lange
lund
lances
mv
mk
ming
maced
milton
mothers
nf
nk
nel
nem
nigh
ngo
ole
ome
oils
pist
perv
pau
pne
pasc
pockets
qa
ral
sank
sri
ssh
sansk
tf
tnt
uml
vu
v9
vand
vans
vival
wim
woken
wye
wieder
yo
zak
##uvi
##eak
##efs
##np
##nisk
##tc
##aults
##vard
##iy
##iams
##low
##lav
##lery
##lass
##lang
##lah
##dl
##dens
##yst
##ygen
##cel
##cas
##cill
##cope
##cup
##xtr
##pol
##pages
##bir
##bide
##gn
##gam
##giving
##gien
##jina
##zia
##zucker
##98
##ра
theolog
thesis
##initely
##esa
##onas
##atisf
##eni
##itures
##itating
##arts
##arani
##reuth
ate
tos
##elijke
##isional
##icon
##oteric
##asur
##entious
##osil
##osts
##urer
isles
##acci
##acchar
##econd
stab
stag
stance
pris
prad
prud
prij
beamed
beacon
##oler
alain
algh
alde
alameda
withhold
##iguous
##aman
reefs
##iras
##adio
##ulos
##ulls
##odic
##terre
ante
##ocław
##esses
##aburi
chm
chau
exile
exquis
##imi
thats
##thr
rox
sherry
trough
trivia
##istent
spart
spokes
envel
canister
##ifices
depress
depression
wei
weird
##ource
##astika
seized
wass
locality
unequ
unoff
unrel
arom
aria
aromas
arno
arlberg
offset
plaster
##ibc
##ibus
acre
acids
nepal
cler
##agh
##agnes
adl
interoper
leaming
leaked
amr
amari
manners
accus
accidents
uphold
abused
goya
##roach
desol
desper
desenz
desperate
##acted
##cled
boa
graffiti
coeur
##too
brest
##ensed
modulation
doom
doeth
drift
timeline
disg
disreg
expulsions
relieve
charme
charging
inclined
bregen
underm
scam
scarc
##onde
##oya
crack
cracking
indo
indices
laf
laos
lazar
distortion
facades
mayo
whois
myr
revision
regen
1914
breakdown
idi
striving
additions
cola
sai
workplace
flame
##ampino
parenth
knp
restaurante
##enca
##enco
counting
olds
loot
moderne
marinas
basse
decad
121
privat
metered
valued
seeks
##eys
complements
warr
opengl
##rug
beauties
##anco
norms
webmaster
directing
corus
germanic
shoulder
##nerhof
markup
presently
simulate
windm
evokes
westph
handbook
##reno
ecology
func
skar
skelet
capped
medici
invoke
invalu
herd
incons
backing
backwards
musik
elinc
154
terrestrial
endemic
endowed
##iversity
##ysis
207
203
passports
passphr
##evere
##cripts
slay
slice
refrain
verses
menorca
founders
effic
etre
wrocl
wrocław
nationals
nationalities
casing
espresso
devast
commune
safari
lasted
orderly
landed
totem
float
glibc
booklet
archer
archbish
##gerald
concise
concerto
automate
computations
calab
calme
1100
lookup
repeating
decorations
activates
destro
keylog
resides
##redited
infrequ
tempo
##lining
172
awk
awaken
occurring
##heet
motivation
professions
professors
anne
1400
joe
posters
searched
turnst
turnover
grandfather
cuisines
##ophys
136
berk
swimmingpool
tarball
speeding
icao
economist
insec
insens
insider
releasing
closets
practised
copyrights
entrusted
wondering
microc
##manuel
hallmark
governors
budgets
fireplaces
fieldbus
problematic
encode
scramb
linuxrc
bayreuth
massac
eventual
superl
precip
precinct
coverity
separates
cdu
##eseen
23rd
shuttles
futur
exhibited
acquiring
acquainted
ambas
intranet
fantas
sonata
spectators
controllable
waits
denominations
6859
6821
sentiment
essay
essouira
##mea
suffix
merger
corrections
500m
besch
oss
gentile
kernels
argyll
arguing
questionable
immob
tuned
tunnels
continuity
surfers
rotate
utf
violated
cuttings
cutlery
##ymmet
##apsed
penz
optimised
billions
cebit
franco
plugs
burlington
skytrain
inflation
thoughtful
aspir
georgia
walter
hydra
blocker
##fsbere
sexo
aiming
physicians
convergence
citotel
1935
##kaia
flyer
deepest
quarterly
protectosil
titled
baghd
baglioni
1947
rockef
cabs
rubin
torment
certify
widgets
illusion
tomaz
visualize
benin
taliban
despair
breathe
interpol
curse
omaha
empires
fills
constitu
rainfall
alpen
ibx
analysts
hopefully
unsure
tramway
strengths
oblique
shaping
dominate
splendour
essentials
plantation
embedding
potentials
transforming
1923
1926
1929
##flash
tagger
demonstrating
terminate
sudoku
traject
counterpart
counterfeit
consequential
adjustments
lacked
conferencing
azores
converse
conclude
simpler
simplest
encouraging
synchronous
synchronized
fundamentally
999
ladder
##lichkeit
boring
implications
deadly
challenged
responding
boundary
interpretations
distinctly
chemistry
revealing
emergence
terrorists
gdm
sarac
tribble
retrosp
uploading
polymers
exceeded
##blos
gradual
replacer
suspicion
bakery
giard
identifying
seniors
##break
##straat
traumat
1908
1905
honorable
rouge
trailing
brooks
napa
tipping
nanofocus
sufferings
enchanted
remarkably
fellows
##fields
fontan
haste
reactor
reactions
laboratories
diameters
##aniemi
megazo
multimeter
quantitative
manifested
microfocus
unfair
mistakes
mistaken
tuv
awaited
ciampino
coca
cocoa
sadur
hotspots
##oscop
tolerate
blanket
halle
seducing
accomplish
spectrometry
instructors
withdrawn
dwelling
campsites
syntag
tyne
argentine
brazilian
dorje
hermene
disappointment
dessert
panto
ashanti
abbas
medicines
explanatory
radiates
pullman
rewarding
redeemer
affiliate
darts
efax
invalides
multiplied
hectic
manipulation
decreed
decrease
ahn
nvh
uitge
spoiled
lemon
pepper
carriage
coupe
hilfsbere
scrolling
kleinw
pharmaceuticals
gamers
tantra
multifunctional
ruler
##kamer
capitol
patrick
configurator
nutritional
assorted
ebenedict
wmf
consolidation
commodity
commodities
graduate
uniformly
jumped
pvc
exhausted
hugely
forecasts
vigil
inequalities
groceries
timetable
congres
incompreh
rudolf
glamorous
psychoanal
duvet
mooi
vesuvi
wavelab
abolition
barbara
diligently
lunar
unclean
ancestral
snowboarding
sqm
agrarian
espanol
espanya
ballsbridge
slovakia
jurys
vieux
pragmatic
substitute
perpetrators
nacional
inverness
mystery
floods
iniquity
iniquities
franche
imposing
konstanz
bubble
ferien
gomera
kundera
kiosks
grammar
swiftly
metropark
jackpot
aristocratic
tcb
unhapp
obedience
homeopathy
artisan
constellation
prototyping
huesca
albeit
syndrome
subtit
arrogant
sapsprint
atomic
congestion
duplicates
congratulations
fierce
m3u
beeches
stromboli
semiconductor
tussauds
bnc
emirates
baixa
eryth
vondel
orsay
shiraz
byzantine
coherent
blasph
endangered
multidimensional
reconfigurable
boycott
chessboxing
amphibious
rijksmuseum
hitherto
##xpert
algeria
ascii
sogeade
knoppix
corralejo
proportions
portmapper
collegiate
annihil
almighty
fitzgerald
##oeuvre
toronto
bornemisza
giudecca
zoologischer
sylviexpert
darmstadt
omega
pneum
sanskrit
vivaldi
##accharide
alghero
envelope
interoperability
leamington
desenzano
bregenz
invaluable
elincom
wroclaw
archbishop
baghdad
rockefeller
megazoom
vesuvius
1pm
1km
850
8gb
a5
aver
aided
a14
cis
cows
cabled
dd
dy
dad
dak
dud
dash
dread
dots
dull
ddr
dared
einger
erupt
etrop
fog
fals
fines
fah
gw
ged
gos
gov
gera
gutes
hed
hac
hild
hue
hij
hyr
hello
hiding
jih
jfk
kart
kro
kath
kron
kann
korn
kuta
lv
lx
l3
lle
lust
lice
lland
lys
mard
mash
mute
muz
m25
nun
nost
nog
naur
nurn
nels
nitr
oy
ond
otr
pb
pous
piz
pax
pint
pash
pema
pompe
rif
rade
racks
rams
rias
rims
ristor
sis
sow
sore
sans
sails
s100
tp
tep
tony
taj
tpc
tutti
uma
uitz
vet
vest
vell
vue
w3
wes
wach
wool
waging
wanch
w170
xen
x64
yan
yuc
yash
zet
zoc
zms
zah
##uated
##uate
##rach
##rique
##eats
##nov
##tu
##tol
##aal
##auc
##vol
##vik
##hm
##hed
##hound
##hoe
##hara
##hoven
##o3
##lel
##lamp
##lied
##date
##dled
##wand
##year
##yzer
##cal
##cious
##comm
##cots
##cases
##pil
##bil
##bell
##bars
##gre
##gic
##gins
##garden
##mim
##mins
##79
##1000
##01
##04
##417
##2s
thi
thong
thief
##ertion
##init
##inational
##inho
##esque
##esee
##onst
##atform
##eniq
##itou
##itively
##anze
##rels
##render
atoll
tok
##eln
##elore
##elier
##isia
##isations
##ioni
##oton
##aso
##ask
##lein
##urm
##uria
##etype
stem
stum
stating
stocks
steve
forex
##stones
pracht
##uto
##uten
bee
bek
beats
##olley
##olinos
alias
##estruct
whites
##amiento
frig
fract
apis
##adines
##ulink
##ulative
##ods
coma
comun
##opl
anah
anoint
antrim
##ocar
##ocadero
congreg
asleep
asymmet
##chus
##child
##chinen
##abu
##abella
chil
chop
##ceg
##aval
sucr
roo
##emap
##empt
##emma
##emara
shi
tras
trolley
trocadero
##istically
##akov
spor
spock
spool
spani
enr
enet
enforced
useless
allotted
canar
##unci
##unhofer
##quoise
##ourt
##ovak
##uster
##ustin
##ustomed
##iches
locatie
uno
ung
unbear
arland
offence
plc
plit
plots
cents
williams
##umur
neocl
worried
##agy
##agio
adh
adela
##udno
##ogs
##ogl
##plant
interference
##iae
##iao
lek
##send
oppression
guang
guerr
##ends
##ounce
##soon
upnp
sobre
abys
mez
meek
##ubourg
goy
gob
newton
descent
##izon
##izio
##forcing
boz
boeing
##ernal
grim
grove
griff
grieg
##area
coated
##atham
recession
##toire
bris
brav
broker
whence
guestroom
moderated
minster
druck
drums
aval
aviv
conting
contour
baron
barack
baroko
syria
##berlin
relates
relocation
reliably
charite
chariot
smb
breast
breeding
undisput
proving
eurasian
scanned
crac
crises
indigo
indignation
feud
feather
prey
prefs
subc
subtrop
bedside
poems
##angler
##proch
##ieur
agrad
revive
systematically
1913
idle
strives
parkway
twe
saudi
saumur
cares
carth
carbide
walkers
fires
kne
knife
starred
applet
comforting
modernization
margin
downtime
decks
decides
formosa
underest
emc
emitted
emission
##ogrande
businessman
##phonic
eds
privatization
valve
polar
swatch
equity
webmasters
remed
remix
remedy
##ologie
rightwing
coruna
##raf
maid
arrows
##porthotel
simuni
simulink
##issia
##isserie
##ecker
##erium
specialize
traded
internationalization
evangel
##position
connemara
disconn
funcion
monograph
confined
techno
bathed
assemble
capo
medication
invigor
herceg
purse
callbacks
holiness
inca
incidental
schre
schwar
mush
elena
elba
cleaners
patric
24th
locales
##ounted
slam
operas
versilia
##atherapy
financed
este
estimate
estonia
typo3
etait
etwas
douglas
listened
nationalistic
installs
attracting
1850
1832
1829
1831
popup
esd
esmer
streetcar
##itsch
communists
downloadable
nih
niag
respected
salts
storms
readme
lastly
renown
powerpoint
multinational
receivers
shortcuts
##teness
testament
waterways
waterloo
topical
topped
arche
archaic
statute
fiest
payouts
societ
optic
erice
erase
erotic
freight
##ieving
calidad
##overy
##aneously
##ercial
116
balaton
##insmith
5066
labs
labyr
telet
166
secondly
transported
limiting
expressways
sunlight
veere
infection
infamous
midlands
2500
westerners
credibility
sanction
maldron
cheat
cheques
142
viable
geb
postcol
banana
panelling
panzano
cama
castillo
pca
##ophones
convien
138
132
haran
campuses
snug
novo
logs
lloret
verz
verifying
insign
lovingly
loveliest
##arna
steal
communicator
milky
chrome
carefree
microme
warmest
221
225
beginnings
turanian
turquoise
213
216
fairyt
treaties
massach
entertained
faubourg
urge
urim
urpm
footage
inspire
inspected
superf
##vez
venge
venus
identifies
favored
richly
sharm
235
shutter
exhibiting
humanities
woodland
damaging
damned
cyn
cyl
theatrical
philips
##zeg
acquires
learnt
##anoid
ulteo
sandisk
batl
battl
synonymous
magnet
##dingen
sensible
pxiadvis
transferable
foreigner
6861
6869
sharepoint
respectable
crossed
graphically
greed
gallo
bootstr
garcia
achensee
lisa
questioned
babylon
dvor
preferable
electronically
immune
thyself
armus
armors
sometime
galile
galeniq
liber
rotarian
cellars
##ochem
##ymn
28th
260
penalties
optimise
optimizes
bloody
lowered
forested
forestle
originality
raising
hamid
prophesy
georg
melon
melrose
confirms
neglect
astor
mixer
##kaido
honesty
lifel
darker
1961
josef
cabling
smarty
rolls
rolled
##ascar
ghz
homage
homeless
homeland
harbours
uncond
90s
meaningful
oceania
captivating
curved
330
haul
haight
collision
authenticity
alpes
starship
eighties
##guards
##istries
lantern
dominance
tendencies
rhin
##ippo
expansive
380
interactions
1925
reputed
complies
schedul
bearings
slightest
tagus
igor
muro
murdered
dragons
czechosl
sudzucker
submitting
hostelsclub
initialized
lapad
relevance
dropping
adjusts
##iliary
sussex
##eques
caorle
dhs
##olean
canalyzer
culpr
5311
resolves
conclusions
flavored
encourages
ladin
oxidation
##lichen
cups
rendez
apparel
einer
effortlessly
hygien
##eatre
##maschinen
responds
responded
habitat
cosmopol
rtds
dissemination
pursued
retrieval
mbta
pizzerias
437
complementing
suspect
utilizes
bosch
giulia
disclosed
kolping
inserting
husa
jetty
pacs
vulcan
hopeless
forgiven
accomodations
dishon
nanow
vitosha
remarks
folks
fells
revenues
obliging
obligatory
fontenna
unusually
babycots
thunderst
diagnose
clarity
mistral
chocolates
discrete
immigrant
sacrific
echter
echoes
henceforth
ninja
khz
electrons
masturb
ngos
podgor
vocal
vocals
illustrate
illustrator
navigating
consciousnesses
##peare
bostjan
clinics
negotiating
shells
scandal
decentral
fetch
ottima
conquest
charlotte
criterion
hypoth
##ytag
emphasize
alcaz
fragile
fragmentation
disturbed
baskets
gentlemen
narratives
mentions
cristal
approximate
uncompressed
hermann
compensated
stretched
sipping
tricky
radiocom
rewarded
drafted
conveyed
linden
ripped
yogurt
stereot
believeth
multiplatform
gibt
tongues
chaotic
handicap
hdv
##planes
manipulate
cayes
corte
abdul
teatimer
firewalls
anticipate
bmi
groß
tangible
allocation
hilly
turbine
##enerbe
stranger
strangers
mortal
mortgage
##pieces
##balance
attained
shelves
compiler
motorcycles
rulers
tidings
tuesdays
absorbed
trousers
deposited
reminds
patrons
pilgrims
heidelberger
bombard
tremble
barcelonapoint
greyhound
yields
skipper
fulfilment
bunks
torture
voyager
knocking
gelato
tirreno
vlad
reunification
bohemia
harvard
lumix
aluminum
imaginable
amphith
klingon
klinginsmith
redirected
immortal
diplomat
diligence
spanning
displacement
subdirect
safeguarding
sixty
billiard
kennedy
itinerary
interconnecting
bobber
fortunate
komfort
leaning
cbd
##humvit
beauc
outsour
remnant
boroughs
perpetrator
pestana
sotogrande
sutherland
##iculously
shaman
portrayed
tgv
lexington
showcases
showcasing
catastroph
misunderstanding
giorgio
vivo
##mnb
metropole
jackpots
bombs
wyd08
##orrent
blaue
ordinances
cvs
shakespeare
##akriti
grinding
relativ
##ophobia
snippets
rhythm
submarines
rejuvenate
8106
aurora
wandering
unloading
intervene
restructuring
balconette
e330
nerja
clifton
tribunal
fotos
thummim
sukhumvit
genealogy
curiosity
rebellion
fruhstucksbuffet
bizarre
wagner
##ampton
peripheral
goethe
arranging
mihaj
alphabet
friedrichshafen
rectangular
bittorrent
spindle
guinness
bryggen
brinke
carnegie
blacksmith
serpent
maidenhead
turisticos
cerca
istria
anatol
exaltation
canteras
unaccept
adeje
sliema
redistribution
sunsets
prevalent
torremolinos
ciutat
yoghurt
patriotism
eindhoven
kalki
pablo
hegemony
recursive
gaulle
maitreya
dereg
i386
pascal
##xtrin
##through
spartan
unofficial
aromatherapy
warrior
skaraba
turnstile
insensitive
syntagma
ahnenerbe
blasphemy
eingericht
jihad
llandudno
ristorante
s100fs
w3c
wanchai
sucrose
arlanda
neoclass
adelaide
guerrilla
subtropical
esmerald
labyrinth
postcolonial
urpmi
battlelore
pxiadvisor
czechoslovak
podgorica
4km
4gb
5km
6m
725
825
ao
aal
aol
agh
auber
aurel
bt
bw
bain
bum
bolog
baking
bode
bunch
blet
bores
bhop
cag
cia
cove
dia
dick
durr
dorn
dales
dmm
dwar
ean
eure
erection
eprom
eacute
ferv
fue
fck
gost
gurn
groom
gyn
gius
gogh
hh
hem
hew
hog
hare
hert
huss
hover
hai
hdm
hrad
ih
i8
ile
ike
jail
jeep
jared
jahr
jandia
kp
kop
kum
kend
kee
kaw
karn
kills
kerry
koz
l1
lich
lough
lustr
lopes
lhs
lieder
moy
nim
nour
nie
nash
nada
naught
oamp
oerl
pom
pere
pong
panc
peng
punch
pests
png
pkg
qcad
ras
roth
raff
rund
rink
rau
rmb
ronald
ses
sard
sok
sog
sade
sio
sbr
soder
td
tet
tig
tux
tty
toms
tng
ux
vak
vick
vra
verry
vantage
wp
wap
wore
wary
waged
wils
wagon
xe
xii
xxx
xorg
yang
yush
zl
zer
zat
zang
zize
ра
##uence
##rist
##rate
##eil
##eenth
##nu
##nek
##tec
##tem
##tops
##aways
##vr
##via
##hal
##hov
##harm
##haven
##iage
##iya
##lam
##lab
##lach
##dor
##dock
##witch
##witz
##werk
##yma
##cat
##cit
##comes
##cester
##pes
##pat
##pas
##pix
##pensa
##bund
##bys
##bah
##fd
##fang
##function
##kie
##gt
##gos
##gun
##gard
##gne
##js
##mat
##mere
##zd
##zsche
##zimmer
##78
##75
##2c
##97
##92
##ли
##об
##ια
##erberg
##inies
##esian
##esberg
##orth
##enal
##enas
##enpick
##itik
##itations
##itism
##itaine
##aris
##arial
##arvi
##arema
##edi
##edict
andes
##anst
##anova
##alite
##alted
ines
inso
atr
atocha
##omar
##omwell
toys
##elinux
##icable
##icino
##icross
##otes
##asaki
##entin
##entre
##ilite
##ilita
isdn
##acar
##acons
##ecycle
stil
sture
stev
stigm
onward
##stag
##stown
##stube
##studio
pri
prose
prides
##utto
##utte
beim
beast
##olt
alad
##ivo
##ivel
##ivates
##este
##estan
##estra
whis
wheat
##amel
frills
apres
##owers
##idal
##idorm
rei
reor
reed
reis
reim
reep
##irmed
##adr
##aden
##ulic
##ulence
##oda
##terbach
##opa
##ocal
##ocel
##ocument
##chenko
##abal
oro
orbit
orcs
chol
chilled
extern
##imil
##avin
ronda
##vergne
##illas
shaded
trent
trim
trast
triest
tribe
trump
##orty
ench
envelop
byte
##anty
alliances
roomy
canvas
cangraph
canicross
##ctad
##ateurs
deau
##unner
##quil
##ovy
##ovan
##ovina
##usters
##arda
seater
seeds
##apl
##oreal
locks
unin
unification
unfriendly
unctad
aran
aromatic
offended
centred
aces
acress
##uman
##umber
##iport
##tres
##trusive
clark
heine
heerl
worx
aden
adhes
whichever
##plate
##inez
intercept
leh
leic
lease
leopard
perg
perla
amm
amanda
##idea
opel
guern
guilla
guantan
manz
manila
maneu
mangrove
manrique
resume
accueil
accustomed
##indi
upr
upright
thereon
soi
soy
abe
abc
abst
##eryville
mehr
##ubile
goat
goers
##irection
theirs
immer
##ernity
grund
recited
recurring
restu
resturant
##tool
brib
britt
braga
modelling
drake
drastically
drbd
contam
##loqu
disastr
disaccharide
bueno
buiten
baroudi
##ermere
##ermaid
expose
expire
expands
expires
expelled
syner
internally
relacion
sme
##itta
##itters
phd
breed
breads
comma
commute
airbus
undes
scala
##onder
##otheques
cromwell
laud
lawn
laurel
supers
supper
suppression
prezzo
substr
subvers
subtl
distill
poitou
##anges
facial
instability
myriad
mycit
thematic
revers
revoke
1912
strad
strap
sae
sauer
cared
carre
carvery
workings
flowing
flaming
transameric
paral
parche
##urrence
blows
##grad
##groscop
teg
thrust
thrilling
thriller
beck
decay
decency
dechen
publishes
firstly
##olled
1024
underway
undergo
emeryville
##echt
12pm
edvard
##inton
playable
valet
genres
##speed
##ockery
cleve
warns
swine
swastika
##aze
webin
##alsertal
remo
serena
applicant
applicants
heartbeat
##ologic
standby
nons
cores
corinthia
corissia
distract
thence
preset
##onshire
simulator
##issima
viewpoint
viewrender
belly
windermere
evoke
beautifull
oban
wester
handwr
takeover
disciple
discotheques
eccent
monks
monsters
monsoon
confection
solomon
technicians
##unde
assass
assures
purusha
sinai
backre
scha
schwe
schumann
conditional
creole
elites
detach
extinct
terribly
proprete
propulsion
realism
apartmenthaus
##uctory
208
205
209
defensive
defended
defaults
passau
localisation
slaugh
sliding
operative
versus
##uche
##ucht
##inka
earls
terme
##italia
villar
villac
cardinal
southampton
nationalists
1870
pops
popul
esport
esoteric
##itsu
##ternach
natur
northrend
##anka
salle
salary
readings
demographic
rennes
renfe
singers
powerless
multic
musica
musician
##aham
##ahotel
##afx
glow
testify
topography
depicts
##asha
##ashing
stats
statues
groupe
costasur
concord
standardised
standardisation
##perg
erik
totalitarian
calais
caliph
calientes
entails
hardness
hardcore
hardened
113
bald
balancing
100m
50m
repairs
labors
##itches
romant
romana
romagna
colleague
pleasent
stepper
stephan
expressing
sungl
functionally
##coach
spaciousness
veg
veil
infos
infant
morally
moritz
occult
##enges
servera
hostname
stopover
sana
malpensa
##brun
headlines
143
joan
postcard
postigu
matt
matth
productions
panthe
existent
allowance
commanding
berl
berth
bergh
movenpick
##urban
entirety
selectable
logistic
diary
##enched
##gars
economists
quickest
quicktime
antwer
veritable
insulation
inscription
closure
addressing
practicing
eastbourne
madonna
##ufsen
stealing
contempt
domen
hoof
radically
##viewer
milestone
##zzi
401
4071
##ungo
halles
hallways
anges
pastures
encycl
encoders
scrut
miller
clearer
cleared
fairness
treating
bayer
victors
presses
massa
discoveries
faisal
urged
elevation
footstep
accountability
authoritarian
superst
ilica
##cais
precond
##shm
paix
separat
separating
232
239
duce
htc
competitor
claiming
understandable
africans
derive
derbys
damm
##eleon
democracies
dependable
philharm
molec
##zeit
translates
silly
amenity
intrins
##uki
##from
##frame
##fried
catamar
savor
premise
seasoned
italiano
preparations
eyed
journ
montan
montfle
guaranteeing
suffers
merkel
navona
gtk
##iosa
##ioso
embry
similarities
ossi
oscill
institutes
garlic
matterhorn
##atti
expecting
lisp
missiles
subset
primitive
introductory
recognizing
recognizable
tuning
pedal
1983
photographed
galle
cellulos
petite
##ochat
divinity
miraf
cutter
qualita
siam
optimally
##aughan
avoids
310
sellers
colorado
influx
literacy
originals
raids
spotlight
melt
melons
melting
70s
victorious
indicators
astur
raping
rapids
citation
citadines
##prof
pretending
1934
ethn
celebrity
ferrous
##laub
narration
pdf417
cooled
tape
tapi
kras
295
1963
1964
merci
licensors
cabr
mentioning
spreading
oklah
torino
augustus
homosexual
olufsen
surviving
uncons
pads
paddle
widow
comprehensively
reviewing
soundproofing
benidorm
vicious
apprec
365
captive
captivity
appropriately
compactflash
omni
lesbian
roofs
civilian
constituent
arabell
memorabil
340
affords
battlefield
eighteenth
ruined
subscriptions
##guise
unsur
##levant
distinctions
rhodes
akin
palmas
candles
candlel
martinez
1924
reputable
analogue
copyrighted
mechanics
dune
climates
racec
chatting
agreeable
accompaniment
punish
initialization
prediction
aquitaine
orchidea
conferred
hairdryers
caul
##audio
7500
risky
conversations
conversely
nicolo
nicolas
excelent
conscience
fatigue
lampp
riots
concludes
declaring
nazionale
##liche
6536
gourm
infrared
cotsw
dangers
deadlock
##working
hygroscop
##statter
1956
habitation
commentator
konn
guiding
dissoci
alexandra
davos
davids
nikko
##accia
tribal
pursuits
retrieving
courtyards
bergamo
gothenburg
rivals
deleting
commitments
exclusivity
alleg
musicals
porter
porth
auvergne
kolin
recreated
hofgarten
javafx
draenor
coordinating
baie
##ydrill
kitano
bolsh
pillar
ontvang
conforming
appartements
proprietor
proprietors
##glomer
sevente
cfp
durability
diagnosis
digitally
kirch
shady
sacrament
echternach
tui
transparently
khy
alsa
mahler
mahayana
awaiting
placencia
facilites
illustrations
analyzers
prohibition
navigator
habe
##person
coaches
bonds
cornavin
journalist
bowls
rossi
socketed
scandic
gutenberg
streamlined
convinient
ayia
##felden
emphasised
bernina
tatra
praised
alcala
gauges
chilean
disturbances
gerhard
headquarter
accelerated
##uberl
disappears
audiovisuals
checksum
supplementary
calendars
linda
anchored
multiplicity
covenanted
9001
dlr
cruiser
ornate
##planet
hectare
evolutionary
rebuy
djs
fsfe
jacobs
anticipation
contextswitch
große
ostermalm
anthony
enclave
marcel
strangle
strangely
marek
rejoicing
revolutions
horoscopes
diamonds
pioneers
crazydrill
ambiente
ambassadorial
irrelevant
freundlichkeit
nietzsche
sickness
tavira
hurry
lingual
amazed
wiener
castelo
graduated
graduates
jumping
supremacy
expeditionary
tiene
prospects
emblems
candidates
subsidiary
lecture
knocked
maltode
nickn
merchantability
borneo
fenix
mantel
chestnut
barriere
honoured
unmatch
guilty
legitimation
cautious
kidn
nervion
experimenting
bamberg
bibl
bibli
muller
mooie
werden
buzzing
wallpapers
manuscripts
##angelo
marsala
herbst
ancestors
sympathetically
auxiliary
censors
kenny
rehear
quadr
quintana
sausages
contradiction
inquiry
##488
accumulate
redesign
repetition
taverns
fowles
##borne
##motif
theoretically
sterling
blanco
dolphin
facilitates
predominant
xfce
zwolle
##2009
battlegrounds
accelerometers
geschichte
##enschaft
overlap
marshall
explosive
immovable
analytics
kiosk
necr
##8360
apologetic
weinberg
parlour
scheven
palladio
##elihood
chandeliers
unpredict
adorned
expresscard8360
inferior
butterfly
snippet
submarine
deutschland
##ныи
francesco
scooter
scooters
imprisoned
consecrated
condemnation
dalmatia
utopian
##electric
expatriates
aggregate
metabol
reconciled
entrepreneurs
hudson
και
fraunhofer
chirac
allergies
aguas
strasshof
multithreaded
impulses
focussing
thermenhotel
crusader
isotope
unavoid
reload
noodles
metallic
backslash
surgery
immaculate
hairdresser
4x4
dtt
muito
tartini
toxic
blissful
dioclet
cadaques
pacheco
wiesbaden
##birds
##usetts
devotion
foodstuffs
repellent
envisaged
prominently
croissants
xf86config
extravagant
bacteria
biodiversity
erected
jonathan
khao
qwerty
##reibung
reopened
trattoria
timestamp
disparities
flamenco
decolonization
slidesh
automobiles
electromagnetic
wikitravellers
giovanni
konigsallee
gabriel
cactus
kavarna
ralph
prijs
chauff
depressing
disregard
scarcely
lazaro
westphalia
inconsistent
passphrase
destroying
awkward
scrambled
futuristic
immobilizer
aspirations
trajectory
saraceno
fellowship
uitgebre
kleinwalsertal
dakar
hyrum
nostal
radeon
uitzicht
##pilot
plitvice
druckmaschinen
niagara
ericeira
teletext
convienient
fairytale
massachusetts
thunderstorms
unacceptable
eingerichtet
auberge
bletterbach
bhopal
giuseppe
hdmi
lopesan
oerlikon
sbrio
wilson
yushchenko
zizek
insofar
reimbur
externally
trieste
deauville
acresso
guantanamo
disastrous
subtlest
mycitadel
transamerica
viewrenderer
eccentric
sunglasses
postiguet
pantheon
encyclop
footsteps
montfleury
cellulosics
oklahoma
memorabilia
unpredictable
1am
1gb
1mnb
2c
2pm
5am
971
aes
aun
awn
awe
aals
aeg
boc
bik
burr
bair
binder
benedict
cene
cider
curb
cured
curt
cava
coded
caffe
dul
dich
dro
d40
dkk
dzog
ek
ebit
ferm
fade
fats
fift
fuses
fischer
gdr
ganz
giveth
giants
hf
hz
havel
huts
hkd
i6
ihs
js
jim
jama
jomo
ker
kul
kaf
kash
kurs
kuk
kabul
llo
lone
lax
lacks
lager
lips
mous
mum
mia
mens
muc
murr
mesh
mastic
nm
nts
nud
nurt
nano
nfl
oia
omitted
oster
odf
onder
pou
pess
pok
pants
psp
pits
paced
piers
pige
pensions
pitter
rut
ress
rall
rents
rother
rash
riva
rocket
roch
rico
rattan
rorty
sath
sass
surn
sfe
sbb
sisters
serend
t1
tand
tome
tile
uru
ums
uef
vog
vio
vier
vime
vague
vlas
vibe
vdr
vinc
wight
wern
wund
wah
wasting
wisc
werk
xt
xi
xul
xper
xcp
xshm
yam
yai
yuan
yyy
zow
zod
zope
zug
по
##uaries
##rs
##rest
##ram
##rise
##nell
##tip
##tml
##aqu
##van
##vings
##voo
##had
##hus
##hart
##hair
##iens
##loss
##dles
##went
##wur
##wana
##wyn
##wares
##yle
##yne
##cos
##cro
##cans
##camp
##xu
##py
##pay
##pian
##bov
##bane
##bands
##fa
##fok
##fach
##fire
##fee
##foto
##qa
##qx
##kr
##kom
##kins
##gon
##gling
##jans
##mel
##mopan
##zes
##zel
##zial
##zentrum
##81
##600
##ет
##ри
##αρ
thuring
thorn
##erase
##erup
##erabad
##info
##esity
##ontroll
##atar
##atro
##orch
##orated
##orable
##enka
##enhausen
##iton
##aros
##edan
andy
andover
##anse
##alon
inject
inquis
ati
##omen
##eler
##isol
##isborough
##icel
##icem
##iceth
##icating
##otr
##oteca
##enter
##entor
##ilus
##osus
isar
##etur
##etration
##acia
stup
stann
sterne
fors
forcing
ony
onion
##sta
##stick
bequ
beating
beau
##olk
##olib
alo
alch
alum
alente
##ivi
##igley
##igua
##amour
fries
ape
areca
##idas
reial
##irk
##adan
##ulators
hots
hotetur
##terr
##opot
##opur
ange
##ocative
##occup
##essive
asus
##chaft
##abr
##abamba
ort
orion
oranj
chuck
##geb
exor
exiting
exudes
exalted
quarant
sums
##thard
##throw
roi
robo
##ewater
##ewoud
##illia
shy
shc
shab
shorts
shinj
apost
trang
trays
traps
trivial
trunc
##akh
##akos
spans
spree
spaz
spared
spieg
enying
##iese
byblos
##artit
cany
cancha
notifications
##ifts
deed
dean
devel
deple
deaf
debor
##unz
weer
weights
##ovi
##uste
seos
seiz
seash
sejour
##erei
##aport
locating
locarn
unused
aram
arth
arous
arthotel
arisen
offs
plone
planc
plaus
pledge
centra
##ibo
##iboard
##umen
##umau
##ipity
##ipher
nept
neues
neolib
##okallio
compose
compiz
compounding
hey
heap
hebb
##agar
adc
adware
adject
adolf
##aches
##uds
##uder
##ogate
##ogical
##plants
interim
intermitt
intertw
lei
leit
leith
leone
leverage
perp
servizio
amade
amended
guell
resent
resum
accra
accadem
##ikfoto
therefrom
abu
abad
butts
##ansh
imports
imlauer
imbalance
cityview
deserts
desiro
##izan
##client
##clists
boolean
gra
grote
grays
graham
coex
coils
coarse
recalc
restor
bros
brac
brim
brake
brune
outset
##epad
dried
drove
drager
druk
drachen
avon
##asser
timed
timely
disposes
##ulture
bari
barth
##oneys
busch
##ianos
##berries
relay
relied
##ftpd
smite
smelt
restauradores
noir
daytona
##fulness
proftpd
situe
sitemap
aired
provoked
provisional
justly
eurol
overn
overpower
overthrow
peg
scour
scored
##oys
cram
crad
crust
crunch
cranes
crescent
crockery
indig
lazy
prel
pretext
poem
poets
##anga
facets
instal
##ieza
mym
aggression
revise
regain
regulate
1917
1916
ids
strips
strata
minutos
apartement
##ublik
saar
carc
caries
helier
customizing
walkway
flugh
flushing
needles
transient
transcend
firing
##omma
##ommen
parish
parla
paraiso
##encer
##encal
blown
blair
blowing
##grave
starter
staroffice
tegel
appended
loi
loos
modernism
marines
marquis
decom
decept
excip
firstborn
##olla
##ollar
situacion
underline
undergoing
emotic
emigr
emmanuel
delg
delib
##ograf
##phia
edits
consp
consoles
##isek
apples
geny
genetic
##spur
completeness
directs
warri
##rupts
##ancies
##ugs
swipe
soften
numeral
nonline
nonpilot
distrust
##rah
##raw
soups
##onsin
simulated
##issons
##issimo
engaging
belarus
obesity
##obl
handlers
pale
bothered
discard
soles
solna
soltec
skept
caps
herald
herzeg
purim
##elsius
backs
backplane
backbone
trainees
schubert
checkout
301
ordn
elias
detr
deterr
cleanest
cleanup
patokallio
248
151
156
155
152
159
terraced
propon
realizing
206
2011
2012
defam
deficiency
passagen
localities
signifies
sligo
accommodates
versch
earning
termed
differentiation
finishes
estan
estuary
estartit
etym
numbering
installers
holidaymakers
186
cultivating
starters
streetcars
devils
desktops
particle
extraction
extracts
##eka
salty
salinas
##upp
didst
didyma
fullest
multich
##afel
mucho
shortcut
glitter
langdale
frontend
redec
poses
posth
deprec
fium
##onyms
surpass
personalize
##ussa
towering
costing
costum
concorde
opted
packer
erm
erz
caled
donated
donors
donkey
km2
117
lookout
##insky
506
repay
labelled
organizer
165
164
169
decorating
##inale
##emberg
limbs
weekday
destinies
keyboards
keypad
residenza
infect
lightly
doch
176
lettings
morality
morgan
morrow
25th
junctions
junta
##heit
##heiro
##awful
digger
digested
##ricts
universitat
mala
malisa
facto
headland
145
geforce
geopolit
postage
postings
bananas
panama
panelled
affection
affinity
conviction
131
139
harbors
micron
tarrag
##amenti
menu2
novice
incremental
prevails
dias
speedily
ensemble
antica
antigua
antillia
verbs
verifier
verifies
verdi
verlag
verkehr
insulated
toggle
lovran
characterize
eastwards
golfers
lowlands
tablets
taxation
##ije
##iji
domination
domino
hoax
##alex
leftwing
projected
##otex
microphones
successes
successive
##ungchen
##mani
##manager
commonplace
manageable
buda
turist
admits
admiration
##iptic
scrap
millau
fairla
charmingly
##ottage
entertainers
filming
##beg
faults
urdu
##neys
authorize
inspir
##shed
##shan
##shell
##shake
identifier
sender
separator
responsiveness
articulated
articulating
benefited
lunchtime
riches
mandate
errata
238
236
##uitable
voiced
voicem
humanist
humanoid
competitions
mapped
virgo
platja
methodological
derog
derby
##iquette
damasc
cybers
microsd
puff
philadel
moj
moore
silently
bringeth
ambitions
watchmaking
reporters
learners
sonn
alternating
savoy
jewels
sensibility
loses
bonito
6827
romeo
classico
floral
florian
assisting
robin
robinson
monti
##meer
gotten
nightsp
navo
crossf
epist
turkmen
greve
##ogno
thanksgiving
fuzz
##hrer
gentill
garment
activehotels
ego
babies
obtains
276
27th
huone
imminent
museumsufer
armies
armchairs
recognise
continuum
macro
##liari
augmented
libert
semitic
semitism
financially
##ochu
noisey
maintainer
divx
hearth
brighten
325
3200
bloggers
mirador
miracle
##ymph
264
penetration
validated
plugged
burton
scenario
mosaic
originate
temperate
raises
observer
##menmarkt
sporty
hammer
waldh
palatinate
hyderabad
cartoons
virtues
negatively
astec
astounding
satellites
1931
coveted
militant
celebrating
flyers
causal
pdfs
animations
straits
marching
karolina
karemma
1943
cabo
bullets
rubens
ridden
##ascular
##iarity
acquisitions
##aje
jacuzzis
urbanisation
vanity
vicin
visionary
observing
principality
333
fighters
empirical
consultation
haun
shipment
sidi
##iciary
advancement
tranquilidad
battlegroup
appreciation
rua
cycladic
unsuitable
satisfying
austrians
strengthened
dreamed
##aldi
belongings
dominates
preserves
##heads
rhone
rosenk
rosengarten
ultiboard
summits
favorita
candel
marty
1928
1921
1922
restrictive
unlawful
clothed
lengthy
motherland
beareth
gasthof
fifteenth
murano
##pcfg
dragged
dragging
initialize
sweetener
rebound
professionally
ballroom
predictions
predicted
aquarius
ltspcfg
dhclient
##drake
blending
5317
scientif
waiters
640
flavors
declarations
fundamentals
oxide
oxygen
ratios
6537
borland
borbeck
vastly
##ariat
metroc
##ysteme
##enkamm
##enkirchen
attachment
einen
einfach
incorporation
pulling
prostep
##heimer
jehov
mitig
ventures
ventilation
egyptians
injust
brotherhood
emerges
gdi
saron
tribune
conservatives
polylog
polyphonic
eldest
hatte
##holy
ministering
earnest
infrastructures
luca
attendant
attendance
keuk
##rayana
##block
recipients
stuffy
axe
axel
rollups
utilized
utilisation
youthful
solemn
boscolo
ivip
porcel
bells
bellagio
kolob
inherited
inherently
##imento
hofe
rigorous
1907
tiberium
vulgar
zimm
unpacking
boliv
openssl
vitronics
conformance
enchantment
molded
moldova
adoption
bavarians
unusable
eligibility
sufficiently
sequential
committees
multimed
substantive
chipsets
mrs
sprung
unfav
unfurnished
deserted
maritimo
tibetans
scotch
elimination
calibrate
sacrifices
diets
julius
##umbling
pirate
electrode
jacket
penta
struggling
repaired
repairing
podium
vocational
proceeds
planetary
analyzes
vincent
vinci
vinyl
advisory
martinique
habia
udma
tolerated
reinstall
detectors
##brucke
wicker
witnessed
heaters
mathematics
##horst
reichstag
trojan
refreshed
arenas
telecom
accomplice
accomplishment
certificates
dalaran
hypocr
##ytic
myths
mythical
emphasises
emphasizes
cavern
stanley
instructed
disturbance
explaining
migrate
shrubs
cristallo
extracted
dorms
medicinal
bishops
cmt
pearls
occl
rustig
saba
conveyor
harrods
harrogate
yoga
believing
assessed
docking
hackers
nuvi
nuova
chaillot
botanikfoto
kaiserreich
ornaments
manipulating
decreased
decreases
discipline
ahmed
horser
##downe
crafting
heroism
canyoning
engagement
engagements
aleks
aleph
mooring
relying
chambres
coupon
prolif
descending
brahe
brahms
1889
faqs
tanto
quartets
shelter
sheltered
disputed
revolt
puzzles
collaborative
##recovery
intersections
petrochem
todos
##abeau
reminders
pilgrim
bombings
ascension
enlightened
counselors
swapfile
ebuild
ecliptic
soda
sodermalm
harmoniously
consolidate
rectification
voting
bruno
benches
burgos
gustado
ponder
ribbons
tobog
prospective
gratuit
devfsd
cantonese
hansi
puma
##html
##mersdorf
perceive
flatscreen
maltese
virginia
dormir
rabbi
choral
helicopters
undertake
confronted
twisted
cosmetics
daemons
sloan
whosoever
unmist
overwritten
intensely
intensified
cubic
nervous
deported
adversary
sensitively
##ddorp
prussians
abolished
snorkel
embodies
zeitung
diplomacy
diplomats
bureauc
fordism
perceptions
subdivid
intends
glaciers
annoyed
sixtieth
subscribed
hierarchy
gyor
hinterland
uncheck
interconnected
contradict
digestible
johannesburg
bhutto
hahnenkamm
tornabu
repetitive
lavishly
ornamentals
sutton
##ень
phurbas
incarnation
incarnations
positively
constrained
constructs
tariffs
motorbikes
weaknesses
reyes
limpieza
empowered
allegedly
bundesrep
bachel
citea
hannover
mamma
##cussions
orphans
spreadsheet
anthropology
luisa
norte
pudding
soller
vermeer
ameritania
brasil
brasov
incidentally
hydrotherapy
hibern
ostrich
tackle
uvala
rewrite
quirky
trilogy
weighing
timbered
buchan
obedient
surrender
homeopathic
coventry
implicitly
jealousy
##dogs
frustrating
orbital
restructured
equatorial
presumed
defragmentation
imprisonment
rapporto
escalation
dalmatian
gorda
nautical
numerical
monasticism
entrepreneur
fingers
hafez
josiah
krajina
theresien
alignment
repertoire
repercussions
neustift
eurocottage
precariousness
inconvenient
umbrella
umbrellas
hessischer
tz3
##builder
sharks
newcomer
evacuation
monarchy
audialsone
prophesied
aktiv
pamphili
scholarly
hackescher
venezuelan
thumbnails
asterisk
poultry
vajrayana
atencion
wholesale
adverts
indefinitely
blossoms
cleansing
skyscr
encircled
fairgrounds
veloqx
unbelievable
hiram
kansai
lakeland
chloride
gondola
feasible
faculty
intriguing
sweaters
picardie
piazzale
alleviate
crystalline
folklore
enquiries
mcdonalds
rj50
vittorio
##rassil
chevron
chatsworth
locomot
arnold
pertinent
disagre
bretagne
ecosystems
geomagic
synagogue
gendarmenmarkt
cappuccino
foolish
jellyfish
roxburgh
weiß
desperately
parentheses
infrequent
ambasci
giardini
pneumatic
gedacht
lxde
nauru
nelson
wachau
yashas
thierry
##eseeable
spaniards
##unciation
abyss
goyim
goblin
griffon
brisbane
cracow
agradable
vengeance
cylinder
batllo
meloneras
unconditional
rhineland
hygienic
vladimir
amphitheatre
mihajlo
esmeraldas
bologna
cagliari
ikea
kawasaki
nashville
pengu
siofok
tomsk
aladdin
trastevere
heineken
leicester
guillaime
##irectional
restuarant
brittany
undesirable
antwerp
hoofddorp
derbyshire
molecular
catamaran
ossiach
asturias
arabellapark
racecourse
cotswolds
bolshev
seventeen
khyungchen
stranglethorn
maltodextrin
censorship
scheveningen
diocletian
encyclopedia
aalsmeer
dzogchen
ihsan
kafka
serendipity
tandem
urugu
uefa
wisconsin
alentejo
oranjewoud
shinjuku
spiegel
locarno
neoliberal
hebben
accademia
coexist
brunei
flughafen
warriors
nonlinear
herzegovina
deprecated
tarragona
fairlawns
voicemail
damascus
philadelphia
jehovah
porcelain
tornabuoni
bundesrepublik
1m
3pm
515
aon
aub
aire
ains
a10
aura
aachen
bv
bts
bia
bake
bally
biss
bona
baud
bdr
cuc
cute
cena
citr
celt
cenet
creeks
celsius
dn
dk
dare
dives
dna
durban
eq
eis
eil
eruption
fn
fou
fod
fie
fanc
foe
fopen
fuste
gell
gently
gau
gott
glend
gomp
gathers
gstream
gotti
gissons
hq
hig
hoc
hald
hdr
hopp
hailing
hedge
ict
iatr
jc
jj
jel
jaur
joker
jagu
jimm
juke
jusk
jubile
ked
kand
kok
kaff
kral
kup
kins
kung
karm
kalm
koff
keno
kerman
kagy
kobl
lh
lid
lour
lace
lans
lue
leth
lows
lique
lately
lament
lij
luna
lyn
lomb
lpp
mec
mies
mio
mons
mason
mugg
mama
mck
m20
mews
mismo
mermaid
moneys
nab
nak
nile
nike
nails
nmea
otop
p2
pave
pines
paving
paus
puna
pma
pitting
paca
ppp
pfle
piste
q1
rol
rach
rais
ruth
sj
sst
sine
scept
siles
sella
serra
tt
tx
ted
tate
tide
tann
tij
tamar
tetr
uy
uc
ume
vort
vish
vins
vault
vita
vaux
vagu
wren
waking
wires
wiring
wisely
wemble
wacker
ys
yd
yb
yorum
zel
zuff
zwan
##uß
##uil
##uation
##uably
##uve
##uana
##rog
##rance
##rimo
##eh
##eux
##evelop
##eze
##nom
##nice
##node
##niest
##nica
##nasse
##news
##tps
##aics
##hp
##hin
##hos
##hav
##hang
##halb
##iu
##sed
##sels
##oly
##oia
##oire
##long
##lane
##lime
##lift
##lung
##liest
##div
##dling
##wi
##will
##wart
##wend
##wiki
##yen
##city
##court
##xml
##xrf
##pell
##pful
##pays
##bes
##bak
##bich
##bath
##bier
##found
##fry
##felt
##kas
##kers
##kenny
##gg
##gis
##genc
##gold
##gior
##jas
##jab
##jong
##jny
##mast
##mione
##mola
##misch
##mila
##zt
##zale
##zicht
##zuela
##88
##836
##49
##4all
##2all
##ør
##900
##ан
##ор
##νο
##ατι
##ка
##ко
##ин
##εν
thom
theology
##erer
##inqu
##inner
##nde
##nden
##oner
##onik
##ongh
##onquin
##atile
##atry
##orail
##orget
##enj
##enst
##enik
##enary
##enium
##itech
##itives
##aron
##arion
##arral
##arma
##arlberg
##edged
anders
##alas
##alte
##aliation
inline
inability
oft
##rei
##rey
##ream
##ingate
##omst
##ompan
##omaggio
toe
toch
tofd
##elin
##isin
##isable
##isches
##isofs
##icus
##otun
##entum
##osity
##osures
##etes
##eties
##etera
##etbeg
##acom
##ecimal
stink
stables
stacks
forfe
##stil
##stood
prakriti
##uti
##uter
##olian
##olute
alam
alms
alvar
withstand
##ersonal
##ersperg
whitel
frat
fright
friction
fringe
apia
apology
##idos
reind
reuse
reuss
reyn
##iry
##irth
##adol
##adina
##adecimal
##ulo
##ulan
##ulance
##odern
##term
##ople
##opaxi
anos
anarch
##ocell
##ocup
##essional
conak
asv
asic
ascent
ascer
##chetta
##chlag
##aben
##about
##abais
chant
chun
chast
chine
chub
chase
chee
charters
chests
chatham
##imos
##imilar
##imania
##immar
quo
quit
quasi
##ceau
##ceivable
##user
##avers
suz
suck
##emn
##emia
##ematic
##emunde
##illant
##illabais
shin
shep
shred
sheph
shochu
tran
trod
trier
troph
##isting
##istas
##akuk
sp2
spider
enl
encap
enforcing
##arti
##artes
allen
allah
all2all
roommate
cana
noting
notepad
##ifuna
deux
deze
dehum
##uning
##unos
##unft
weary
weaken
##quared
##quendo
##queros
##ovdiv
##astical
##astudio
##ardi
sein
seoul
##ellas
washer
##apu
##apay
##apper
##icher
##ichino
unreg
unbi
ars
arias
armani
##ervo
offen
pls
plsp
plaz
plovdiv
##iba
##iband
acron
##uma
##trip
##track
neot
neusch
clergy
compart
compelling
heb
worm
##agascar
##isht
##iale
adi
adua
adlink
##achar
##achil
##udia
##udrach
##ureth
##oga
##ogany
lein
leop
levi
perd
perme
peripher
ame
amabil
oppress
opacity
manj
reson
accol
##ounced
upps
upwards
sond
sober
soaking
soaps
abras
goo
newquay
newberlin
imam
imitation
##izo
##izacion
stayat
boiling
##ernik
grower
griev
graded
##areggio
cohes
recreat
recalled
recht
rechar
brl
brave
brno
outcomes
##igny
##ongwe
ministries
afro
afield
drom
drained
drills
dispose
disrupt
dislike
buys
bucher
barbe
barchetta
##ermann
expats
##ordial
##ianez
##berts
##berge
partenkirchen
relational
mostar
charms
charentes
aftert
smugg
smtp
pha
phan
##ferent
comme
commer
proff
sited
airporthotel
undo
undiscovered
provencal
eurow
overload
overtaking
peel
peas
peers
peine
scent
scots
scared
cries
crio
crank
laus
lahore
superg
suppressed
evergl
precl
preoccup
subways
sublime
distanced
poble
freezer
##pres
##pring
##prop
mayan
myfree
##uco
##ucar
revamped
regr
regente
191
breakthrough
strada
##ethyl
coldf
collar
apartaments
personas
sausal
sahara
cari
carav
speck
##owsky
##tainment
walker
workforce
goodies
informs
flown
flux
transvers
elearning
hisp
##ampomaggio
parma
paragon
##urry
accesses
greatness
##encarral
blight
blau
##week
##weaver
##grasp
##grimmar
starring
starlight
starck
00h
teide
teguise
olde
thrall
loosing
loquendo
becker
moderno
marl
baska
downward
hadden
shopper
deciding
declining
deconst
excer
10km
formative
undertaking
underwent
emig
emanc
emma
empress
deline
plea
designate
edific
edmund
idej
##iendo
vallet
##leside
##eye
genk
genesis
larco
##onti
warren
warring
auton
ampie
##ancia
911
selects
seldom
swar
swab
softened
stationed
##azd
##azer
webpages
bests
##tionary
placebo
serio
hearted
##ologia
standest
corv
corona
coroz
distrito
maas
maeva
maingate
##ypso
styrian
runner
presiding
presidents
prescribed
arrests
simil
##issa
##issippo
viewpoints
generals
##erienced
belmopan
specializing
evans
evidently
objection
##obi
##obello
connot
westf
handb
palletizing
longing
longitude
longyear
eccles
centralized
monorail
confisc
confounded
solic
mediter
invad
invari
##elsen
incap
##ception
backports
backyard
30s
303
elf
elis
elche
deterior
choir
easyjet
157
terrasse
enduring
proposing
##ysl
realities
realising
##lessness
20min
20xx
defective
localised
signify
slap
refusing
portobello
##inkel
##inkirch
luxur
cardi
nett
douche
wrangler
knowest
attractively
181
182
1815
1871
1876
1867
pop3
populous
##akesoft
retaliation
caspian
famously
perfumes
maja
majesty
devised
photogram
curricul
##eken
natively
salg
saldan
salerno
##update
protopur
demos
singer
dinning
landown
landhotel
landlord
##ilties
multir
multibr
##anny
##annel
shortened
glou
glash
welding
frontier
redund
testers
testifies
waterhead
posix
topdesk
bookable
imprint
archiver
archangel
statically
statutes
severity
##asonable
atmos
leveling
personalities
winnings
farn
farsi
costume
concili
packets
erbil
computational
##tones
spawn
caloust
atmospheres
doner
bedroomed
behulp
etcetera
##entionally
##anean
traditionalists
1124
balt
balm
balances
telek
organism
163
162
developmental
stephens
limburger
expresses
magda
maghs
sunni
sunken
sunrise
descript
envir
popularly
infants
##eval
espoo
awacs
mido
morph
morgen
historico
2533
satel
occidental
occurrence
##heets
mountaine
latina
latino
##acyjny
sangha
sanitary
##linger
universidad
mali
malas
malice
malfunction
##appings
fourteen
factual
##bring
##brada
beggars
cheeses
headphones
viel
geomet
##pson
panic
camc
camden
caste
castings
pcre
grandval
floorlamp
134
1300
tasted
campbell
humour
humming
keeper
logitech
legoland
prevailing
licences
antic
antich
antip
antico
antagon
verified
insists
considerate
addressbook
electoral
madr
madril
madagascar
##ijah
lounging
domest
domine
domnode
hoe
hofer
