[S]
[PAD]
[/S]
[UNK]
[MASK]
[SEP]
[CLS]
!
#
$
%
&
(
)
+
,
-
.
/
0
1
2
3
4
5
6
7
8
9
:
;
=
?
\
^
a
b
c
d
e
f
g
h
i
j
k
l
m
n
o
p
q
r
s
t
u
v
w
x
y
z
{
}
~
¡
¢
£
¤
¥
§
¨
©
ª
«
¬
®
°
±
²
³
´
µ
¶
·
¸
¹
º
»
¼
½
¾
¿
×
ß
æ
ð
ø
þ
đ
ı
ł
œ
ɑ
ə
ʀ
ʊ
ʒ
ʰ
ʲ
ʿ
ˈ
ː
˛
˝
΄
α
β
γ
δ
ε
η
θ
ι
κ
λ
μ
ν
ο
π
ρ
ς
σ
τ
υ
φ
χ
ω
а
б
в
г
д
е
ж
з
и
к
л
м
н
о
п
р
с
т
у
ф
х
ц
ч
ш
щ
ъ
ы
ь
э
ю
я
і
ו
י
ל
ם
ר
ש
ء
ا
ب
ة
ت
ج
ح
خ
د
ذ
ر
س
ش
ص
ض
ع
غ
ق
ك
ل
م
ن
و
ي
ก
ง
ช
ด
ต
ท
ป
พ
ม
ย
ร
ห
อ
ฯ
า
฿
เ
ใ
‑
–
—
‘
’
‚
“
”
„
†
•
…
‰
′
″
€
™
↑
→
−
∞
◈
♣
♫
。
う
お
そ
と
は
ふ
ら
り
ん
イ
カ
ス
テ
ホ
メ
ユ
ラ
ル
レ
ン
ー
一
上
下
不
个
中
为
丼
乎
乐
了
互
五
些
人
从
以
仪
价
伎
休
会
住
体
佗
倍
储
儀
元
光
全
公
内
円
决
况
几
则
刚
别
到
前
功
动
動
包
区
區
南
博
及
发
受
口
可
司
名
听
告
员
和
員
售
國
在
坊
壳
外
大
天
央
夹
套
委
媛
子
存
安
定
客
宣
容
宿
寿
将
小
就
居
屏
属
巧
市
布
席
常
幹
庁
底
座
康
式
当
役
彻
御
德
思
性
情
意
愛
戶
户
所
打
报
括
持
指
掉
控
提
握
搅
操
支
收
整
文
料
新
方
旅
日
时
星
是
显
普
景
暂
暫
曝
更
最
會
有
本
机
材
村
查
次
款
歌
正
此
毁
比
民
气
没
流
济
深
溥
灰
爱
片
率
用
町
畿
疑
的
益
相
砂
磨
示
社
祝
种
积
称
移
站
竞
納
統
線
约
纽
经
统
网
罗
羅
美
而
耳
联
背
能
舞
航
色
苑
西
覺
视
觉
解
言
證
计
设
证
识
该
语
调
谷
豆
质
赵
越
趙
軍
转
较
近
这
迷
选
遭
都
配
采
量
金
銀
钢
银
锈
键
関
问
际
面
革
音
预
题
颜
食
館
駅
麺
，
：
##a
##r
##o
##t
##u
##l
##w
##e
##f
##s
##n
##m
##p
##8
##4
##5
##i
##g
##h
##k
##d
##y
##z
##c
##v
##ß
##b
##0
##j
##1
##x
##2
##q
##ı
##9
##6
##7
##3
##о
##м
##е
##р
##а
##đ
##α
##ρ
##ə
##ˈ
##ɑ
##ː
##ʀ
##и
##т
##н
##з
##ж
##с
##ь
##ο
##σ
##ω
##π
##ι
##κ
##л
##я
##д
##в
##б
##ы
##γ
##η
##τ
##ø
##ا
##ر
##ع
##к
##ð
##х
##υ
##μ
##ε
##φ
##δ
##æ
##ل
##ذ
##ن
##ي
##ł
##は
##œ
##г
##у
##º
##ν
##ς
##ة
##ц
##ר
##ו
##ש
##ל
##י
##ם
##λ
##ب
##د
##غ
##ت
##م
##ش
##ق
##ъ
##п
##ج
##ك
##ʿ
##β
##ต
##อ
##ง
##س
##э
##і
##ー
##ス
##ホ
##テ
##ル
##メ
##ン
##θ
##µ
##ร
##เ
##ท
##พ
##ฯ
##ч
##ш
##χ
##ф
##ю
##و
##ح
##ช
##ย
##ใ
##ห
##ม
##ª
##ض
##ء
##ʲ
##ʒ
##ʊ
##ʰ
##า
##ด
##ป
##ら
##خ
##と
##ん
##レ
##ラ
##イ
##ص
##щ
##en
##er
##ch
##ie
##in
##nd
##te
##ei
##es
##on
##st
##ng
die
##ur
und
at
##ich
##ar
ein
##as
##an
##ten
##al
der
in
##or
##it
##ung
au
##at
##el
##sch
##em
##ig
##hr
##ll
##et
zu
##au
das
##ter
##den
sie
ver
##om
##ier
##lich
von
##ion
##ach
##ro
mit
st
##ber
er
##der
##ir
##ein
ho
##is
##ag
##tel
##isch
auf
den
##and
an
##ck
##am
##eg
im
##de
##ot
ist
un
##ent
##se
##eit
##il
##eb
##ol
##icht
fur
##ut
be
##im
##ah
hotel
##nt
##ru
aus
##ind
##rei
sch
##ad
so
##nen
des
##re
##kt
##af
sich
##os
##us
##mer
##eh
##un
##ab
al
##ug
eine
##sen
wir
##ungen
##le
##est
wer
uber
dem
qu
##ing
##ste
##ser
##ation
##end
##he
##ahr
##ang
es
kon
sp
##und
ihr
##ann
pro
all
nicht
um
mo
##ien
ent
##iv
##men
##eich
##tet
##ff
quot
##ischen
##sp
oder
##ort
##ehr
nach
##igen
werden
##immer
##sten
and
sind
##len
##ic
##ik
ge
##uch
##esch
als
bei
da
##ers
am
auch
##ern
##ra
the
##hal
vor
##ul
##00
##op
##ed
unter
##ert
##zen
wie
de
zimmer
##ant
wird
ab
sein
##age
##adt
##wei
##um
her
##ne
einen
##ft
einem
ap
bes
##all
ber
##ige
zur
##gen
##ick
##iert
##eben
##ist
re
wen
##oh
kom
##ungs
##egen
##eiten
##ge
##ben
dies
man
##ess
war
##iel
##och
nur
ne
##urch
##ell
##ische
##ze
einer
fr
##oll
##art
##fer
##ver
##aft
##etz
ar
##pl
##lichen
##ark
zum
wur
##be
to
##for
##utz
kl
##pt
##ib
##og
gro
##ahl
ang
lie
durch
hat
konnen
##chen
##ieren
was
bie
##tern
##aus
ste
##hen
pr
##gt
##auf
hab
wei
##rau
verf
##bar
alle
stadt
unser
##ehen
##ate
fl
##stell
##ri
##elt
diese
##ere
dass
##uck
groß
##ok
wenn
##ast
gesch
bis
##liche
gen
vom
##atz
kann
##ho
pl
ges
ex
##uhr
com
jahr
##aten
##agen
200
ser
sehr
ih
neu
bef
ch
##are
verfug
##uh
for
##ill
wurde
su
##ay
##bl
ich
##me
bl
##cht
##ice
bietet
##erson
##tes
##ekt
##acht
##ak
sow
##ass
haben
##pf
gel
or
ro
##aur
person
##ia
eur
nah
tr
##keit
##ank
##rum
off
gl
##che
et
##ale
rest
##rie
##eine
mehr
apos
##ce
##her
mus
##inden
##ner
dar
##form
##halt
lo
##aurant
geb
##indet
##ap
hier
##qu
ben
##zu
##alt
intern
##ßen
aber
ihre
vie
##gr
dieses
bar
##wer
##unden
##aste
##nis
zw
ger
##schl
##fen
##uten
liegt
##du
restaurant
th
te
je
##geb
##ard
##wert
sehen
##eren
##ht
##ges
##assen
##anz
##entrum
entfer
##ow
##schaft
##iz
fre
se
##ktion
hin
tag
reg
sowie
of
min
##vice
entfernt
##wend
##ibt
##heit
##fol
##ite
fru
nahe
ma
##sam
##ger
ihnen
schon
mar
##rit
19
str
gaste
##arten
##alen
du
##ack
co
##keiten
verb
##ett
bo
soll
##gang
gew
gibt
##eist
##eil
##ahn
geh
dieser
ko
aut
zeit
##ute
weiter
##yste
##kl
ubern
##ive
dir
is
em
##net
befindet
##ment
##schen
##teil
##sel
##stand
00
##fl
##rund
##ationen
##arb
##io
moder
##imm
gegen
noch
gem
el
##schie
##ehmen
##chten
##pp
##att
##los
##fahr
##zimmer
##ine
hotels
##ph
##id
park
##itat
##kom
##ater
lage
##fort
gr
##achten
##ult
land
##ohn
inform
##amm
mog
##ez
##per
welt
##if
##ierung
bet
##fuhr
##ob
##entr
best
##ition
##ac
##eite
##stuck
##inder
##zeit
##tell
zwei
hand
##od
uns
##arte
hau
##mit
fruh
##ken
daten
##ild
la
##ial
einz
##reis
##ond
ausg
##halten
ihrer
##ub
moglich
##haf
##fe
zwischen
eines
##iger
##av
##dem
##wertungen
##zug
beg
finden
##ov
men
deut
vers
##etzt
##atur
##ierte
##bewertungen
##ss
##einen
##richt
gastebewertungen
##tr
wahr
12
##oren
entw
##cken
ind
##ster
##ellen
br
10
fahr
fun
##ord
##uss
##ler
##reichen
##lie
##folg
con
wel
##ahlen
##ware
lu
mochten
##achen
jed
##lau
fruhstuck
teil
sel
bed
room
##vor
on
##reib
##mal
##land
##stadt
##uß
viel
it
##elle
stand
web
##chn
##ud
ob
inst
per
buch
##unst
flug
dam
uhr
entsp
erw
hoch
##sb
le
##zeich
##pr
wor
ur
##cher
kosten
##eln
ad
bel
einf
empf
po
bus
##ct
me
europ
he
rei
cl
akt
lin
##aden
##reise
etw
ihren
zahl
##ust
##voll
##az
##kte
##igkeit
sicher
##satz
voll
##angen
sh
kur
inter
##uber
res
ph
##ystem
##ichte
seine
schn
entwick
##ade
gut
##ache
herr
##schieden
ide
produ
besch
dann
##ies
eigen
##reich
##asse
##ens
haupt
immer
daß
##ly
direkt
##off
apart
##ohl
##ßer
verw
keine
##ma
bit
priv
##enden
##ip
unsere
par
anderen
##ption
##aum
##ftware
offent
##zentrum
service
##bst
##fr
##ational
mon
schl
viele
##co
verschieden
##ity
en
internet
pol
amp
##hof
met
##use
wann
verk
not
strand
##kommen
##utzen
komfort
verfugung
kinder
##sw
bereich
##zeug
##amil
außer
wieder
##nehmen
gleich
eng
wo
nutz
##min
sol
##ruck
##estat
mein
arb
lang
nachfolg
##ierten
ubernachten
nachfolgend
wurden
gelegen
##ign
zentr
funktion
##enz
eben
##alls
##ith
progr
son
software
stell
zentrum
##so
##ischer
##lin
##kun
benutz
##reibung
##mog
famil
##ations
geschaft
##ießen
##sche
##uchen
we
##ax
europa
##egeben
diesem
minuten
ruh
##lung
##uer
##weise
##laub
denn
##raum
damit
##iell
grund
bahn
##gesch
freund
hei
##str
stehen
##ans
##aut
selbst
##ore
flughaf
##eits
herzen
informationen
apartment
##ide
bieten
##zahl
##ose
15
bas
##halb
einfach
spez
kont
##spiel
bek
angeb
neue
preis
##ull
##iet
30
##igt
##olog
ter
frei
art
schw
zusam
fer
seit
pal
sk
18
oh
20
aller
spiel
##uche
waren
nam
zusammen
##pro
with
##isten
##ionen
seite
##our
##unter
##gel
haus
kam
##mittel
webs
verfugt
##forder
##hand
##yp
wahrend
##onen
recht
ausgestat
##under
##sicht
##igung
andere
fuhr
form
##essen
##able
##lichkeiten
##chte
##istor
mal
##po
##wahl
##ef
verl
nie
##ingen
natur
##ian
erreichen
anwend
##werk
ster
date
komm
ohne
besond
very
blick
##ultur
##igkeiten
beste
24
wicht
leben
##licher
##lage
techn
got
##itz
histor
spr
##kauf
##kon
##rank
##plat
ganz
alt
flughafen
fest
ren
us
serv
##ander
jahren
bitte
stra
allen
##alten
##blem
end
genießen
##ys
ausge
##riff
go
sau
##pu
fol
##annt
lux
ihrem
ferien
rom
system
menschen
##indung
tour
km
##kunft
##ail
##esse
2009
schnell
##gl
##ings
##akt
seiner
kompl
welche
##fre
fuß
gu
bew
beim
einige
konn
##ße
##platz
##alitat
unterst
##one
##opp
##bet
gol
som
dis
##inn
get
hil
##stellen
nor
will
kein
sond
##nah
alles
91
do
einkauf
wind
erst
gar
großen
restaurants
tro
##wohn
standard
platz
lassen
klein
install
hel
##tem
##asch
##olk
##ain
problem
##ement
neben
##bereich
erh
93
seinen
gru
##esen
ant
##urd
##licht
trad
up
ort
etwas
##port
ins
geschafts
bild
##urg
komp
##istr
##lichkeit
stil
##raucher
##gebung
##ieb
##ness
eleg
mod
dr
##ucht
autom
##lo
erhalten
##tellt
sterne
char
kre
##unkt
programm
tur
tradition
##mos
##aff
offentlichen
##mus
124
##iertel
stunden
mussen
##neh
##besch
jeder
##eld
##ows
##zw
meer
benot
personen
##pen
##iges
##aften
national
kultur
ander
neuen
sollte
##iss
hatte
##haus
##issen
jedoch
dien
##afe
##dr
nichtraucher
##karte
##ante
umf
ac
##gar
##bo
##asst
##iven
##ichten
garten
wes
wunder
verwend
##agt
bede
##spr
air
große
kr
book
##eig
richt
##mosph
dort
nun
zug
##ou
##oten
##ette
##rechen
los
ni
prof
##service
zahlen
##stellung
inn
internation
##enter
##alis
lei
mir
kor
klim
as
##unde
##kten
##aren
muss
einger
gan
##els
di
atmosph
##ock
benutzer
can
med
##ches
kunst
machen
new
rel
erl
##eicht
beispiel
eig
##ßt
stadtzentrum
wohn
##dit
##swurd
star
##xt
##nung
##ech
##itt
##ven
gef
##ium
mob
unserer
sehenswurd
wh
sy
gest
gute
##eigen
##eter
##ight
loc
bad
##ichtet
##amt
mittel
reze
##ingt
zuruck
ubernacht
aktu
##richtungen
drei
insel
##beschreibung
macht
innen
diesen
beruh
einzel
##anst
aufent
##ote
mark
umgebung
sehenswurdigkeiten
bestimm
##hang
port
##aude
50
##undert
##uff
##line
proz
del
weitere
sondern
nacht
org
##annen
zimmerbeschreibung
spie
version
ung
##laden
##ald
ausgestattet
leist
aufg
dazu
region
moderne
weg
##date
ersten
komplett
mich
##ile
steht
musik
##stehen
rezeption
##amp
##blick
atmosphare
hal
verkehr
feh
kuche
vielen
##iten
wenige
##lan
##abe
##utzt
fir
##bahn
euch
wasser
##gleich
denen
booking
16
polit
100
##falls
##pool
beh
##ktur
##reiche
##geben
##ritt
gemein
##ont
abend
sud
##etzen
heute
##itaten
##arbei
fot
tel
##vel
auswahl
renov
tre
woch
##rasse
##man
##flug
##ragen
##zie
##orn
design
windows
##ix
##reisen
sta
sei
##ient
##frei
25
##nisse
21
##tra
##ue
habe
jahre
##tag
##ks
aufenthalt
##fern
##eigt
pra
beruhm
muse
##enen
##aler
bau
11
##br
##innen
##anis
##dent
##isches
##ace
also
modern
##druck
hervor
belieb
sc
familien
17
##icken
##own
doch
##eisten
##aben
woll
##ux
##dern
##platze
##rat
##na
##ure
auto
##hotel
##je
##liches
kurz
fe
##uen
##ferenz
tat
stre
reich
tra
anb
arch
engl
##cel
jahrh
vert
are
bre
dab
kos
personal
##rieben
altstadt
nutzen
##up
##erv
ir
##anten
unternehmen
tv
##wort
##lex
bereits
dabei
##achsen
kunden
befinden
no
li
##glie
##hn
werk
etwa
apartments
##ina
##ec
##ysteme
frank
geg
##pack
##burg
veranst
kommen
##schland
ru
##sk
##jekt
urlaub
empfang
##rag
automat
14
##aufen
aktiv
nord
##urt
city
letz
##ager
besten
##gestellt
##iste
preise
ubernachtung
##ckt
well
##allen
verein
staff
##ohnen
san
##ios
##uld
besuch
besonders
wichtig
##ase
erfahr
gener
##arbeit
alter
deutschland
verschiedene
konnte
west
##schaften
geben
##stra
##auen
online
##weit
volk
##gem
##sta
zusatz
pu
##hau
##artet
##alien
##abel
##ogen
##ca
##anlage
stark
inner
herunter
ag
fall
##emen
##roll
ed
netz
part
server
span
compu
##fs
wirk
allem
ca
##orgen
stud
website
##uffet
chr
etc
modernen
luxur
##core
##alter
##oom
##weg
##fast
##ona
stat
erf
##eid
benotigen
##ons
gebaude
historischen
bil
meisten
sowohl
jahrhundert
##ommen
gesam
entspannen
pc
rund
##klus
folgen
unseren
gast
##iff
dopp
kan
wlan
##setz
##cl
from
ihm
##schlie
##esten
ermog
##ikan
typ
##entlich
einkaufs
##rieb
taglich
mail
##ppen
##annten
bequ
paten
##ise
##ession
break
13
jeden
moglichkeit
bal
##illa
##rieg
bahnhof
erste
##maß
##ect
spa
##ivers
sw
unders
##ismus
play
ferienwohn
underscore
gemut
buchung
gegenuber
##org
unterschie
mitglie
##minuten
klima
##ld
##vent
gunst
jetzt
##utt
##ktionen
gott
inte
computer
che
##schein
konferenz
app
eigenen
kredit
sal
zudem
##ruf
wert
##nam
wissen
##fuhrt
##trag
anwendungen
veranstalt
##ron
##lei
##ieten
sport
sicherheit
zentral
doppel
##kehr
##ino
zugang
##ppe
bzw
##ffen
super
außerdem
namen
##ennen
cas
##egt
weit
##ugen
ideal
ebenfalls
##weis
weil
vide
##ais
kn
sauber
fin
##bild
you
verm
##tschaft
##fig
##uhl
##ande
liegen
commer
daruber
ziel
##statt
##ritte
##bau
##spru
schlaf
40
##inen
angegeben
bro
##leist
verstehen
statt
##rid
##ake
##ink
were
this
kop
hinter
verschiedenen
bequem
car
##asten
##lossen
##uste
##wor
angen
technolog
##ivi
bru
fil
fern
##esser
lond
reserv
serviert
##betten
integr
dig
mess
einmal
##nehm
verkehrs
##ator
organis
privaten
qualitat
zustell
##preis
##iend
einzig
good
tun
zimmern
paris
breakfast
seiten
stad
##baren
2008
verwenden
bekannt
##ren
speich
000
mad
##ee
siehe
univers
bereit
sm
barcel
jedes
verwendet
##als
kleinen
ihn
ak
ja
dav
gre
meine
rad
##air
##ance
##ierungs
erwei
##cke
##ave
patent
var
hol
parkplatze
##ividu
##auer
zeich
##iver
markt
golf
##orf
verfugen
speziell
club
unterschied
digit
wahlen
##vie
##bin
individu
##alk
sogar
terrasse
disk
kostet
entwicklung
innerhalb
##zung
vergleich
kleine
##schließ
oft
opt
##lagen
offen
leistungs
vis
blei
sollten
stellen
dienst
##iness
arbeit
dah
##anc
spei
berlin
zahlreiche
##efon
fast
##ierungen
bereiche
ende
kir
##afte
italien
jun
amb
glau
regel
tau
pass
##ange
##annte
wundersch
##hei
##bett
anz
zie
##fin
##bed
##ane
##ellschaft
##int
##rucken
199
pos
deren
update
22
wohl
erk
##andert
##ated
reise
friend
##freund
##rech
alte
anal
##raume
wollen
besser
business
fehler
##mo
##figur
sommer
sant
tage
##viertel
erforder
that
straßen
##affen
##ilit
##iente
##moglichkeiten
##ha
##schluss
##ustrie
ihres
darauf
einzigart
##inter
international
##press
amer
dein
down
##spro
seinem
deutschen
##iden
##halte
hinaus
erwartet
fort
fax
pa
lok
net
##ites
kreditkarte
##eiden
##reten
gehminuten
##fang
jede
besuchen
location
##weil
heraus
##ath
##schn
zul
raum
##center
##verb
produkt
##mb
london
aufzug
fit
##unt
bade
ausflug
entde
##ops
rooms
pool
##ingungen
pras
schonen
vier
##mack
verfugbar
worden
brau
ober
##ash
##ative
klicken
dateien
ruck
test
hohe
##ime
##arbeiter
##sl
geoff
herz
private
##heiten
##zeichnet
kostenfrei
##nahme
ele
findet
tem
##dings
sep
erfolg
##ummer
2007
besteht
internationalen
##stellungen
cent
distr
gehen
heil
mag
##nete
##gew
angebot
datei
daf
keinen
##falt
##ugel
##erne
fragen
erwachsen
vorhand
interess
##view
lab
rein
spezial
mehrere
produkte
friendly
##iqu
##ument
genau
##afen
gepack
suite
kommt
dafur
##park
##unge
dur
##hin
##ada
hatten
##komm
linux
geist
##reiben
##ussel
php
wohnen
allerdings
museum
far
##punkt
##ativ
nieder
eingerichtet
##des
attra
##atis
street
dank
entsch
ange
bur
##com
beein
euro
##ifiz
##uble
falls
##ey
##preise
unserem
wellness
##bare
gerade
wun
geht
kar
##recht
abs
darum
bars
erweiter
##tete
##oss
##stattung
daher
av
asp
cle
mult
##inz
##ilt
jap
##get
##fahrt
vollstand
lebens
davon
fitness
23
##fte
##igh
jeweil
marz
ruhigen
##icro
geschichte
##uz
station
fen
gegeben
option
##gend
erhalt
konz
juni
verbindung
unver
##sehen
franz
lizen
##xi
##alle
##berg
see
beruhmten
mot
out
##way
##erung
##iere
##bahnhof
but
nichtraucherzimmer
##schutz
spielen
angegebenen
optim
mann
##richtung
ganze
mobil
micro
viertel
##erst
##ana
mer
##vers
##urs
alten
##ika
##iken
kommun
leicht
##zonen
hilfe
ermoglicht
dom
##bt
##ende
##stru
weise
double
##auft
erfol
##ents
beschreibung
ganzen
##tz
##mar
##aß
veroff
geschmack
verbesser
##geh
nichts
unterkunft
comp
cont
nutzbar
##hol
##ces
bevor
gros
metro
letzten
##yse
text
##volle
archite
ero
fo
##ution
lange
krieg
nehmen
rau
##racht
##to
##igten
aussicht
by
cd
high
later
sign
kostenlos
##tember
##ooms
fac
open
##ider
konfigur
downlo
eff
liste
ambiente
wik
##lauf
##vis
##ief
##ular
##eller
weniger
indem
japan
ti
##fahren
stellt
netzwerk
dan
wahl
##sport
anges
##vollen
det
berg
geld
geoffnet
leb
mand
##ai
##ften
essen
barcelona
wegen
##station
##arm
projekt
fahrt
zentrale
##lungen
##masch
fruhstucksb
christ
ht
roll
sl
##wech
##itu
internationale
zustellbetten
bank
meist
tw
mitarbeiter
##rift
klimaanlage
cor
##fall
stunde
wirtschaft
##aterial
##th
anzahl
annehm
ebenso
mill
##gor
beiden
geraum
franzos
bund
mun
##spie
fahren
one
##lt
##gehen
comfort
jedem
nichtraucherzonen
##reg
plat
free
##arbeiten
zahlreichen
kat
##riv
##les
sicherung
##soft
herunterladen
have
kap
nov
our
##ablen
adr
my
ersch
##code
airport
gesamten
sam
##iter
##ikation
##stelle
aufgrund
video
besitz
##altung
touristen
##etter
##ions
umgeben
meter
innenstadt
beach
##icket
angel
suiten
them
erkl
bez
enthalten
##gesetzt
gehoren
notwend
trotz
##li
heizung
bezug
##affe
weltweit
empfeh
annehmlichkeiten
##ms
##ied
erhol
##scht
##utzung
ausfluge
fruhstucksbuffet
##indungen
schone
usa
unterstutzt
dok
##jahr
ausgang
geeig
gesetz
glob
lizenz
laterooms
##kr
exc
sprach
komplettpreise
guten
##eile
stay
schlie
freuen
funktionen
telefon
gilt
kind
##umen
##ong
##irk
##immt
luft
rat
##mals
via
erken
##einrichtungen
##cker
unmittel
spaz
sand
##rad
##oo
einrichtungen
gemeinsam
ku
##karten
anw
##ahmen
gehort
artik
wichtigsten
speisen
##ervice
##istik
##utet
informations
##fuhrung
laden
red
sho
##uf
versch
##eitung
zimmerservice
kombin
##zept
##frage
zuletzt
lauf
pan
##mod
##chs
##uren
einsatz
verg
##ome
##istischen
view
##ran
##dam
##ish
kontakt
staat
distrib
center
##pol
##ally
konnten
##leg
##met
qual
##okrat
industrie
naturlich
bein
les
geandert
program
##schließlich
kol
muß
##ize
anfang
angeboten
straße
wein
##ek
dessen
ord
hinzu
freundlich
##ry
##vert
mitten
prov
world
hauptstadt
getrank
ha
lehr
##wohl
##ors
schritte
komfortable
##ml
##etten
erreich
clean
bab
such
winter
##irm
##antwort
trans
teilnehmen
phil
rechts
download
##eitet
enthalt
##ielt
##ript
deutsch
profession
microsoft
bon
##out
##lass
##gie
werde
##angeb
max
entsprechen
##schnitt
stock
exklus
team
grand
kern
op
##fah
##cat
##cess
dienstleist
centre
storn
europaischen
lasst
suchen
yor
##kor
allgem
vorteil
instrum
familie
##zus
##ve
##stat
##ehn
gesellschaft
reisen
shops
insges
eingerichte
hervorragen
automatisch
##straße
spanien
gasten
jul
##eilen
##merk
ware
##obil
##ails
hy
##beh
##ember
##rufen
konig
##iker
##barer
tran
##haltnis
hauptbahnhof
sauna
insgesamt
morgen
nice
##anden
ausstattung
betrieb
arbeiten
elegante
ged
##stellt
mai
ice
##zeiten
##inner
##achte
prozent
check
gerne
sn
villa
erlaub
hohen
##tellen
##sweise
##daten
neues
hotelsafe
##sbes
offentliche
anwendung
gepackraum
karten
ost
unab
sollen
post
fenster
eu
##altet
##dule
tages
##standen
zukunft
gelangen
##zeitig
moglichkeiten
ideale
basiert
68
ticket
beachten
##ritten
entwickelt
60
druck
##reiber
registr
gemacht
gren
##mitten
hafen
kaffe
rot
tax
zeigt
##urf
zwar
boot
englisch
werkzeug
angeneh
mass
##ka
nachdem
gesp
##fuhren
##lungs
##achst
sofort
##ict
##akter
benutzen
erwachsene
funf
zahlt
300
bin
log
stim
soz
obwohl
fuhren
umfassen
madrid
fein
oper
##wick
##by
insbes
##itzen
tool
##app
spieler
prakt
empfangt
glauben
bud
las
##wand
##hem
##buch
##ins
inmitten
##itra
verantwort
extr
2006
##ondere
gab
##legen
ergeb
weiteren
behinder
wikitra
ev
rahmen
##seite
aufge
perfe
sprache
norden
balkon
##omen
gerichte
garant
wirklich
##welt
veranstaltungs
##heim
insbesondere
col
full
##lang
elekt
ram
##fass
##ior
##grund
##ke
##bad
##reifen
##ica
chem
herrn
ruhig
helpf
eignet
schlafzimmer
bu
gt
tar
vater
##zogen
house
großer
work
zeichen
gra
ken
sa
##ost
servic
geschaftsreisen
##kam
##zer
##stoff
2005
costa
ferienwohnung
mitglied
##bes
profit
nation
##ij
##ischem
anspru
wenig
badezimmer
labview
wikitravel
deine
karte
##bark
##ary
##endes
defin
##nehmer
kirche
ahn
dich
pxi
##ule
##leben
##gru
##drucken
##ellent
klass
##artement
eigene
nutzung
western
prozess
frankreich
##era
##reicht
verbr
welches
spazier
ener
##lam
##za
schul
entfern
plaz
landes
willkommen
##setzung
great
empfehlen
##ober
##othe
prop
links
kontroll
bleiben
baby
bem
imm
##inge
bedeutet
bilder
##maßig
sing
##oc
##bank
##iesen
fluss
instruments
##wind
einigen
##ott
schwei
voraus
there
##ssysteme
somit
##teten
außen
geschafte
2000
betr
unabhang
pe
inf
##ded
betten
privat
umfang
mandriv
geeignet
distribut
pf
##son
hoher
##ugend
demokrat
code
verwendung
icecat
ub
##sach
erstellen
graf
jen
##igin
##auber
##iose
client
alteren
helpful
plaza
hard
##ines
sonst
ausgezeich
staaten
excellent
afr
##richten
##angt
kost
##pport
erfull
eroff
your
##ele
mittag
##genommen
##teilt
unterstutzung
bett
sil
samm
toll
##ader
##weisen
offiz
dad
##setzen
##df
verd
anzu
mochte
origin
lounge
freizeit
innov
entdecken
##barkeit
##tent
aud
##uth
schle
andern
gerate
gottes
lesen
sim
steuer
sonnen
erforderlich
vorhanden
centr
dach
##tp
##wn
##ilom
ausblick
spater
metho
charakter
turk
paar
artikel
york
spaziergang
nachsten
##ike
##linien
probleme
##hauser
casino
reservierung
urspr
##ielle
abendessen
dadurch
himm
ven
alb
##oph
##edig
zeitung
##zeichen
studio
35
cafe
##ire
plan
##blatt
bedien
gleichzeitig
technologie
ident
pre
##chsel
##stein
gegend
had
jan
wand
##gabe
schwer
angez
##nahmen
statistik
mandriva
ip
##igte
##agement
##ame
kannst
gewahr
##liegen
modul
bugel
##rol
##spunkt
unterhalt
express
landschaft
##sterdam
meiner
wechsel
commerce
behinderten
beit
halten
ten
##was
##ham
amsterdam
stadtteil
eigent
besucher
amerikan
bat
##fun
##stark
erg
bezie
schutz
##ategor
mensch
##arbeitung
500
##erweise
##ativen
##ags
##verkehr
##erecht
großten
mont
erleben
erreichbar
erlaubt
cal
os
pruf
ther
deshalb
##ohnt
wasches
frankf
##wechsel
teilnehmenden
wascheservice
##jen
luxus
richtung
vari
santa
dv
start
err
angebote
ferienwohnungen
licht
mel
##cc
zwe
kampf
fuhrt
renoviert
absol
31
bay
passen
##res
bekommen
zugriff
back
dat
flex
wider
##ts
##zellen
residen
installation
bundes
hauf
##uden
##wart
##gef
vielfalt
enter
##prochen
train
irgend
kabel
oster
setzen
##beg
zuvor
resort
##ufen
##ted
module
##steller
support
format
bedeuten
speicher
28
32
kal
pak
##mel
inhalte
##ierter
altern
##gramm
maß
information
solche
webseite
##forderungen
bestehen
prasent
material
##ql
einrichtung
##utiqu
##etzug
verbunden
zweiten
##mitteln
beispielsweise
finanz
##maschine
bot
kilom
mind
pat
##iegen
##schalter
ern
liebe
glas
gruppe
27
brei
oben
sur
tab
##ex
##ender
##ahnen
real
weiß
exp
comm
maler
puert
luxurios
nav
##ano
uberp
##ington
partner
distributoren
night
##ekte
##anb
anreise
blog
internetzug
198
korper
architektur
dienstleistungen
dre
traum
##tritt
##feld
##mark
##ko
incl
erreicht
##okop
neuer
datenblatt
deutsche
aktualis
anbindung
eg
##ella
autob
ruhige
profitieren
##unkte
##sseiten
holz
##markt
jung
erde
untersch
##neten
rechte
frage
gran
menu
fotokop
zusatzlich
commerces
cam
##sh
##bur
aug
schlos
##ister
arbeits
vertrau
heiligen
adresse
dorf
kauf
leg
sicht
##imming
einkaufssysteme
symb
##eidung
vergleichsseiten
asps
erhaltlich
dokument
internetzugang
commerceseiten
jose
inv
mitte
##utung
##ums
empfangen
erhoh
##ilities
##hung
##orden
vergang
##usse
frau
##verm
goog
anzeigen
position
juli
##sachlich
live
van
vir
##iereinrichtungen
##osk
comfortable
if
ww
walk
##ausch
##ago
behand
proje
appl
##istische
##ates
jahres
bedingungen
##reibt
##ension
folgenden
fotokopiereinrichtungen
usb
mitt
##ogr
boutiqu
##peratur
ruhe
wunderschonen
fant
farb
use
wort
##ep
##orte
starten
##utter
großte
##aster
only
eleganten
appartement
kernel
ursprung
ehem
fallen
augen
ausland
apr
erwarten
leute
swimming
veroffent
informationsschalter
inhalt
##lleicht
##egel
berech
gesund
serie
vielleicht
##werb
erfahren
26
45
ass
caf
eis
krit
kuste
##uhlen
bekannte
##ietung
reinigung
philos
central
don
eas
##fugen
expl
lob
##klass
gutes
erleb
renovierte
vollstandig
frankfurt
google
cro
squ
##wser
##sd
##mp
##zentr
##schirm
suden
gebuhr
phot
facilities
www
ever
val
##renz
##bei
##irl
##ugh
uberw
##flache
helfen
mobile
veranstaltungsraume
angezeigt
dvd
top
##gegeben
##dh
##volk
verz
schm
beide
frie
flash
##losung
landern
komfortablen
##iellen
pfl
vill
##haft
aufpreis
##gress
##haften
termin
einzelnen
meinen
##atin
sof
##ugt
vorher
##ohner
##blik
##teilung
besticht
close
unge
sicherheits
immobil
eher
##eder
##ohlen
exzellen
entspann
bekannten
access
##merksam
event
lim
messe
inklus
direct
freundliche
september
ausgangspunkt
okt
##echt
##cr
dec
gewalt
einzige
linie
romant
hilfs
luxuriose
osterreich
kilometer
kaum
##meld
##ikt
##oram
erzeug
schall
bringen
##ction
heim
mil
##zul
##ente
##anzen
aufmerksam
##ahren
##gefuhrt
roy
##hafte
schwar
fernse
chemische
jav
laut
wander
zeigen
##atib
prem
gebrau
bedro
##aktiv
beeindrucken
tal
##lose
##ident
##iertes
frauen
hochwert
stelle
norm
bill
sor
##ox
##gro
##hil
##ole
meinem
westen
##rechend
flexib
camp
dun
mat
##fert
##sy
##ament
dusche
handy
##freie
inklusive
80
fal
ok
##system
##con
ausw
schrift
arg
europaische
energie
single
##jenigen
mor
eingesetzt
##schrank
vern
##merz
liefer
gemaß
handelt
##onder
außerhalb
##ologie
golden
kraft
relig
which
fotos
museen
digital
wien
##gest
##cia
einw
unten
ausser
##abl
##angel
theater
##feren
gelten
darf
##ystemen
##ious
benutzt
erstklass
installiert
wochen
jem
just
##einander
anfrage
personlichen
daran
##produ
unterstutzen
maxim
70
dist
kennen
leich
time
##fekt
##gra
##text
zustand
##halle
gebiet
hinweis
beginnen
vielzahl
erfahrung
##windigkeit
gal
lar
sitz
##oy
##we
##kur
##det
schonsten
197
parkplatz
extrem
lau
last
sinn
wob
erne
sprechen
sub
darin
entweder
would
sprachen
ausgewahl
trop
urlaubs
gesamte
browser
danach
kaffee
schloss
fantast
cre
unterkun
##fragen
basis
schwier
##ype
aktuellen
inseln
spiele
erkunden
besitzt
panoram
wobei
af
##10
stru
##rill
begriff
bringt
bucht
historische
leider
autoverm
##iete
verhaltnis
anschluss
##gebiet
court
##fuhrte
garden
mitglieder
spezialitaten
audio
fach
hor
masch
ol
sagen
suche
##ias
##garten
##immen
##reu
##rak
##geber
##ibr
##ibli
shopp
woche
##akete
april
mp
situ
##aw
##ernen
##isierung
gunstig
erfolgen
geschaftsreisende
kategor
over
##tu
##achtet
##agte
##oper
place
fruher
194
bestat
##zeichnis
jeweils
services
lobby
gerecht
zend
##oben
##uar
##ieter
##arf
##bereit
fahrrad
reihe
gelegene
systeme
tri
tagen
##rest
##va
impl
ausdruck
uberall
##riften
mehreren
sek
gleichen
kontin
namlich
normal
small
haufig
royal
##mann
##erk
unweit
beob
schein
spricht
weiterhin
versionen
gruppen
komplex
farben
taxi
fuer
tim
treiber
##icher
beher
hotelzimmer
##ico
palace
anderer
player
bruder
unmittelbarer
jugend
##itel
##stre
##ets
##lichem
exist
shutt
installieren
doppelzimmer
stadte
universitat
pdf
##lern
einladen
##ienst
gez
main
cockt
##act
##tragen
##emente
html
millionen
berechnet
##ibliothe
29
lag
pop
tor
##ude
##fur
warum
exper
196
gesundheit
philosoph
autovermietung
may
##oor
ans
genie
##50
intell
##ichts
dennoch
bedeutung
salz
##bew
##ards
traditionellen
snack
fei
russ
##por
erd
erb
##raph
großes
genutzt
produktion
monat
kompatib
losungen
bestimmten
gemutliche
verbringen
bugelservice
ehemal
ew
fisch
milit
ze
##ps
##iar
##ames
they
##ille
minute
einfache
benotigt
##arbeitet
##freundliche
analyse
gespeich
##sa
##dorf
##isse
uberzeug
entlang
##spl
seines
##ierenden
genannt
mac
##iday
##ifik
##chnik
kurzen
herrlichen
heißt
jederzeit
meeres
aktivitaten
tarif
puerto
hast
id
kne
eindruck
##isiert
##stes
gestellt
forder
##teilen
europas
##estens
geschmackvoll
##irlpool
acht
est
sen
##nungen
##onnen
##atze
##schlag
name
guter
beliebte
thema
##hilfe
struktur
gb
##finden
##bro
erschein
##ilitat
schaden
##ical
darunter
datenbank
schnelles
whirlpool
aktuelle
bestimmt
##aison
##struktur
joseph
easy
square
##uk
##wir
##erfass
##anwend
##terrasse
hof
bevolk
schiff
##endet
gerat
class
entwicklungs
akzept
attrakt
tisch
zerst
##gegen
##zone
schritt
sob
deskt
wenigen
sex
palatin
fah
eingang
##isol
que
##spekt
besicht
##plan
geschlossen
##ception
welcher
losung
reichhalt
updates
himmel
more
seg
einstellungen
##anischen
hot
rech
schonheit
ausgestattete
guest
edition
swimmingpool
shopping
buffet
gay
mall
sens
##par
##innt
##unsch
spe
##ray
devis
plug
regierung
##ritann
datenerfass
zentralen
mediter
kunstler
treffen
area
bathr
august
did
halt
lt
lam
pet
##cp
##enn
##ieg
##ales
##amer
##entwick
schreiben
instit
hauses
traditionelle
oktober
devisen
samt
init
##itten
##utive
allein
skype
anderungen
##sprach
gemeinschaft
beruhmte
##haupt
individuell
stornierungen
fert
osten
ausche
ankunft
##ield
klar
exec
193
##ords
param
anderem
klimatis
mindestens
##zt
einschließlich
##ossen
platt
##rifft
bestimmte
holiday
transport
##restaurant
run
##zin
unters
suites
##fahrer
beweg
politischen
prophe
cafes
dy
langen
##ital
verstand
erstellt
##formen
schlussel
durfen
immobilien
##ritannien
auschecken
dial
mys
sorgen
thr
##ipp
##stag
##igungs
stein
gesamt
forsch
##komp
perfekt
politik
sobald
90
echt
fel
sat
teilen
##sc
##ift
##britannien
auszu
##hedr
##haltet
##ograph
geschrieben
2004
bleibt
motor
key
mu
wonder
##ulen
##swert
##erken
##urop
verwei
dez
unseres
themen
islam
menge
fruhstucks
buchen
link
festplat
umfasst
ermoglichen
speichern
temperatur
trotzdem
opfer
januar
07
##tok
##ones
##tens
verh
sou
##ford
block
maria
##alisierung
zusatzliche
autobahn
##zentren
desktop
aven
gent
ros
sin
##stimm
zun
##cket
sound
kons
##umm
##ierende
##samen
fahrzeug
strande
ruhiger
richtig
entscheiden
hardware
genießt
##netz
##yth
eingeb
##ause
could
##ganger
betre
ausgabe
nutzer
korre
##haber
##kommt
erkennen
programme
##reuung
zer
union
bearbeiten
großzug
blut
selten
anwendungs
firmen
kostenfreien
jeweiligen
vergangen
executive
##tokoll
ehr
hub
nok
woh
##umer
##pos
##nde
##ese
##arch
sohn
kongress
##fluss
relativ
veranstaltungen
beinhaltet
lernen
rem
stet
##fil
##ja
##itor
##igungen
uner
##indest
##elles
plus
black
teilnehmer
produkten
gold
einzigartige
separ
schließ
ergebnis
schallisol
hall
jeg
mak
old
##full
##stad
diejenigen
##arn
##inger
##eschlossen
frem
geschaften
offnen
geboten
teilweise
verkauf
##angebot
elektron
brit
kro
kaufen
regen
##nummer
##bel
##bus
##ari
##anal
denk
franc
gluck
komfortabel
portug
attraktionen
erfolgt
allgemeinen
stimme
##ograf
devisenwechsel
##ball
##schw
##bert
host
gefahr
großbritannien
##que
##onenten
besondere
located
leistung
stadten
sage
tief
##eten
##ba
##19
zucker
gehei
auth
isom
weltk
deutlich
weder
sonder
hervorrag
notwendig
hervorragende
invest
mysql
atember
cho
mutter
##setzt
##xis
##ony
##ages
##ics
rec
manch
gesehen
personliche
lander
##fuhrer
bestand
langer
turn
kurzlich
businesscenter
symbol
atemberau
dau
gult
ple
##fach
##ya
##ars
##orten
##elten
##igner
vertrag
verzeichnis
anforderungen
##ots
spekt
bestell
##verstand
bisher
champ
verbindet
versuchen
add
eigenes
niedr
unterkunfte
isomalt
dritten
fuss
ul
##elte
anlage
anders
##ney
##anken
minim
gewinn
##stande
##lauber
kurze
funktioniert
##sprache
##zustellen
angenehm
bor
cat
fas
has
krank
ladt
tru
wett
##wo
##ialen
ereig
##see
beaut
chines
##schließen
verbindungen
geworden
isra
sonne
kleines
mittels
firma
lokalen
wunsch
##inzip
food
getranke
act
ham
wc
##arischen
##atischen
##olution
##assung
freie
##lands
##pras
##geladen
##publik
featur
playa
hintergrund
temp
veroffentlich
kombination
kennt
gn
koll
lan
punkt
##obe
##amen
##ammen
##erseits
tod
viet
sec
autor
reiz
keiner
modell
##bringen
##spiele
sozial
coll
edit
har
pap
sem
site
vat
##otel
##uell
##uite
##da
##eng
##eisch
verhalten
ausschließlich
##led
umwelt
zimmerpreis
##play
vollig
terr
politische
film
http
##anwendungen
34
ledig
ot
senden
##ool
##opf
gesprochen
##akte
##ida
pocket
##iessen
##zahlt
freien
ski
gefunden
market
titel
anwender
provinz
home
safe
##fel
##frie
##yr
verpf
gepf
dev
##oker
offer
gebau
##werte
marx
gewesen
schnitt
sonnt
wichtige
strate
systems
tele
gegrund
jahrhunderts
entfernung
paket
scheint
erscheint
manchmal
lediglich
33
band
miet
vip
way
##wagen
##gunst
##ieh
verges
##ucher
##gewohn
##barung
flach
##folge
hauser
buchungs
##programm
besonderen
##aint
bildschirm
relax
##straßen
zweck
setzt
teile
##ara
##atzen
schick
south
nachrichten
hersteller
manager
##teile
##ssystem
belize
##werke
wichtigen
nachtleben
organisation
kommunikation
##omenade
frieden
implement
tarifa
36
miss
pack
set
ubr
##wegen
##km
##nden
##ester
atl
##ichter
eintritt
##usst
spat
##iens
days
abhang
management
##gerate
verbrei
moglicherweise
obje
solchen
abends
gemutlichen
spezielle
vorhandenen
munchen
quality
##craft
fernseher
jemand
##hedrale
dezember
gentoo
400
rh
##uel
##schau
##amme
extra
tex
zweite
burger
afrikan
laufen
vo
zehn
##kel
##anlagen
##ilder
schaffen
designer
dekor
begru
ausgezeichnet
marken
veroffentlicht
mallor
cop
dauer
##zess
##15
##este
##oria
hoh
##imin
alpen
abschnitt
reception
prim
entwickler
kamp
kamera
##forderung
diff
syn
generation
radio
##verbindung
brauchen
niederland
erscheinen
lauft
when
erlau
day
coff
##losen
begab
versuch
##boden
familienzimmer
rolle
kathedrale
eingerichteten
ausgezeichnete
original
vergessen
burg
parte
##olit
##edia
##bezogen
flor
idealer
meines
freundlichen
hilf
controll
eingerichtete
decor
ufer
wal
##ful
##igem
verst
##ege
##deut
##stet
##ikations
abgesch
rev
##gebaude
boden
##linie
##riffen
standards
stilvolle
##ridge
angenehmen
twin
erklart
ri
ta
##cd
##atoren
zuge
erm
##ussen
gek
##ellschaften
genug
strom
entspricht
hochste
busse
beschrieben
programmier
medien
wohnzimmer
wissenschaft
details
residence
zunachst
deb
jer
jur
line
zeiten
##utes
##yl
einheim
##rop
mithilfe
import
nachbar
warm
datenschutz
entsprechend
##rucke
spezif
websites
usd
kleiner
##burgh
##gehend
tennis
##meldung
bist
usw
##oz
##seit
##pa
##urlaub
##lle
verste
werte
##steuer
kommerz
verfahren
gesetzt
gesagt
kostenfreie
niem
grunen
kulturellen
praxis
bathroom
stets
hervorragend
cap
kund
kul
liss
pub
##pal
##anische
##orer
auft
hoteleigen
konnt
kontext
warcraft
regeln
dampf
ebene
antwort
charme
mittelalter
##enende
verkehrsmittel
geraumige
lissab
800
bibliothe
cr
non
tot
wild
##ses
##eige
##arische
##ebru
##unehmen
uberr
##etzung
##gesetz
solar
gelegenen
##werkzeug
tatsachlich
publ
typisch
integration
golfplatz
christus
kusten
navig
even
ii
ront
##hungen
##inform
versp
ansp
ausger
2003
cook
gegenwart
elemente
wahrschein
worte
verlassen
anderes
modernes
two
uberprufen
erlebnis
datenerfassungs
##uropa
##iehlt
39
deinen
feld
rub
##leitung
##gess
##urm
##anspru
##ams
##ebt
nachste
##weite
road
bereichen
zusammenhang
aufenthalts
clubs
sandstr
snacks
bevolkerung
dynam
schließlich
vietnam
37
cad
jud
pad
##rang
##cen
##20
##ador
trend
etagen
ausgel
urlauber
ausgestatteten
wohnungen
anbieten
altesten
unvergess
ergebnisse
schweiz
06
ast
gi
krie
ms
ori
##sache
##best
aust
##olf
##utigen
##ado
element
##chnung
polen
##ziehen
gastfreund
kopf
entsprechenden
##fahigkeit
garantiert
luxuriosen
09
kuhl
mis
##aktion
##fallen
derzeit
##orge
bezeichnet
##rate
tragen
##gebaut
##gesellschaft
maj
beginnt
vieler
##autom
150
##chester
gefallen
firef
wochenende
familienge
##wegs
ziehen
grosse
gespeichert
rontgen
falle
lun
nimmt
##person
##bas
##itze
erinner
##telefon
beteil
schuh
price
2001
china
##klar
email
informieren
empfiehlt
##azz
folge
richtige
effiz
nationalen
entspannung
israel
firefox
aqu
dinge
legen
preisen
##ls
##mon
##bru
##atische
zuver
##aust
sieht
gepl
aren
##ahlt
angem
verfol
german
beginn
objekt
zusammenarbeit
technischen
##betreuung
kreuz
eigentlich
beliebten
letzte
edin
einzigartigen
wunschen
malerischen
coffee
ba
bos
card
dor
ing
kit
mom
rt
veg
##uv
##sbereich
##pte
##ius
any
##defin
about
town
formen
##nissen
gratis
##itionen
worter
some
rele
kanal
##bildung
##verbindungen
fitnesscenter
java
aktion
koch
mik
##ube
##la
##sst
##hy
##13
austr
##agr
ubertragen
##eichen
gefuhrt
restaur
gewunsch
##tellten
handels
hochsten
beschaft
poliz
außergewohn
freiheit
gestaltet
superior
##worten
franzosischen
november
ordnung
atemberauben
horen
ib
nummer
zuerst
stuck
hos
auss
##adem
##ehor
##ahrung
mount
arab
toil
gross
##izz
minib
mex
##ouren
besonder
speziellen
##bedingungen
reduz
perfekte
demokratie
einwohner
palatinose
##frieden
mallorca
edinburgh
pul
pay
sah
sid
##liste
##ekten
##ci
##eiter
##ala
erinn
erstellung
quer
genommen
forum
##werken
sechs
schones
grad
hochst
##kont
nationalpark
starken
gunstigen
kolon
##gruppe
methode
bedroom
large
mp3
gegrundet
zuverlass
dritte
hing
nort
uk
##wald
##words
##inos
##alte
inc
denken
unbe
unbed
##unkten
konfl
##opt
freit
teuer
wege
##club
herzlich
##rankt
##polit
behindertenfreundliche
commun
virtu
verhinder
##stimmung
schallisolierte
orient
drucken
fund
ris
tie
wald
##han
##vi
##viel
stab
##rechte
##untern
##raten
komment
floren
chic
orte
marb
dubl
gewinnen
bras
linien
interesse
entwickeln
freundliches
##sichtlich
charm
gefuhl
halb
posit
braucht
erfolgreich
geraumigen
platten
##umente
shower
##sych
erbaut
knecht
francis
controller
48
bul
dussel
mid
nr
tol
vict
##uster
##ura
stamm
hoff
schau
##anne
##annes
##uchten
##ulation
need
großeren
geraten
tee
brand
vieles
adobe
verloren
synt
vertreten
konzentr
bevorzug
detail
lebend
ticketservice
hilfsbereit
speed
parameter
geheim
atlant
bald
sorg
##uern
##kund
einst
insp
verschl
stutt
##industrie
entgegen
regionen
195
gewohn
versucht
bran
tourismus
folgende
##vention
tunes
tausen
unabhangig
intelligen
fair
##fest
##iale
##zig
eingesch
erz
imag
ausfuhr
##ienen
##ives
##iko
##hoben
music
gebracht
stilvoll
leiden
##setzungen
gunstige
bereitgestellt
effekt
sorgt
propheten
38
ep
febru
hell
ill
ju
kais
wetter
##rom
##dat
##vo
##atten
##schrift
##round
bekommt
##serv
berge
##ista
serb
trag
##iziert
##prise
eigenschaften
sonn
##zahlung
kommand
tourist
fußganger
media
##dateien
anbieter
pci
zustellbett
diskuss
##schließend
lokale
optionen
show
##gruppen
##grade
vergangenheit
bra
cast
late
liter
oly
sagte
tsche
##tain
##macht
##erte
##alem
##schriften
##denken
quiet
esp
arm
##stellungs
##izin
seele
##phone
einzigen
verwand
kinderbetreuung
technik
komponenten
verantwortlich
rambl
alternative
souven
niemand
unbedingt
olymp
lis
like
mart
##ling
##sein
##gere
##ieur
##stil
vertr
##ird
##iment
sour
##grad
##hafen
news
regionalen
seien
bilden
technologien
wunderschone
erweiterung
praktisch
buddh
verantwortung
egal
mittler
##wirtschaft
echtzeit
februar
doll
kuchen
psych
ret
vi
##putz
##gien
##bieren
verand
##agn
aufgenommen
auflosung
bezeich
sogen
##ehm
##abot
##steigen
spac
##spez
##ickt
geniessen
export
##ife
hochzeit
##maßen
##ips
##count
##geschwindigkeit
konto
wohnung
kopieren
##work
##maschinen
##spielen
auswahlen
##ferenzen
beherber
faszin
bug
gmb
mite
pil
tier
##war
##shalle
##cod
einzu
anweis
andal
##artment
array
##utzten
genannten
neuesten
##iveau
moderner
admin
##ansfer
##gelegt
drink
ubernachtungen
aufgaben
aktiviert
##rufung
regelmaßig
wellnessbereich
boutique
nokia
authent
hostel
gmbh
55
diver
saison
##lassen
##wel
##ini
##onn
##urn
##anen
##anschluss
sied
##einstellungen
soft
##heber
durchgefuhrt
prin
prinzip
fleisch
verfugbarkeit
barcode
fruhen
handeln
##mitt
parad
montag
first
manner
erfullt
unterhaltungs
entertain
schwarz
premier
rechner
wettbe
mitein
64
carte
mi
##86
##enk
##asc
##tert
##roffen
##ruft
##istan
fried
großart
eth
gebaut
handt
beds
schnelle
herrliche
idee
sky
fallt
bezuglich
erkennt
grenze
build
##prasent
kampag
42
games
ress
saint
##rage
##oß
##log
##pass
##pakete
##11
erster
ann
uberein
warten
angeschlossen
wasch
##gebuhr
zeitpunkt
wahrlich
bedurf
vollkommen
verwohnen
enj
webseiten
technische
dienen
mittelme
feuer
##namen
unterschiedliche
verbessern
jene
absolut
##burger
gbp
souvenir
gei
gern
jes
vel
##ough
##uelle
##mess
##kan
##bung
##eider
##aschen
##etze
erfr
2002
foren
musste
##ifi
hause
standig
resp
nutzungs
arbeitet
zentraler
gestal
einzelne
ziem
##funktionen
festplatte
schuhputz
baum
lot
poker
ries
session
systemen
wil
##nungs
##chron
eins
zuber
##iers
image
zumindest
etage
gering
##gesehen
phys
ideen
schneller
erheb
erkund
schlecht
##wasser
amerikanischen
enterprise
philosophie
moment
dusseldorf
3d
53
aw
hugel
user
##aill
##nik
##kuste
##60
##aria
stol
anschließend
##amb
##ley
##server
mobl
##verhaltnis
prag
flie
eure
look
tags
gehalten
europe
##reichend
stranden
außerst
meinung
##anderungen
##hotels
tatat
unternehmens
doppelbett
unterschiedlichen
leistungsstark
vision
merc
grossen
peop
album
explorer
maschinen
plattform
beautif
tschech
andalus
schuhputzmaschine
01
mieten
punkte
sort
##of
##uert
##passen
##geg
##gart
##zunehmen
##erten
sieben
schalt
spec
moz
##ival
besitzen
loschen
gericht
tagungs
autos
wahrheit
##ordnung
power
gleiche
##fordert
##ianischen
hilft
eleganz
##staaten
##wasche
flachbild
ubrigen
wahrscheinlich
north
beherbergt
miteinander
tatatabot
44
galer
loch
sagt
##ufe
##dienst
##igsten
ausges
most
devel
herum
berat
near
frisch
gerichten
parking
einfachen
voller
##software
grunde
schwimm
niemals
##ixel
english
westlichen
zuganglich
kontaktieren
bonus
tools
kontrolle
venedig
people
butt
east
gang
rand
rust
tom
zauber
##material
##kar
##jet
##orfen
zut
bericht
rechten
klasse
habt
genaus
rob
tragt
than
cond
zeitgen
##aca
fuhrenden
ausgefuhrt
##zwischen
accom
halte
##staat
ahnlich
erfullen
erneut
kontinent
lunch
##unternehmen
dublin
bulgar
spacious
entertainment
08
grie
si
ut
##gn
##ietet
##ito
##ely
anlagen
##afft
uberblick
##becken
##werben
##gerat
count
verbinden
direkte
eltern
content
urheber
kostenlose
notig
problemlos
dienste
nachts
vereinigten
vergn
exklusive
exklusiven
gedacht
variablen
##kosten
heimat
gebrauch
dialog
kaiser
95
bi
dow
mm
mos
mahl
maus
sle
toch
tho
##leb
##wie
##gi
##omie
how
##reen
uberhaupt
protokoll
abwech
berecht
##verlei
pracht
robo
trennen
lod
##qualitat
grab
england
gelegenheit
skript
namens
elegan
stadtzentrums
werke
einkaufszentrum
verkehrsmitteln
unterschiedlich
interessante
##version
hinzufugen
angenehme
babybett
features
familiengefuhrte
stuttgart
##datum
ziemlich
600
dro
reicht
trau
water
##ton
##ual
##ktes
##back
##inst
##inken
##alon
stor
erbau
##ira
aufzu
beant
schreibt
##ehe
vorbei
##weile
arten
##ogel
orten
freunden
hinzug
##samm
idealen
##ourcen
display
kulturelle
account
wesent
medizin
general
deinem
signal
werkzeuge
methoden
wandern
passende
beeindruckenden
times
##splatz
fruhstucksraum
dampfbad
sorgfalt
enjoy
ecke
pic
xl
zert
##gaben
##zza
##24
##eras
##ieht
##itter
still
##ischung
ausreichend
alk
##ingham
##ience
vorber
##ulose
##uhle
##ays
tea
##gangs
##acion
modus
beliebt
englischen
status
ziele
hervorragenden
bemuh
kategorie
pleas
minibar
dollar
65
fi
grill
haft
il
juden
ng
neg
nik
pau
sap
##ous
##fa
##gs
##cu
##asche
int
##omm
been
gepr
manh
##arta
klick
chat
##pfen
##runde
handel
teilnahme
##strasse
preises
newsl
praz
##eidet
einkaufsmoglichkeiten
videos
##ifiziert
bezauber
vorteile
morgens
eroffnet
eroffnete
ehemaligen
lissabon
mikro
genauso
75
mund
sher
xp
##zial
##technik
##orben
##ita
sofern
prote
##speich
front
##ape
##gebracht
adv
mech
##useum
solcher
##ologischen
elegant
typischen
tauch
found
konfiguration
erholung
hyde
grenzen
turkei
ernst
exzellente
gerechtigkeit
beobachten
mediterran
institut
samtliche
avenue
denkmal
dh
dol
gau
ker
machte
wod
wifi
##will
##part
##di
##70
##eisen
##auern
verurs
##isieren
##sens
werdet
##rastruktur
bergen
prie
weis
##ria
großere
plane
sea
board
palast
##platzen
geschaftsviertel
wesentlich
aktuell
##arbeitungs
smart
green
erholsamen
workstation
anspruch
bettwasche
bedeutend
projekte
appartements
ungefahr
synchron
francisco
source
mittlerweile
drit
fand
hr
mb
mater
pia
ton
tut
vol
##uter
##mor
##pc
##yn
##vard
##etr
##reicher
##ehrt
reprasent
excel
blizz
##flachen
conven
gleicher
formul
250
erfahrungen
spanischen
deiner
konfigurations
##armon
slow
kombiniert
##liegenden
pflanzen
salzburg
zimmerpreises
cadiz
inspir
newsletter
big
cru
na
nationen
testen
wachst
##osten
##oster
##falle
##yle
##zehn
##chem
zufrieden
aufs
##reiten
##anner
too
prom
offenen
##quis
mini
##fahrten
laßt
produz
upgrade
personenbezogen
delux
sudlich
##ways
##kraft
##angebote
offiziellen
ipod
includ
value
classic
editor
other
fußgangerzone
zeitgenoss
dra
ging
lager
mas
zahn
##systeme
##hor
##ker
##durch
##30
##stern
einheit
##ating
anony
##ola
##unft
##ahrt
##spar
flair
frucht
##same
strasse
betrifft
##fuhrten
flugzeug
empfohlen
interessen
wiederher
engine
vermeiden
fortsch
entscheidung
control
kuka
massage
stimmen
eisen
gezeigt
cocktails
##entwicklung
auftreten
mem
szen
##insel
##schiff
##ama
##rust
schicken
schauen
wirst
beruf
##istisch
warmen
freunde
richtigen
dient
treff
kurzer
strecke
empfangshalle
nordlich
wunderschon
##getragen
lebensmittel
verweilen
##informationen
deluxe
bier
kau
lay
mol
okon
rate
stern
##rig
##rik
##tau
##mehr
##pe
##12
einfluss
##ilien
hotelrestaurant
##sph
##house
soweit
regul
parks
begrenz
##ordin
bedarf
perform
point
kindern
benutzung
roma
##ailand
##ission
innenhof
1000
integriert
barcelon
platze
laufe
bonn
stockhol
cocktail
kompatibel
zeug
uberzeugt
verpflich
tochter
##verleih
manhatt
99
dag
litt
rum
##pten
##punkte
##ga
##hop
##erei
##ato
verbl
anschl
ausgeb
georg
theat
##verl
##verw
##ucksicht
##zufugen
##selben
elyse
aparthotel
parall
family
grun
seid
##sprogramm
##ique
banken
angeles
angemessen
blizzard
ech
gas
wachsen
##wich
##ds
##car
##cms
##asen
##ileg
##ruhe
entstehen
abonn
berucksicht
realis
really
##gek
print
##barcode
blau
##herz
thailand
##izieren
192
##eister
convert
result
wiederhol
palm
gestartet
know
analys
anspruchs
außenpool
umfangreiche
grafik
ausgezeichneten
sammlung
popular
kroat
##analyse
revolution
wettbewerb
49
98
ear
tap
tbarcode
##uft
##legt
##kir
##zz
inzwischen
##its
zugleich
stau
##agten
##ehl
quell
##hed
konzept
##ivitat
##ican
abzu
zurich
angaben
weißen
fliegen
minder
hauptsachlich
grundlage
flughafentr
komplette
getren
trocken
gestalten
innenpool
spaß
digitale
views
tickets
klassischen
infrastruktur
mittagessen
sammeln
materialien
erstklassige
after
normalerweise
shuttle
##ything
strateg
marbella
fro
nett
om
valen
##ua
##yll
##schung
anfragen
##usalem
konstru
gekommen
abw
warme
fron
liefert
presse
compl
##ques
grenz
##zuge
breit
conil
##pret
formular
ferienhaus
wunderbar
##ights
wochentlich
script
reichen
individuellen
domin
opencms
rollup
franzosisch
entsprechende
allgemein
dachterrasse
prasentiert
breite
erhoht
eindrucks
erlauben
hoteleigenen
beautiful
flughafentransfer
gestat
hum
hill
##wiesen
##nern
##kette
##del
unzahl
theor
abente
pres
church
musl
entfernen
##mittag
##avier
funktionieren
##lines
fehl
behau
modernem
tatsache
travel
filter
zeichnet
##sprozess
badew
##iefert
silver
##udenten
gebuhren
beeindruckende
akzeptiert
ltsp
bewegung
spektak
jerusalem
handtucher
lunchpakete
wodurch
file
hekt
nh
pfer
pension
word
##sure
##museum
##haben
##kre
##ema
##achung
erzie
holl
auftrag
##oth
##ebsd
schutzen
ubersetzung
spy
unterwegs
ref
angeben
##rauch
gebot
freebsd
##klasse
##losungen
its
money
nutzt
grundsatz
spielt
bewegen
##betrag
local
volker
passwort
analog
angep
##ifizieren
hinzuzufugen
behindertengere
walking
aufmerksamkeit
solarium
little
tul
taste
wa
##vnik
##jo
intens
##scher
erwerben
##cks
##ility
##imension
##ahnt
##osen
manche
##atell
gebieten
benach
##geraten
##mith
apartament
sony
##geschoss
selbstverstand
stilvollen
traditionell
##datei
wollte
automatische
offene
beeindruck
kommunikations
dokumentation
fertig
rhein
sleep
fischer
messen
##leit
##sitz
##arkt
##any
##ettet
##run
alex
nachhalt
besucht
klassen
durchaus
step
steuern
dubro
boule
##ides
cons
monate
schlacht
##geld
regionale
foto
ruf
##ector
wellnesscenter
bezahlen
global
rotary
betragt
afrika
ausserdem
existiert
kongresszentrum
einheimischen
mountain
##codes
administr
mittelmeer
xlstat
aer
hug
hundert
math
ring
sum
vul
##rt
##side
##0er
##64
##ures
##elbe
##real
daq
next
klavier
fordern
naher
##werten
made
gegensatz
heutigen
herren
privileg
einfacher
verlei
roman
erstre
bestimmungen
brun
prasident
wunsche
raucher
meister
unterhaltung
vertrauen
kategorien
beliebtesten
florenz
verandern
hinzugef
dubrovnik
62
fuhlen
gall
kreis
meg
riv
size
satell
##fru
##nitten
##go
##ata
##deck
##entin
##sequ
ausnahme
##anger
neph
##veranst
gespr
freude
kurs
schnellen
verkaufen
solange
wichtiger
bildet
eignen
ungl
bildern
knapp
staats
getranken
wechseln
##anbindung
boutiquen
fahrradverleih
dauert
gepfleg
dritt
john
kohlen
rio
sun
##meister
##ym
##band
under
##ora
##itim
##aga
##deten
sod
##reffen
quellen
##ivil
george
promenade
mussten
daraus
##wertung
##ited
zeitraum
direkten
embed
##stucke
lapt
begann
conc
##sbed
interieur
bitten
funktionalitat
grundlegen
##iano
##betrieb
benutzerdefin
starke
##tragung
italienische
erweitert
evangel
##kammer
nationale
data
anreisedatum
augenblick
hochwertige
sinne
keinerlei
texte
kuhlschrank
worterbuch
charmante
button
piazza
2d
bath
fu
find
fab
fass
hit
harmon
mach
massen
upp
##west
##wahr
##ason
##aton
##igr
quite
##endem
spl
mode
deaktiv
republik
group
##raumen
geschwindigkeit
gebiete
##zufuhren
##schlage
190
interpret
herrlichkeit
folgt
##boot
##rolle
integrierte
varian
##rechts
schließen
transfer
6819
definiert
gardens
jegliche
isomaltulose
hamburg
tempel
sonntag
abhangig
cookies
siddh
ressourcen
accommod
roboter
okonom
04
02
52
fon
het
sekt
sucht
##sung
##enzen
##inks
##teid
##stud
##anien
##hren
##denk
verhalt
##ione
##berge
##serie
konferenzen
prost
umgeb
gep
report
##oche
lieben
durchschnitt
blumen
##akten
gelo
gebucht
##gramme
strassen
isol
##tellte
meet
reis
beschrank
poln
ebenen
##mittelt
##nahe
fehlen
kurzem
aktivieren
gunstiger
entdeck
geister
verbessert
##gorith
##hausern
beitrag
eigentum
dreh
feiert
untersuch
ereignis
marketing
bibliothek
veget
##optionen
ramblas
hochzeitss
building
dagegen
parallel
46
43
dinner
gh
vikt
wette
##regen
##uhen
##wissen
##sum
##eira
##schauen
##isk
aufgestellt
soh
##recher
##una
konst
alltag
##ikationen
frischen
touch
prest
offers
zweit
frequ
marina
weiteres
##trage
selben
heat
verwende
verwaltung
zentrums
bahnstation
verlang
erhielt
marke
spiegel
fotograf
letzter
zusatzlichen
kreditkarten
##kehren
broad
##mouth
interessant
raume
tolle
erganz
ursprunglich
everything
tropez
experten
sandstrand
gastfreundschaft
performance
hochzeitssuite
brucke
call
gour
kde
king
pakete
##ring
##iro
##zi
##bauen
##esco
##ared
einstellung
verlie
entste
nachfol
wartet
nahverkehr
register
schoner
moglichen
bestimmen
##eitete
begeist
standort
damals
reihen
parlam
verschiedener
benutzern
grunden
##gelassen
koran
aufgabe
volkes
heruntergeladen
edel
kanale
santi
fitnessraum
kostenlosen
erklaren
##umenten
perfect
schweizer
prufung
tabelle
normalen
militar
champs
vaters
ukra
respekt
layout
badewanne
embedded
siddharta
ball
equ
game
hu
joh
##nal
##dauer
##cast
##bour
##icherung
einsetzen
derart
##atte
##ros
erfre
##andelt
anstr
spir
mond
vorsicht
floor
##schlagen
gehoben
##lernen
##landschaft
offentlichkeit
##frist
##point
sternen
roms
winds
help
krist
wohnbereich
prozesse
unglaub
behei
##wege
anzeige
internationaler
##ifizierung
avail
kriegs
koln
umfassende
empfehlenswert
steuerung
##funktion
behandelt
veroffentlichen
eventuell
maximal
wohng
portugal
kulin
erinnerung
anweisungen
stolz
erbaute
manhattan
##gekron
ic
irak
kab
lcd
nfs
niveau
vin
xam
zone
zeile
##rane
##kurs
##yer
##17
einschrank
aufger
anerken
ausfuhren
##ads
##ush
probieren
##spolit
##istol
angeh
steigen
chance
etabl
darstellung
gebote
straf
koordin
##ific
##kenn
##ova
entworfen
bron
bristol
lust
level
##reiches
engel
##geschichte
preisgekron
leisure
##iums
lift
##ski
meistens
pcs
detaill
bezirk
unmittelbar
kenn
##kampf
offizielle
terminal
argument
religion
ausgewahlt
fuerte
weltkrieg
catal
##personal
verhindern
castle
convenient
gleichermaßen
behindertengerechte
hinzugefugt
santiago
xampp
bun
buen
eden
jack
lib
ox
##wurd
##med
##zur
einfuhrung
##ania
##atik
vergew
studenten
schne
abge
wart
##ible
ließ
flo
chf
sowjet
geburt
minutes
120
fahrer
kostengunst
interf
##ansa
palma
einzelbetten
gegner
studien
gastron
speise
multi
multim
vollstandige
signale
angesehen
samsung
##behalten
errichtet
sofia
##ablick
maschine
kontinu
verstandnis
making
mercure
special
zutaten
kroatien
gourmet
47
dick
finn
jo
pas
piz
smith
vista
zivil
##aj
##mass
##kop
einiger
##schalten
stimm
stoff
##egten
##ilen
##ima
schatz
alp
spann
decken
herstellung
##ohol
geschaffen
gelungen
root
zwang
##teils
leer
langsam
##ypen
##underte
##licherweise
antworten
##look
##box
leistungen
##reisende
vereint
starker
again
gemutlich
individuelle
kirchen
##slungs
gegebenen
optimal
optimale
metropol
kapitel
drucker
klassische
schuler
betrachtet
mittl
situation
idyll
temperaturen
souvenirladen
mozilla
ban
long
pin
rich
rande
sql
usp
wol
##rand
##ew
##eden
##het
##stationen
##ichen
##achs
state
imp
##olo
##rufe
schuld
##afr
##ingung
modem
nachmittag
##stens
abgel
herbst
##egenen
##utzte
liebl
geladen
gewonnen
kooper
instru
heart
linken
internetanschluss
rechtsch
luxem
alteres
deutschlands
##ection
##orgung
appartment
407
straßenbahn
erwachsener
compos
gemeinsamen
feind
kostliche
ursprunglichen
erzeugt
choice
effizien
polizei
hingegen
community
literatur
58
aktionen
hung
kunde
prufen
tiere
##uellen
##nes
##kreis
##krieg
##cial
##eir
##esh
##stab
einge
##ats
##eta
##etern
##tera
verteid
##ropol
##isa
##isierten
##agon
aufbau
anerk
school
##usive
##ices
##ikal
bestellen
arriv
musst
gebe
hierzu
nahezu
ubernehmen
header
touren
bewusst
krimin
what
sudlichen
archa
liber
sauberkeit
organisiert
leistungsverhaltnis
bessere
compact
wirtschafts
franzosische
##vertrag
lehren
betriebssystem
sozialen
##ocase
identitat
camping
dunkel
panoramablick
fahigkeit
plugin
initi
puls
erkundung
condition
abwechslungs
gestattet
away
fav
much
mischung
por
river
she
satz
sachen
sache
tosk
zit
zog
##let
##lad
##hel
##arr
##ities
verpack
##iera
##ierend
ansehen
##ehnt
##senden
werbung
ubersetz
##endo
nachricht
nachkommen
zimmers
read
requ
frise
press
weist
flucht
##gesellschaften
hande
handen
haust
##mitte
zahlungs
shop
##ensionen
ens
wiederum
basel
fuhrer
formel
kompeten
modelle
##scheinungen
veranstaltung
##leistungen
diskut
museums
beeinfl
konzip
tipp
corpor
katal
##modul
neueste
garantieren
mitglieds
betrachten
eigentumer
photocase
every
romantischen
fruheren
besichtigen
##komplex
abgeschlossen
australien
gewunschten
freitag
imagel
sheraton
sodass
56
700
84
ach
euer
fa
helle
junge
mosk
nnen
pir
roh
ve
weine
##over
##leisten
##hing
##ville
##brei
##erien
##erbe
##ormin
sieg
##rock
##berecht
##isierte
##ila
schatzen
##verein
lieber
gelande
lovel
mais
emp
fahrminuten
bucher
##moglichkeit
freundlichkeit
##stron
treten
##ementen
mails
vermieten
messegel
offenbarung
italienischen
erkannt
farbe
globalen
verschw
ramada
##stoffe
beziehen
galax
ausdrucklich
veroffentlichung
objekte
decorated
konflikt
victoria
bedeutendsten
abenteuer
apartamentos
41
cab
div
hart
hav
jour
kas
mur
pers
sd
tib
vogel
##nach
##techn
into
verteilt
ubersch
quart
nachfrage
frische
##bez
tower
flache
chi
rock
dargestellt
low
##gange
gewahlt
informiert
##kennt
moglichst
luz
herrschaft
kamin
##iance
##anderung
willen
losen
asi
porto
renovierten
bauern
bestens
studios
saubere
files
digitalen
mobiltelefon
samstag
opera
budap
nordenia
##fassung
offiziell
zwecke
alternativ
directors
situated
forderung
forschung
ultr
kranken
taormin
elysees
viktor
available
lovely
aff
jam
ner
nas
nette
note
pixel
reit
tast
waffen
xml
##wa
##eber
##muster
##atisch
##eless
verandert
##acher
##isation
anson
##send
konkur
##ikte
##ulpt
besetzt
##ahlung
lieb
geschutzt
gesicht
office
##quez
##dulen
miner
ubernimmt
iso
index
obst
url
##geschrieben
palazz
drive
erleich
##fluge
beruhmt
luxury
einkaufsviertel
knei
tauchen
##identen
##kommun
konfiguriert
adressen
erklar
professionellen
##behor
beziehungen
zuvorkomm
erhohen
bekanntesten
##aktivitaten
leichte
einladende
korrekt
semin
begrußt
queries
stammt
verpflichtet
ansonsten
54
63
brie
bord
ci
fix
jac
make
sv
wall
##uver
##wt
##hend
##dm
##ye
##ctr
##bal
##77
##ennt
##hre
##etag
##anders
anim
schule
beispiele
vorzug
vorstellung
rede
##rio
child
##mee
geboren
seen
marmor
##ctions
eigenem
verwohnt
monitor
##strom
##ianische
drinks
wirklichkeit
konferenzraume
organisationen
entdeckt
oberen
district
konzern
gemeinsame
lehre
professional
professionelle
gedanken
bedienung
breiten
photos
hochwertigen
schwierig
panorama
beherr
strukturen
##wood
gebauden
bedurfnisse
stockholm
mathem
heathr
uspq
78
85
bridge
master
nennen
pho
##oft
##ues
##sf
##messer
##hansa
##bon
##ieben
##urfen
athen
eing
##ory
##orient
##empf
verstanden
verarbeitung
##anda
##oli
dest
##abt
algorith
wired
queb
konze
space
entstanden
gefr
wenden
gesetze
chin
suß
##block
##assis
personlich
regierungs
strich
landwirtschaft
##ordnet
vielseit
##azquez
beschrankt
freundlicher
fuhrung
dateis
fußweg
bewohner
##ements
kompil
##freien
feed
##gemein
wirkung
typische
swiss
##kehrt
##inkel
tests
entscheid
##region
kapital
lufthansa
##legung
betriebs
jener
besichtigung
niedrig
hohere
paradies
pleasant
kohlenhy
heathrow
05
astron
fakt
leit
lohnt
mangel
pen
ped
sar
who
##oßen
##ufer
##listen
##ning
##kern
##ziel
##zeigen
##card
##tex
##eien
##eiben
##stieg
##asser
##achter
##berger
##ision
##ental
##ebiet
behalten
ausfuhrung
ubert
quad
dep
hergestellt
##ungsmoglichkeiten
toten
prior
befrei
##achtung
ordent
nahegel
##alth
streit
modernis
ausgeh
indust
##zeichnungen
##istenz
verlangen
##freies
kleinere
turm
##zwungen
andererseits
wunderbaren
gefangen
sym
##arbeitern
rufen
##freundlich
oberflache
rollen
flusses
unabhangigkeit
gewahrleisten
training
neuerscheinungen
vergangenen
moral
##amerika
terror
martin
velazquez
downt
lodge
dhcp
dolom
fortschritt
zeugnis
##sbedingungen
fuen
hom
hangt
iv
liv
listen
libr
pur
pent
ts
wagen
##rah
##ws
##seiten
##kultur
##ved
##urz
inbeg
ersetzt
aufnahmen
##andt
anstatt
unesco
ausstellung
##adel
sichern
alli
##rast
##ump
arc
##ateau
##astung
trig
##apie
##appen
##altungen
##astell
cour
gegenstand
betracht
handwerk
##trib
vielmehr
##zeichnen
short
internetverbindung
bekam
##ologische
kameras
fuße
standardmaßig
installations
grune
airlines
wichtigste
##ventura
casa
##leistung
berliner
interessiert
vollstandigen
lebt
christi
##metho
programmen
##statten
definition
planen
##warts
sichtbar
##oskop
premium
##groß
falsch
##ference
distance
sekunden
ehemalige
reichhaltiges
forschungs
keywords
verbreitet
padd
##klarung
ingen
relev
atemberaubenden
##politik
chicago
##ascript
sorgfaltig
accommodation
sohne
friseur
messegelande
budapest
bol
cy
cir
jungen
kart
kalt
light
lake
passt
right
wat
yacht
##laufen
##eo
##szeit
##mot
##ging
##iefer
##ston
##aner
##schule
erled
##egnet
##otz
##utze
bezahlt
aussehen
sche
schreib
schulen
wireless
spenden
umgang
##menu
repar
exter
##aker
nahm
gly
mehrheit
these
##izer
welchen
welchem
erwahnt
monaten
##cover
verkauft
funktions
##konstru
##drich
richtlinien
gutem
halfte
gemeinde
beliebigen
archiv
glaub
glaube
geraumig
notwendigen
##jahrigen
vergro
amerikanische
javascript
billig
flexible
mediterrane
gebaudes
##uvre
sogenannten
##spezif
schwimmbad
alkohol
anonyme
valencia
erstreckt
downtown
bung
gate
hellen
hair
pant
page
vector
##oe
##wan
##satze
##kinder
##bahnen
##erer
##ietern
##onstr
##star
##urzen
##itution
auß
##eto
zufall
stationen
##bern
##telef
##rug
sichere
alph
spalten
mogen
##ehren
reag
warte
arrang
plac
##aken
hinsichtlich
marri
gewinner
##lauft
enor
##sozial
terra
schweden
within
##handel
naturpark
spring
renomm
meerblick
noise
vereinigte
spanisch
unterschiede
qualitats
##haltestelle
erweiterungen
##ooop
reisenden
gespielt
pfad
clients
beitrage
cala
aktualisieren
kritik
friedrich
erzeugen
religios
##produkte
niederlande
unvergesslichen
##bruch
hoffnung
geistes
jesus
##speicher
priest
angepasst
boulevard
imagelooop
palazzo
ah
bern
cwt
din
ehe
echte
naz
peter
ueber
win
zah
zeig
zeilen
##rein
##ti
##gaste
##hangen
##kap
##zy
##ju
##ielen
##stuhl
einfl
eintrag
##ani
##schulen
##ault
##omas
##ross
ersatz
##isc
##aming
bearbeitung
schi
schmerz
##red
##republik
wirkt
##steiger
##stechn
konsequ
##mente
##sper
vorder
vorzu
def
ablauf
##weiten
many
nurn
frag
##verfahren
klaren
geschicht
orchester
darstellen
gebir
##werfen
hinein
hinweg
verboten
box
better
##lieben
welcom
erworben
leder
##promenade
interakt
189
festival
keines
erstmals
diagn
mobel
englische
vertrieben
vereinf
publik
weitgehend
brot
patentier
durfte
umfangreichen
erstklassigen
fantastischen
shuttles
schonheitss
klimatisierte
turnier
schnittstellen
total
major
branchen
olympus
softwar
country
##sphare
barcelonas
spektakul
selbstverstandlich
verhaltnisse
tastatur
59
cust
gumm
jh
ke
kummer
malt
ye
zoll
##fo
##enkt
eindeut
inkl
##orgt
stammen
hosp
schott
uberaus
ubergeben
spitzen
##annter
##open
abfahrt
##umb
##umgebung
neun
##aufent
geschehen
befehl
blue
offens
hierbei
##fenster
##ifikation
##hafter
monte
heißen
garage
nationalsozial
##book
gestaltung
halbin
##management
volks
verkehrsanbindung
amerika
magaz
##gewiesen
architekt
lehrer
allgemeine
registrierung
geschaftsreisenden
innovative
variable
sofa
##meldungen
chinesischen
public
kolonial
kommando
gepragt
##rustung
quebec
shuttleservice
schonheitssalon
halbinsel
88
around
nd
ray
sunden
sitzen
vent
wesen
##westen
##stube
eingetragen
##atter
##etisch
verschie
##agg
aufnehmen
##amin
imper
##dete
furnis
ubersicht
gekenn
amt
rechn
rechnung
##ellos
fran
##artik
##etzte
##etzten
steck
##ucken
geste
chassis
trib
trinken
teuf
taglichen
##gerichte
gegenden
grande
##eiteten
handler
##zugeben
beglei
##liefer
interview
spiels
servers
endlich
guide
helfer
##bereiche
automobil
##musik
##board
regional
hallen
strecken
##ikanischen
mailand
integrierten
organisieren
##eeper
junior
##regeln
besitzer
dokumente
ordner
deutscher
teams
behandlung
hilfsber
1945
schnittstelle
ansprechen
geplanten
diskussion
diverse
##kirche
grundsatzlich
oxford
vergewalt
kontinuier
##breite
marriott
custom
03
57
67
four
font
kie
ly
muh
occ
punkten
saf
tanz
##sal
##dien
##32
##inischen
##aun
verstark
##irt
aufgebaut
anhand
##decken
beanspru
hotelbar
schriften
##ktor
prox
##spart
realitat
kompr
##beweg
##aka
gelieb
euren
##format
##haltung
bose
##attra
##ido
betroffen
##acio
conf
hochgeschwindigkeit
sicherlich
##couver
komfortab
##minister
##sofa
flughafens
basic
##spieler
allerg
malays
feststellen
getan
##wohnern
antiken
charman
traditionen
kulturen
##hauses
mobeln
feder
generell
##organis
stattfinden
fernsehen
reservieren
pariser
university
visit
american
lokal
network
konzert
globale
##krafte
stayed
fulle
residenz
botschaft
glasg
akzeptieren
attraktiven
weltkultur
erinnern
beratung
mahlzeiten
mediterranen
planeten
dritter
erzielen
tulip
nephi
kristall
luxemburg
favor
taormina
paddington
priestert
89
bang
baden
chal
dc
fp
job
ll
oze
pier
##wal
##far
##put
##gult
##hz
##bird
##onte
eingestellt
##rot
mitarbeitern
style
##beruh
hotell
anmel
behalt
##imen
##une
sparen
alliance
gefuhrte
##netes
##genden
recom
##ello
toolk
durchfuhrung
gelegt
offnet
darstellt
gerichts
##gebiete
##gesp
##anzig
mars
betrieben
##ondition
selber
bele
aktiven
eigener
nutzlich
##moglich
bahnho
##geschaft
kontrast
skulpt
fuhrende
doc
programms
##affung
michel
##manager
schlafen
offenbar
##module
einzigartig
electr
tippen
lebhaften
elektr
graph
##reserv
autobahnen
village
flexibilitat
ausgewahlten
trip
ewigen
sensor
plattformen
betreff
betreffen
remote
sonntags
relaxing
parteien
pubs
austausch
vertreter
erfrischen
institutionen
satelliten
geloscht
geisterfahrer
multimedia
lieblings
bungal
action
gir
hangen
hong
larm
mio
richter
vit
wav
##ael
##ssel
##sicher
##ni
##kk
##don
##col
##stimmen
eint
einstellen
##bergen
aufregen
unber
##iles
behoben
##leun
##ingend
umge
##spot
gete
##uchte
##opfer
##icks
##ielten
angriff
liefern
gesellschaften
##aya
blieb
nahen
tres
##riebe
##erenz
sev
parken
101
fahre
leon
kostenfreies
schlag
solid
grundstuck
kamen
history
endet
problemen
umfeld
leiter
politiker
scxi
##leistet
##wortet
madchen
leistungsfah
erfordern
##gewicht
daneben
##spiegel
gesetzlichen
beinhalten
ordin
umfassenden
info
silber
widerstand
vielfaltige
##begrenz
zuvorkommen
unterscheiden
vancouver
applikationen
crow
gesundheits
russland
##ographie
papier
terrassen
hilfreich
kommerzielle
krieges
erinnert
bemuht
##verwaltung
early
laptop
parlament
beheiz
ultrasch
inbegriffen
lug
pensionen
yes
ziff
##aal
##aktionen
##reit
##ode
##uis
##usten
##fk
##mt
##gut
##gelt
##dor
##ypt
##bis
##iche
##schir
vergeben
##irr
##tely
denkt
##ichtung
aush
demonstr
spuren
entschieden
##ication
##ernet
abt
##gener
armen
durchs
##oke
exquis
##riet
loung
louvre
thunder
dub
kond
begeben
worten
beleb
potent
##voller
metall
softwarep
base
180
formate
ferienhauser
menschenkinder
anton
automaten
##zwe
acc
syd
altere
inneren
einkaufszentren
mailing
##maßige
angenommen
patentan
zeichnen
zieht
architekten
highl
konfigurieren
exklusiv
stornierungs
aktualisiert
wiener
bestatigt
erdgeschoss
wonderful
avenida
secur
friedens
##werkzeuge
kommentare
kampagne
tagsuber
nikon
frontera
alexander
riviera
dateisystem
allergiker
cra
hort
nb
px
ss
sach
tu
tit
wi
##tom
##saison
##mop
##mob
##page
##dessen
##zel
##cy
##anter
##ela
verteilung
erhoben
aufnahme
anteil
ausein
ausbildung
##osse
##ustet
##ehnen
wirken
andre
berichte
reden
kloster
angeln
lieder
##ausstattung
plotz
exot
##aks
routen
tram
gastehaus
verbind
gewissen
gegenstande
betrag
conne
urb
kurfur
##office
##ipment
langu
familiar
skig
188
##iana
bewuß
disc
##isson
##boa
krafte
##alismus
where
bauen
wollten
vertrieb
iron
kopier
alteste
nettes
karls
ava
contain
japanischen
##irkungen
konigs
hoheren
ublichen
innovation
menschlichen
317
exzellenten
lampen
##sprachigen
festplatten
unerw
afrikanische
mittelalterlichen
navigation
##bestimm
reduziert
lisboa
##mittlung
ethernet
gestaltete
elegantes
hektar
johannes
##spolitik
interface
rechtschaffen
tibet
thunderbird
dal
eiff
fels
ign
lad
nic
oase
rasch
sett
takt
trifft
weinen
##las
##mas
##gu
##kn
##bestat
##36
##chnet
##staben
##stouren
##itar
zubehor
##omp
ersetzen
aufgel
##aht
schafft
demo
konsens
sp4
untergebracht
abb
##istischer
frame
arz
##plom
##rix
gesamm
verfugbaren
blan
roten
route
hierfur
##schlossen
##gestellten
booten
autoren
##sbruck
product
verwirk
schlagen
door
kleineren
erlangen
portal
nois
spanische
apple
##renzen
1999
1996
spezialisiert
genaue
aspekte
##gehalten
angesichts
geldautom
provide
haag
registrieren
taxis
garantie
prozessor
simp
simulation
bedienen
gewahrleistet
melden
zugriffs
events
##ween
fahrzeuge
fremden
copy
##vielfalt
atlantik
kampagnen
erheblich
tagungsraume
griech
spyware
konzipiert
##bezirk
jamendo
offensicht
ultraschall
auseinanders
avaaz
66
76
achten
eb
each
fanden
gassen
hon
lanz
mah
meld
own
richten
send
siz
sites
treiben
tai
##mat
##mend
##gol
##ged
##dar
inhalten
##itch
##itte
##eland
##elos
##emit
verhand
verhei
##rochen
ergeben
##ders
##ils
##ily
bec
##reif
schatten
algar
##heater
konserv
##undet
entstand
nachte
##rader
vorgestellt
abrah
besatz
##fore
wash
##rip
ether
mehrmals
##altungs
hinweise
regierungen
marok
island
mogliche
between
##aco
entspannten
##zeichnung
adam
adult
##vollstand
entwickelte
beschwer
verkn
based
##ologien
territ
fuhrte
servieren
folg
touristischen
##sprachen
innsbruck
aufgeh
##ksh
feel
kosmet
bahnhofs
londons
universum
erweitern
marktplatz
interessanten
novotel
anspruche
demokratischen
himmels
passenden
bundesrepublik
prasentieren
ungewohn
fernseh
reichhaltigen
hotspot
guests
sensoren
##stadte
hostal
beschaftigt
waschmaschine
gestalteten
vergnugen
##leitungen
kneipen
trigger
kurfurst
az
cs
hen
hut
isch
iphone
jet
legt
leitung
oste
reiten
runden
rail
sier
##ris
##lem
##wing
##woch
##feh
##frau
##fangen
##pm
##iam
##ially
##hard
##yt
##bieten
##35
##chter
##ieden
einreise
einheiten
einerseits
##schatz
anm
##dev
##otte
##utige
bearbeitungs
deswegen
sicheren
##osl
##stem
spaten
amaz
vorgehen
##ula
referenz
großem
##pflicht
hinsicht
##heits
##ettung
gemal
handbuch
conference
perspekt
##igkeits
beschleun
basierte
verlangt
festung
keinem
einzelzimmer
vereinbarung
##hause
radisson
1997
fehlermeldung
anzahlung
##jahrige
haar
downloads
##zusetzen
reisende
snow
gracia
bemerken
kostlichkeiten
##funk
vielfaltigen
maßnahmen
bestehenden
inclusive
limit
einladenden
großzugigen
großzugige
bestandteil
active
kollekt
##ehorigen
##install
haftung
personenbezogenen
staub
##studio
mittleren
mineral
nahegelegenen
dolomiten
51
813
cay
cannes
fig
fut
fans
haf
ky
must
nat
rab
runde
sav
valle
zion
zoo
##tat
##eff
##ssen
##swerte
##ifor
##gibt
##dimension
##cle
##var
##bart
##ene
##stags
einwohnern
##anforderung
inso
##orien
zugesch
zunehm
##aux
##eing
ansatz
ansicht
schrank
soe
##unktion
##steine
##undern
umgew
repos
manchen
tow
stadtviertel
##rikt
##astrop
geschieht
##uhrt
ethn
##wertet
gerausch
##schlussel
##samkeit
gewicht
weiterer
ubernommen
direk
menus
##aturen
conver
bedient
##azitat
entwicklungen
nutzern
heiß
stehenden
palette
spielern
##platten
altho
wunderbare
wassersport
irland
gemutliches
##aketen
david
leistungsfahigkeit
passag
abseits
mobiltelef
japanische
globalisierung
lizenzgeber
##behand
tageslicht
boots
glaubens
##ija
##oberflache
bezieht
montreal
surround
puerta
unterscheidet
messezentrum
normand
intellekt
palatinit
felsen
ehre
fremd
kostenfreiem
wildnis
uberrasch
verfolgen
atemberaubende
unbek
lebendigen
##messungen
riesigen
andalusien
develop
haltestelle
##girol
slowen
silverfast
##veranstaltungen
ensuite
fuengirol
glasgow
toolkit
allergikerzimmer
algarve
sierra
900
ce
fok
ftp
rin
vort
##rent
##wurf
##fug
##pension
##gung
##gern
##hoch
##dy
##dach
eintrage
##ordent
##ters
versehen
stahl
erfor
##irken
##einheiten
ankl
anstelle
##otten
una
##seher
beendet
before
##imp
aussch
ausstellungs
##ustellen
##icen
##ants
abl
##beck
angef
##auswahl
prel
weib
großteil
genugend
jahrzehn
##akes
##asso
eurer
mehrfach
##apel
seel
cost
sollt
##telle
##haftes
indian
adwords
bussen
beschreibt
env
internetseite
malaga
blicken
leisten
kunstlern
white
mitteln
politischer
screen
tatig
reiches
empfanger
agent
mitgliedern
akadem
##ancy
einzigartiges
produktivitat
prasidenten
buro
verbesserungen
##geht
lizenznehmer
spazieren
hervorragender
umfassend
fullen
energ
privatsphare
venez
irgendein
donner
bestatigen
produktions
zerstor
zerstort
blackpool
gepflegt
buddhismus
foundation
wachstum
begrenzt
variante
ukraine
journal
architekton
gekennzeichnet
fpga
insofern
72
ara
bm
core
feste
grau
kai
morn
nein
reb
rue
tasten
##selt
##ki
##dis
##can
##bach
##18
##enze
##stations
att
eingefuhrt
##asur
##eman
zustimmung
zuhause
eric
anl
##otion
unkom
unix
unbegrenz
##eher
##ehotel
##union
ubersetzt
##endamm
spannen
##orts
##ikas
unteren
tok
todes
##former
##auflos
stadtm
##stellern
chile
##pfel
rout
##herr
##ardo
##iza
minister
##eistungen
gehor
gehabt
##teilungen
##phol
landhaus
ausget
perman
fluge
leck
hauptstraße
schluss
##strand
romischen
window
anderung
zugrunde
diplom
startet
verkehren
##freiheit
track
nordlichen
agyp
kanalen
kanada
einkaufsstraßen
bequemen
brussel
herausforderung
raumlichkeiten
londoner
oberhalb
geistigen
avi
wirtschaftlichen
platzen
rathaus
distribution
schlafzimmern
sao
planung
beitritt
##anbieter
romantische
schwarzen
leichter
horiz
experience
fahigkeiten
ltc
institution
hubschen
portugies
mietwagen
mission
copyr
##austausch
arena
gewunschte
verschlussel
pilot
cruz
eisenbahn
abonnement
getrennt
prostitution
reihenfolge
toskana
zuvorkommend
quadrat
schiphol
noisy
##iforn
fuengirola
92
96
ay
fuhl
gere
hi
hir
hind
hull
jak
kw
lern
liver
rap
richtet
##rd
##nel
##krit
##zuh
##bor
##16
##oni
##anw
##iti
stu
hohem
schok
desk
##unya
alarm
quick
esc
sper
process
umstanden
enth
gedruck
geograph
gezwungen
##eds
abreise
##etzungen
kleider
subst
blauen
robert
offic
benannt
their
hinblick
sollst
gewahl
weltberuh
##fuhrungen
##mitglie
##aven
ons
buchungen
entspannte
leuten
vollen
entwickelten
beschad
##front
palais
rome
fußball
orts
charles
zugreifen
profil
innere
ungarn
140
generationen
reisefuhrer
internationales
heilige
grosser
##vision
leser
registriert
propriet
tollen
anzubieten
##verkehrs
thermal
bedeutenden
breites
tabellen
entspannter
##zuladen
##große
lieferung
achtung
initial
muy
gultig
minimum
gnu
partei
nachbarschaft
mexiko
##kontrolle
großartige
nutzungsbedingungen
award
bulgarien
berechtigt
wesentlichen
blaue
aufgerufen
anerkennung
catalunya
##rockner
entscheidungen
hochgeschwindigkeits
sydney
karlsruhe
kurfurstendamm
repositor
although
normandie
87
bisch
cur
een
fau
fugen
jp
life
md
nar
null
od
pru
past
ross
side
tamp
wellen
##waren
##mx
##prufung
##ding
##ennung
##stock
attrib
##schten
##aute
##teren
verring
stop
##amar
unent
##leute
werbe
werken
ess
spate
umsatz
andor
vornehmen
##zenten
abspielen
##umber
api
berichten
durchzufuhren
##raußen
verfahr
##ucker
plast
chang
mehrerer
##iode
gegenteil
ausgeschlossen
##sslich
ital
##pression
pour
health
zahlreicher
kurse
gutherz
##ensive
poly
langeren
grundung
kontakte
schwach
ausgede
trock
##bereichen
anti
antike
kompon
leip
diagr
##gemaß
party
partition
erstes
sauberes
ferner
erfolgreichen
erweiterte
merkm
verbesserte
grosste
munzen
6815
logik
budget
servicel
entfernte
sonstige
tener
schmuck
##zulegen
leichten
ausgewahlte
existieren
feier
attraktive
##hauptstadt
ereignisse
reizvollen
implementierung
##steuerung
besonderes
fundament
sonnigen
brava
hostels
leistungsstarke
##gegangen
paul
verursacht
including
evangelium
konkurrenz
##tirol
weltkulturerbe
skulpturen
plotzlich
lanzar
abraham
territor
umgewandelt
prelink
schokol
birm
cer
colog
dl
field
hd
haltung
iones
kens
lagen
nob
rang
seb
zorn
##atet
##rier
##ocken
##no
##hab
##hungs
##kat
##kol
##kunst
##zei
##jack
##test
##alu
##schreiben
##agd
##utage
schar
scheinen
umliegenden
entnehmen
##spann
abgesehen
##umfang
##egenheiten
##utzutage
steig
weihn
##bares
##barten
genehm
jahrlich
sup
orland
geringen
##alender
cover
##etto
gewisse
##ezeichen
weltweiten
##reisetag
##ava
##zuglich
versand
indien
selb
##vorgang
heutzutage
resident
verwalten
enge
wood
verlust
naturlichen
romer
hels
turen
##garage
canaria
firew
scanner
##jekte
vereinigung
patente
##weisung
##spruch
filme
karl
unvergleich
##holz
wirtschaftliche
erholungs
schließt
vorteilhafte
##stoffen
ahnliche
voraussetzungen
turkischen
ergibt
absolute
auslandischen
donau
termini
gebraucht
wochenenden
fantastische
afg
meeresfru
##files
kenntnis
homepage
iii
judischen
galerie
ausgesprochen
developer
produziert
unzahlige
daqmx
entsteht
metropole
##ropolis
galaxien
phoen
glykam
recommend
taiwan
washington
zunehmend
liverpool
birmingham
kensington
bell
cm
dll
dru
dos
dsl
gs
hp
jazz
kase
kath
kunft
ment
nt
nis
py
pie
pun
ras
ruß
surf
tater
wit
wom
##not
##mund
##mont
##meile
##pin
##do
##34
##schm
##termin
verarbeitet
##lichten
stufe
##ischt
anmeldung
##sey
##ili
schad
sock
##reck
##osition
dement
##stechnik
##ienten
andert
##umin
bester
bereitet
kleidung
lied
genauer
gesegnet
serien
chann
chip
glanz
fruchte
verbrechen
##klang
gemuse
gemessen
##loser
##fahrzeug
begonnen
versuche
einfugen
##ctor
meinungs
progress
famili
week
kommission
bewahrt
##uchtung
benotigten
ask
atmosphere
politisch
wochent
westliche
erfindung
kanarischen
##maßigen
stattdessen
reservierungen
unterschiedlicher
##alkondition
##heizung
1998
during
outside
mobilen
verbesserung
erschienen
erholen
telefonnummer
lesezeichen
spaniens
tageszeit
soziale
infos
innovativen
gewahrt
wechselstube
melia
##gefuhl
patch
surfen
uberpruft
vertraut
projekten
villen
auswirkungen
vernunft
##ibliothek
segment
reizvolle
gekauft
arenate
kitchen
risiko
zubereitet
vergnug
includes
theatre
berucksichtigt
tapas
brunnen
ungleich
fassade
spiritu
##afrika
##aufenthalt
security
etherboot
morning
copyright
weltberuhm
cologne
aro
dei
dans
fle
fra
gig
gabe
harb
jug
list
lif
mx
ont
oce
opp
vibr
wid
zy
zar
##word
##nte
##zut
##xpress
##22
##33
##change
##inne
##inental
##eiste
eingeben
eingabe
intel
##schwei
##auscht
veranderungen
stopp
styl
ermaß
howe
aufbew
anschließen
##eger
##deckt
##other
##ahe
##ahle
schrei
##adr
sog
desto
wirbel
uberleben
motel
##menge
##sparen
gezogen
amts
vors
vorbehalten
##opol
apache
beseit
bestellt
bere
##ocher
neo
angst
weisen
stadtkern
chair
##quelle
tec
jean
##gericht
##losigkeit
##ids
##ified
hochauflos
lev
poor
engag
##geschlagen
schwed
##prozess
naturliche
einkaufen
##ample
##bringung
trav
anbietet
automatischen
capt
##name
golfplatze
erfordert
fenstern
motiv
adress
##modell
##statte
registrierungs
massagen
##wicklung
entfernten
grafiken
jenem
anzuzeigen
simul
startseite
backup
##markte
assist
maximale
extremely
fantastic
##strecke
##spektion
felder
blackjack
separate
britischen
britische
hausern
package
riad
versteht
versprechen
release
bedrooms
positiv
toler
griechen
treffpunkt
wordpress
vulk
galler
erklarung
feedback
gummi
electron
offensichtlich
direkter
jakob
serviceleistungen
corn
edu
findest
ga
gingen
jenen
kem
krei
kun
lig
pd
pick
pod
pek
pict
piano
ry
tas
##uhe
##upf
##well
##sion
##mut
##machen
##punkten
##zahlen
##brechen
##busse
##bilder
##66
##inj
##teuropa
##eille
##onie
einiges
intu
##elemente
##etrie
##rox
##roff
##tela
beenden
##usste
##eht
quest
quelle
konvention
spons
prot
umgehen
umsetzung
##mens
vorgenommen
vorschriften
vorgesehen
##eda
##zene
besp
berufen
reform
refur
##ochen
##bek
existenz
tritt
geringer
thys
tepp
tagliche
string
coup
law
##liegt
selekt
webc
phant
##ichtete
herrlichem
eigenstand
hauptgebaude
verschiedensten
stellte
##ullt
schwimmen
palacio
warenzeichen
##programme
enden
kompletten
kreu
traditioneller
organ
halle
sudtirol
##ziele
##fernseher
jahrhunderte
##skr
generator
##leiste
bequeme
technology
smok
visual
herausragen
centro
multip
mobilitat
anwesen
should
being
mußte
hyd
transpar
##besitz
kostlichen
thermen
dunk
argentin
feiern
datenbanken
elektronische
please
gnome
afrikanischen
spezifischen
spezifische
tennisplatz
##bestand
toiletten
brasserie
konzentrieren
juwel
keram
##partner
memor
muslim
grundlegende
meeting
tipps
gefragt
verschieben
##artikel
crowne
verfahrens
orlando
phoenix
however
thyssen
belle
binnen
cit
cert
eh
echten
eif
epu
fat
fett
fugt
heb
kg
mang
og
ps
sas
taten
tformer
##aiss
##luft
##sort
##nit
##parte
##galer
##gumm
##hagen
##hese
##dre
##cas
##ble
##erungs
##iner
##inhaber
##anforderungen
##empl
stund
##einigt
hoffen
denke
##andschaft
unmoglich
##olen
schutzt
##abend
##ught
ubertragung
essa
umwand
modulen
##sprechend
gedenken
##uchs
vorstellen
unterhalten
##anti
here
rechen
wurz
durchfuhren
verfassung
genuss
##hout
gesendet
##quellen
teat
sees
gegenseit
bestr
einzeln
ausgehen
##uba
begeg
wahre
peru
dame
erwart
hochp
lecker
learn
empfind
buslinien
clar
nott
kinderspiel
engen
heidel
basierten
skand
##fordern
##wahltelefon
verlieren
luxor
bewundern
mittelpunkt
markte
musikal
modernsten
ruinen
##gema
sports
1990
besseren
##atives
##getrank
optimiert
signalkondition
netzwerke
ostlich
feinde
praktische
grafischen
##liegende
stadtteile
kampfen
bestehende
uberprufung
drehen
##marken
campo
jahreszeit
assoc
cross
lautet
##strecken
schiffe
didn
peters
eingebettet
hubsch
chinesische
##felder
bandbreite
differ
bibliotheken
ruby
freitags
tiefe
ubrigens
prazise
kaugumm
benachricht
verleihen
begeistert
wartung
kooperation
compostela
corporation
wiredu
getestet
dubai
nbsp
ignor
##oslaw
envir
helsink
69
bb
bio
cf
draußen
ey
fiel
jard
jens
keller
now
pom
paz
pisa
sit
selt
yo
##rel
##linge
##wh
##wig
##wehr
##48
##horen
##ysen
##yard
##ßung
##bra
##62
##ernt
##inuten
##urer
##ichert
##ascht
auge
##eme
##emark
zugelassen
verlin
versamm
##oms
erden
erstell
##einrichtung
##isser
##istet
anhang
une
##ilf
schach
alic
essbereich
konvert
allzu
gefahren
gefordert
abstand
abgest
bereiten
##ibel
flag
dasselbe
geschle
geschenk
genannte
exchange
geleg
traf
etik
##formular
##grab
##anzlei
seem
koennen
parkmoglichkeiten
zweif
##richtlinien
##trager
wahrzeichen
##reibungen
poten
phase
herrscht
enough
außerordent
arbeiter
ruhiges
##geschritten
basil
angebunden
freiwill
187
##underten
ganzes
endgult
willst
erstatt
antiqu
geschaftszentrum
autominuten
dorthin
##alisieren
korrig
canc
canon
tatigkeit
personals
statist
schlafsofa
##worfen
visa
visu
deines
fortgeschritten
rucken
templ
genauigkeit
buros
erweiterten
optimierung
##holen
munz
angelegt
##iedlung
laufwerk
angebotenen
sonstigen
amerikaner
oslo
pakistan
alternativen
expensive
dorfes
legitim
applikation
normale
goldenen
unterkunften
treibersoftware
rechnen
plugins
kollegen
geplant
mexico
geheimnis
tausende
leidenschaft
serbischen
espec
##grades
galerien
mikrof
denkmalgesch
wettbewerbs
quellcode
human
erganzt
flook
gastronomie
##covery
zeigte
publikum
##attraktionen
because
lizenzgeberin
lanzarote
jugoslaw
##roffenen
83
calle
castell
econ
ecu
ff
fs
fan
gp
gov
gaben
lik
nom
neig
number
path
rass
rasse
sab
seil
vac
wolf
x2
##lers
##list
##fas
##field
##sachen
##greifen
##hi
##door
##bi
##buffet
##xx
##enken
##endern
##erkt
##ieber
##team
##eide
##ares
einb
##asis
##ati
##schul
##llen
verlauft
##ierbar
stufen
##isierungs
##ando
anlass
bezahlung
ausdrucken
##reift
scher
##rechnung
alm
uberqu
uberlegen
quark
##ingu
proph
##sprech
abschluss
##allt
neug
france
##artrockner
##verarbeitung
##plane
stadtmitte
cha
chips
##aket
geliefert
trat
think
maße
##standard
##attform
handlungen
##igerweise
wahren
branden
##sbur
leug
head
zahlung
sicherstellen
softwareoptionen
verletzung
renaiss
bewahr
william
installer
solltest
weshalb
diam
erlesen
##uffer
nachtt
treppe
beliebige
##skarten
alters
computern
erfassung
stattf
integrieren
stadium
##eep
##anced
passiert
1994
poss
##sproz
lizenzen
outlook
##versorgung
ratsam
unmittelbaren
beinahe
haartrockner
storniert
ostlichen
angenehmer
extras
sonnenunter
trainings
kalte
mindest
##produktion
subjekt
rosa
##fullt
##fully
spektrum
bestellung
collection
hoteleigene
ansprech
außergewohnliche
virtuellen
victor
syntax
tausend
intelligente
##imentary
##spezial
montags
vorbereitung
protest
complimentary
split
broadway
moskau
##kommunikation
##großte
geliebten
softwarepaten
stornierungsgebuhr
##bestatigung
framework
marokko
development
unkompl
merkmale
intuit
alicante
bart
brill
cand
cot
ec
hann
hans
happ
jog
label
mig
mix
nan
sight
then
talk
##rien
##lesen
##wahlen
##nimmt
##phen
##51
##kok
##ying
##cion
##val
##bil
##94
##90
##stall
eingef
##asi
##auten
verab
hour
##agner
ankund
##ammer
##amente
unt
unauf
beur
##ahm
altes
ubersetzen
##endienst
spalte
probe
##ivals
##icy
herkunft
##bezie
angrenzen
genf
chateau
##illo
##bles
blu
##formate
##aps
##graf
thomas
tech
marine
##kombin
##acon
bright
brachte
buchten
buchstaben
busbahnhof
immerwahr
internetseiten
nothing
langere
##problem
##protokoll
techniken
##konzept
festlegen
##aktor
bewegt
bewahren
norwegen
programmierung
across
aires
booked
##alisiert
leid
##echselt
markiert
fehlt
beliebig
westlich
erfassen
gemutlicher
konferenzraum
salon
messung
qualitativ
diskette
diskeeper
##moder
erforderlichen
magic
niederlass
##versamm
domain
milliar
same
##modus
madrids
color
elektro
grav
##otheken
voraussetzung
ublicherweise
mittags
schlechte
beziehung
errettung
trainieren
irgendwel
kalibr
partnerschaft
projektes
uberwie
##systems
jugendher
monats
datenerfassung
beruhmtesten
klimatisierten
muster
anwendungsanforderung
hubsche
##stadten
beauty
second
einheimische
##steuerungs
kommerziellen
aufenthaltsort
dorfer
ibis
arabischen
toilette
toled
sogenannte
siedlung
erfrisch
fliegt
grenzt
breitband
##kreuz
holland
verwendeten
buenos
dicke
reparatur
malaysia
bungalows
girona
##mopolit
ausgedehn
leipzig
rußland
essaou
environ
econom
74
ccp
fc
hund
iee
koh
kalk
leiten
maur
machten
mhz
obl
pk
pase
ra
rs
raff
taufen
want
##rin
##ragt
##oir
##ui
##win
##sinn
##neider
##pat
##ii
##yo
##bridge
##14
##ieder
##inhalte
##aritat
derselben
##auff
verteilen
stal
##ison
auftritt
anreisetag
##olt
furs
hotelpersonal
##osa
##usion
werten
spitze
##spreis
##ikten
##zenz
deco
manuell
manchester
##essel
##artige
armee
steh
befind
befest
##iller
gelesen
##gebieten
##izierte
##ritz
dusch
duschen
gewohnt
##utete
##klem
##arby
##ammt
##ildet
##ovic
indischen
lud
perl
##sburg
adria
volle
##lyn
strandpromenade
##swissen
soldaten
langst
langfrist
freier
palmen
kampu
naturschutz
rennen
##wohnungen
##temperatur
charge
traditionelles
##dring
feucht
chron
luxurious
gastlichkeit
##schliesslich
einkaufsstraße
salv
##leistungs
radfahren
vergleichen
altec
pools
obersten
##parks
##ifizierte
karib
mobilfunk
kommunizieren
rauch
fact
wiki
notwendigkeit
kombinieren
tranqu
evalu
aufgefuhrt
definieren
sonnenterrasse
bedienfeld
##tsein
nights
vertrauens
used
auslander
kriterien
uberwachung
ausserhalb
tropischen
schwierigkeiten
queens
##sprachige
separaten
vertrags
minimal
activ
spatere
ausgezeichneter
florida
bistro
versteck
##palette
crist
navigations
rubrik
brasilien
return
bezeichnen
erkenntnis
ubereinstimmung
urheberrecht
advanced
anschlusse
aerop
gesprach
deaktiviert
deaktivieren
unglaublich
speisekarte
conditioning
nurnberg
eindeutig
bangkok
sevilla
rechtschaffenheit
perspektive
horizont
essaouira
paseo
kampusch
77
aventura
bader
griff
ix
mauern
oc
sr
take
udev
vic
voor
wb
yfiles
##eded
##fir
##fix
##ny
##mes
##kter
##ziger
##jan
##ieure
##inav
##urft
##arium
eingeladen
einklang
derer
inhaber
##ativer
##element
##eth
stan
stick
stimmt
aufruf
anreisen
anmerk
##seh
##ilia
bearbeitet
schlicht
##uses
##ends
##angha
konne
mosche
##ications
##haltes
voran
absicht
beru
diesel
nev
##arts
##verstanden
##verzeichnis
##bearbeitung
##befinden
##utzer
##ternacht
praf
flasche
geschickt
bislang
exempl
befol
##assig
order
geback
##zuber
##altigen
zwolf
gerichtet
##izza
##wendet
schonem
gastezimmer
dunen
cool
verbraucher
##ifunktion
betreten
zweifel
ausgegeben
##ove
versicher
bremen
brenn
bushaltestelle
measur
reiter
click
offentlich
solution
##ruckt
##geschneider
bask
schwester
hausgem
renn
aufget
michael
behag
110
veranstalter
nordwesten
generieren
kanun
typischer
universal
akropolis
ruckkehr
multifunktion
outdoor
raumen
kapit
myth
bezogen
##kret
laufzeit
transn
##angeboten
##korb
logistik
pflicht
tolles
verdienen
##starke
luxushotel
datum
inclu
project
immobilie
talent
vernichten
##produkten
mpeg
bevolkerungs
attraktiv
konsole
ehren
elektronischen
regenwald
buchungsbestatigung
schicksal
implementiert
programmierer
uberrascht
zuverlassigkeit
illust
diskussionen
tschechien
##lebnis
beantworten
vorbereitet
materie
behaupten
polnischen
entdeckung
koordinaten
bronze
faq
nasca
children
algorithmus
kohlenhydr
modernisierung
begleitet
proxim
anmelden
umgekehrt
belebten
agypten
dementsprechend
erwartungen
environment
ieee
97
bahnen
cav
fische
kalten
mg
masse
nap
put
penn
sys
tank
weiten
##aßt
##rich
##woll
##ete
##europa
##finder
##fuß
##si
##sau
##messe
##59
##heben
##kord
##baum
##bibliothek
##enhagen
##eis
##eier
##aro
##antes
##ores
##orde
##eli
##schicht
zunehmen
##auschen
sieger
verur
verarbeiten
verweisen
vermittelt
##achi
mitternacht
##isen
##entum
##ently
##imes
##ehlen
##uge
##sende
##ahrungs
alleine
##spal
##ehrte
##ici
unterliegen
deck
abschn
##ume
reason
dieselbe
arzt
bisschen
##atzt
##achtigen
gelangt
geblieben
hiermit
viewer
##schlaf
##gestellte
##izit
streng
cod
boston
##attle
##idad
##fuhrtes
##acy
haute
datenuber
ausgesch
ausgaben
##zugehen
begrund
brennen
fahrten
fahrkarten
conn
fruhstucken
bedded
standen
installs
ada
poster
aktive
beschlossen
verwaltet
para
gleichnam
geschaftsbedingungen
preisgunst
skri
ausgestatte
festgelegt
norwich
erstaun
platzes
geschaftsreise
traditions
acer
wundervollen
asien
canal
symp
markus
gemeinden
baumen
few
vertreibung
##ected
besuchern
studium
konferenzzentrum
casinos
brook
universitaten
arbeitsplatz
wohlbefinden
braun
erfolgreiche
erwachsenen
viertels
foot
cds
effect
katastrop
artikeln
verglichen
erlaubnis
aufgeteilt
cold
verbreitung
verbundenen
both
1989
jungfrau
##ografen
pflege
religiose
distcc
courtyard
gezielt
maya
mayor
knechte
fordert
petit
##komponenten
korrektur
dauern
strategie
ausgerichtet
bosn
ibiza
branche
armut
bezeichnung
momentan
schreibtisch
weisheit
szene
beeindruckt
anstreng
detaillierte
initiative
allianz
hairdr
default
occup
##spartner
priestertum
ozean
unberuhr
gesammelt
provided
adults
kosmetik
zugeschnitten
meeresfruchte
smoking
different
especially
prophet
milliarden
included
61
82
ai
buh
cann
della
gps
harte
kant
kore
opf
pend
tische
tcp
##ras
##otet
##last
##larm
##wur
##eed
##ners
##pruf
##40
##iant
##yd
##cos
##ena
##ergeb
##stars
##uri
##urzt
eingel
eingehen
##alia
##atu
##hrer
stir
stift
erwerb
holen
##teln
anhalten
unein
##ebe
furcht
schrau
schmack
schritten
always
ubertr
kong
proven
umkehr
andro
gedenk
davor
vorgang
vorstellungen
##000
##ebene
reaktion
rekonstru
needed
##verkauf
arte
prado
weite
geschoss
orange
eurem
sech
search
marrak
dual
##ackt
verborgen
gewechselt
zeitungen
##klick
empor
##flogen
landschaften
betroffenen
haupte
einzug
ausgeg
##ssystemen
funk
##lieder
erwe
erwahn
##pres
##presse
ursache
bush
engagement
##liness
geschaftliche
europaer
bekannter
##istenten
haushalt
##efeld
sterben
##publ
antrieb
upgrades
westeuropa
profess
benutzeroberflache
delik
verkehrt
bauten
kosmopolit
erfasst
gastgeber
jedenfalls
wissens
##worter
brucken
messungen
##aire
oftmals
berlins
##bettzimmer
optimieren
mannheim
metrostation
angestellten
platform
##iedelt
##korper
rotar
colour
demokratische
eigentlichen
bedeutende
##bury
assoz
##gegebenen
matrox
sinnvoll
create
creative
begriffe
russischen
##ifikations
klimatisiert
tiefgarage
verpflicht
spateren
dekoriert
hohlen
differenz
waldern
debatte
vietnames
reduzieren
nationalparks
effektiv
prinzipien
großartigen
physikal
##dienstleistungen
though
bezaubernde
herrenhaus
megap
ungluck
gepruft
hunger
anerkannt
empire
liebhaber
symph
library
course
externen
##spezifische
alpha
religiosen
charmanten
marseille
document
betreffenden
skigebiet
bewußtsein
##bestimmungen
beschwerde
osteuropa
rinp
ionesco
afghan
peking
helsinki
jenseits
erstattbar
kohlenhydrat
assozi
aan
bri
bast
cable
fj
gg
hay
james
kites
lom
leh
m2
nennt
nizza
sad
sac
tert
ult
winkel
##ret
##welle
##famil
##sign
##master
##55
##gb
##gerecht
##din
##digen
##cad
##ced
##cont
##bot
##brucke
##31
einverstanden
##orper
sieh
siemens
verteil
vermitteln
versenden
vervielfalt
##achak
erzahl
##einstellung
aufer
aufrufen
aufeinander
anleg
anpass
anpassen
##ebung
##utlich
##ahme
auskl
##adas
ubertrag
ubersetzungen
gefol
vorschlage
unterhalb
abger
arro
angl
anget
liedern
prix
##hohe
plas
excl
serben
naht
nahmen
traff
##zustand
##grammen
barcodes
1950
##fleisch
betreiben
betreiber
fruhjahr
confort
heutige
sicherzustellen
share
schlimm
notigen
strandhotel
##ansicht
einfaches
##konferenz
##konfigur
disco
disney
getragen
kleinste
bildungs
##eldet
cany
beruht
##stehenden
160
treu
##anismus
iran
##ecch
generiert
typen
130
seitens
akvis
##ancen
1992
updatestar
herausforderungen
angewand
angewiesen
continental
novella
wintersport
opern
instrument
perfekten
mitgliedschaft
anspruchen
ublich
schlechten
beitragen
montage
common
malerische
navy
##shire
erlebt
matrat
matrix
kompatibilitat
uberzeugen
rosen
wohin
jeglicher
gewinnlinien
college
setup
eintrittskarten
objekten
ausgerustet
##basis
beteiligt
bosen
tiefen
brandne
shows
latex
rambla
princes
european
gedachtnis
enjoyed
theorie
mountainb
raucherbereich
benutzerdefinierte
vegetation
##zipl
pizza
effizienz
photoshop
year
hallenbad
kontinuierlich
komfortables
ziffern
##bished
language
caye
valley
fokus
spatestens
andorra
teneriff
refurbished
keramik
clarion
associ
bbc
##versammlung
uberwiegend
cos
eos
lind
lac
lohnen
lanc
mut
pam
raus
rings
six
tall
weh
##oun
##ueller
##leiten
##wun
##fot
##sem
##nc
##mine
##pd
##geln
##hield
##kul
##dom
##dha
##ymouth
##zwei
##zeite
##vide
##stisch
einwand
einrichten
##itation
##terie
##roler
##irekt
##egte
##egend
united
##olis
bekl
##imo
ausgebaut
ausrustung
##read
##reff
alc
##ingo
##ationalen
##head
mov
unterb
unterdruck
##weist
##ummel
berichtet
##oger
##elta
##elturm
placa
exception
##uhren
cham
##aking
trin
offnungs
benson
beneo
##zubringen
zwanzig
geringe
sequ
tagungen
marques
maritim
strahl
codes
##etta
solle
##gangen
gewinnt
gehause
elementen
handys
einziges
ausgest
##sson
128
##usses
reizen
verwaltungs
parque
##aumt
metap
funktional
##probieren
verlag
verlauf
##konto
##glas
guad
##wohnung
problems
erheben
ortlichen
bildes
drachen
charter
gefallt
half
beheben
behorden
behilf
renoviertes
##flugel
reichlich
punt
herunterzuladen
bilba
entspannenden
balcon
supermarkt
weitlauf
finde
financ
kopie
kopenhagen
carmen
bereitstellung
glaubt
fehlermeldungen
##sprogramme
herzustellen
geradezu
fitnessstudio
jeweilige
##versionen
effekte
japaner
tiroler
netzwerkkarte
samstags
notwendige
empfehlungen
##fahig
grenada
praktischen
aufgefuhrten
workstations
unabhangigen
umfangreiches
vorhandene
ausblicke
turkisches
kalorien
traumhaften
legend
viren
inhalts
cafeter
osterreichischen
milch
wanderungen
##fertigen
horoskop
salzburger
forderungen
islamischen
sohnes
author
gultigen
##verstandnis
niedrigen
feature
kenntnisse
gnade
walder
lissabons
##gesetzte
##information
kriege
ingles
verhindert
stabil
synthet
bevorzugt
latein
anweisung
waschbecken
##gebuhren
flachbildschirm
robot
zertifik
realisieren
unzahligen
pferde
umgebungs
frequenz
erfreut
gehobenen
sowjetunion
stoffe
##ladung
diskutiert
beeinflusst
athens
ordentlich
##methode
erledigt
pantom
geschichtstr
teufel
##farben
solidaritat
highlights
##icense
sockel
young
gelegentlich
ecuador
renaissance
sightse
ccpa
berufs
provence
79
bac
ct
db
fung
fine
finger
greifen
hamm
hielt
hano
ig
kino
ketten
lit
mull
migr
nahrung
pag
pac
rig
rut
ty
table
upl
vgl
wach
##nten
##iot
##gers
##kategor
##dlich
##zo
##cias
##vid
##bs
##29
##99
##39
##37
##enke
##inrichtungen
##inted
##onial
##streifen
##arden
##alb
##aufer
##ierer
##ierbare
##ierendes
##agent
impf
unuber
beauft
ausstellungen
schro
##ading
soviel
##rechten
##merzen
##aba
almer
albert
##uggen
gekl
vorkommen
##ope
##ertal
abkommen
herab
##istic
kling
liebes
##auss
presen
verfl
##uckt
como
neust
gelang
offline
##quipment
hinauf
maest
stren
strahlen
##ohnung
haut
##liebe
config
buchern
hochster
busverbindungen
phuk
meta
strandes
solo
songs
europaischer
zusammengef
##onente
malware
gotter
getroffen
modellen
jedermann
krem
renovierung
irr
volksw
partic
studie
bali
zentralheizung
##weisungen
liegenden
einmalige
stadter
radik
diskurs
vergleichbar
dahin
speises
italienisch
1993
##viertels
daraufhin
oberflachen
niederlage
##desk
konzerte
merid
comple
projekts
##regierung
erschien
notwendigerweise
sandwich
mußten
ordnungs
suchmaschine
suchmaschinen
wintergarten
dienstleistung
hygien
3000
buddha
evp
bukar
ahnlichen
singap
unabhangige
identifizieren
bayern
liebevoll
##anbietern
kaufhaus
symbole
positionen
450
sofitel
komplexen
erdb
schiffs
laman
großzugig
##fullen
bestellungen
truppen
telephone
verbreiten
prima
kulisse
padi
ausgeliefert
astoria
misst
missb
polizisten
##ehorige
gewohnlich
eingeschrankt
erzahlen
mobliert
##instit
##sammlung
teilnahmeberecht
bezaubernden
verbleiben
anspruchsvollen
abweich
##wissenschaft
einschrankungen
pinien
richard
kriminalitat
pulsierenden
katalog
maisons
brief
terrace
##dienste
##bewegung
geldautomat
##fehler
seelen
bmw
gewahlten
sebast
kathol
pictures
skandinav
toledo
measurement
installshield
hairdryer
azer
bom
bag
bah
ck
cord
cards
dj
dicht
fing
feine
gam
han
hack
kaut
kinos
lago
nato
och
ohr
pfor
pav
pull
pisten
sund
tsch
vien
weich
zelt
##aver
##lange
##nommen
##niveau
##mond
##42
##heil
##keller
##cio
##onia
##stunden
##aring
##asa
##astet
##elung
##etv
veranderung
mitnehmen
erbe
ermaßig
erlernen
##dere
##irkt
aufreg
annehmen
annah
unbesch
##ologen
hotelgaste
##ruh
##level
werfen
moh
##spark
##rain
##halter
unterricht
##antage
apoll
beraten
republ
manip
klang
durchwahltelefon
##aufgaben
weiße
##bars
geschm
geschichten
neuigkeiten
##bly
gebunden
abermals
##anzeige
sever
marien
marchen
stress
gewid
##klassen
gras
weltweite
bestmog
fruhling
##ovo
brut
uhren
heft
shangha
herrlicher
offentlicher
mongol
policy
##kunfte
##geschafte
##strahlung
skip
using
bildung
dram
dringend
diente
dikt
canoe
wohnsitz
telef
designed
##strate
gasthaus
knopf
vermutlich
technologies
##rena
speicherung
kirk
regelmass
labor
wunscht
aspekt
kostenloser
downloaden
##laufe
angelegenheiten
dokumenten
staying
anwenden
laufenden
qualifikation
##zusp
werkzeugen
evolution
graz
##ijk
frankreichs
spaziergange
planet
therapie
##jenige
bayer
speicherplatz
maßgeschneider
expect
granada
behandlungen
applikations
verzichten
exzellenter
overlook
bestatigung
russische
ewige
##saal
##ifikationen
three
angenehmes
secure
devfs
abhangigkeit
versuchte
judische
verfolgt
konflikte
virtuelle
juan
annot
haltestellen
engineer
rumanien
froh
eindrucksvollen
gepflegten
concier
grundlegenden
untersuchung
nachfolger
windsurfen
wohngegend
kostengunstige
gegebenenfalls
bewusstsein
campingplatz
ubersetzer
requir
having
asiatischen
erleichtern
konzepte
vergroß
renommierten
malta
hospital
pierre
##sicherheit
aufregenden
verbindungs
simple
gemalde
passagiere
schokolade
wirbelstrom
##where
raffin
ludwig
afghanistan
ggf
traffic
behilflich
erdbeben
azeroth
bien
ell
gimp
ka
mare
maust
nu
ou
sender
tz
tenden
wiz
zonen
##ral
##tier
##ward
##wenden
##winkel
##eur
##equipment
##52
##gasten
##kunden
##cus
##bons
##61
##eim
##eise
attent
einblick
eingegeben
##anze
##ali
##ortes
##emasch
##terung
verkl
vervollstand
##ierst
mitge
aufsicht
aufwand
annahme
anlegen
##amo
##user
##unscht
##estic
uberd
uberlassen
##step
konige
spur
ums
umsteigen
umkreis
entf
gewerb
gearbeitet
geograf
##hall
vorschlag
##ophen
abst
absch
abgeb
abteilung
abgelegt
herstellen
reader
warnung
##arth
klin
klare
anger
ließen
change
chief
forest
blitz
orch
love
benj
##werter
hinab
gewinne
kod
##ments
##pper
##tran
entwurf
##lieb
erwahnen
adri
shell
internen
interaktiv
rese
immerdar
monument
monaco
notre
wiedergabe
geschaftlichen
grundlagen
skal
kamer
##handler
gotischen
hilton
gruner
draht
nationalstaat
##anted
academ
asap
medina
gefang
mitteleuropa
markieren
bestimmung
fotografen
reichweite
puzz
pcm
switch
cheap
##baumen
kopiert
##works
patentrecht
wohlf
sommermon
ruckseite
attractions
optional
motto
mobiliar
christian
slot
philipp
stockwerk
stornierung
perfekter
kontrolliert
##elete
mochtest
charaktere
schweren
prasentation
commons
villas
##ground
mormon
lieferumfang
##gestaltung
distrikt
kennenlernen
oliver
militarische
##brochen
segnungen
vatikan
verstarkt
evening
gastfreundlichkeit
beteiligten
effizient
restauriert
florence
halbpension
serbien
exportieren
diversen
unterhaltungsmoglichkeiten
looking
trauma
bemuhungen
personenbezogene
zeitgenossischen
##schiffe
wiederholt
fußen
meetings
ereignisreichen
##summe
gastronom
appartments
arrival
arrived
erkundungstouren
##gemeinschaft
kartoff
yachthafen
diagnose
spektakularen
##organisation
ordiniert
patentanspr
##mobeln
converter
fuhlt
familiare
teppich
kreuzung
eyetv
antiquitaten
govern
nevada
gleichnamigen
rinpoche
gefolgt
offnungszeiten
financial
almeria
sebastian
shanghai
beb
bass
ces
cultur
case
eck
ecken
foll
festen
hass
kanzlei
lem
letzt
license
mez
niet
ponte
rm
reine
runter
sus
tauf
vierten
##rome
##leich
##lingen
##wirk
##fle
##systemen
##map
##80
##gast
##hip
##bod
##inte
##esc
##stay
##arisch
##armen
##ario
##asien
##anschl
##alm
##itis
##elementen
##schon
##schure
##schauer
verr
veran
vereinen
verona
vermitt
##oma
starb
##bericht
anp
##dex
unend
##old
##rupp
ausru
ausbe
ausreichen
schwert
##admin
sopr
##unes
alberg
alham
ubers
##anges
spar
entl
##ivir
##ffer
##spunkte
vorort
vorlage
##edition
unterbringung
absatz
##weilen
herkomm
##bene
warschau
##ielte
ground
liege
##ausweis
steph
##aufwand
weiss
flachen
großstadt
plymouth
extern
serielle
befand
roul
euros
##anke
##cept
barm
bargeld
##werbe
##ized
strafe
##flie
##phones
parkhaus
grange
##peria
wahrhaft
##landes
vielfach
weblog
##volles
herrlich
metern
stellung
freundschaft
##osev
basierend
seitdem
##handels
technischer
historic
servern
touristische
unterstutzten
##ained
ortschaften
nationaler
dienstes
gartens
ash
bademan
mittelklasse
aufenthaltes
trek
treuh
bauhaus
##rats
reiche
franklin
vereinten
agypt
partnern
statten
erfinder
kanaren
##maßnahmen
computers
salou
zugangs
organisierte
stadion
akan
arbeitgeber
taucher
passieren
##bedien
produktpalette
magn
labwind
spezialisten
angekommen
angekund
angeflogen
motoren
merk
japanisch
bankett
kapazitat
erklarte
staatlichen
industriellen
kolosse
transaktionen
stockwerken
##fahige
geduld
zeichenkette
kontrollieren
grafische
erfullung
bugelequipment
thermo
resorts
pakist
botschaften
##anbul
aktualisierung
camera
application
ursprungliche
westens
flexiblen
falschen
schriftsteller
zustande
oliven
situationen
komplexe
jugendstil
ansichten
gespeicherten
gemeinschafts
##script
##screen
investition
gultigkeit
niedriger
kundendienst
uberraschen
cookie
sandstrande
##automaten
##clubs
bevorzugen
kuchenche
bedurfnissen
riesige
kontinentales
unterschiedlichsten
wesentliche
alkacon
points
minderheit
tastefully
hugeln
##deckung
hitler
varianten
feiertagen
untersuchungen
##bourg
##bourne
kulinarische
preisgekronte
preisgekronten
##medien
schnee
diskutieren
##kenntnisse
seminare
pedro
vergroßer
places
vereinfacht
spektakulare
imperial
komprom
abtast
exquisite
blanca
student
selbstand
womit
asked
neooffice
webcam
teatro
kinderspielplatz
heidelberg
pombal
gpib
hannover
irgendwelche
##spalast
brooklyn
teneriffa
meridien
bukarest
vienna
gewidmet
annotator
research
asap2
bademantel
labwindows
71
a4
a1
a2
ade
agr
aix
bull
born
bios
cin
dreib
dingen
dicken
delta
fish
galt
gym
hang
jaca
kill
kain
kissen
mile
neb
nerv
pda
ppc
rie
riesen
save
sara
tant
traume
wm
wem
winz
wales
wuchs
##ty
##lop
##lager
##wette
##mir
##pert
##king
##kuche
##kopf
##dn
##day
##enner
##stabe
##alog
##altern
##orch
##oret
##elekt
##schaf
##igo
##igan
##iern
##aged
aufzunehmen
aufzeichnungen
anrufe
##ami
istanbul
bezahl
##reens
##ussten
##unsten
umso
##sperson
##splan
nachzu
##lenden
dazug
unterteilt
deal
rekord
fren
fragt
##artigen
##forge
durchgang
##raut
##riz
##astricht
geschirr
##illigung
suf
bloß
##pflan
gelingt
rote
nahere
glass
gebeten
##grenze
##erenzen
coast
bogen
gehe
auton
emails
weltbek
beta
betont
betreuung
betrug
handlungs
handhab
##mitarbeiter
fahrkarte
fahrrader
function
##ordnen
contem
welten
damen
belegen
cluster
##azione
shamb
interne
phar
phone
solches
zentren
geschaftigen
##ieller
bekamen
angeblich
##iety
##ologisch
freizeite
arts
2010
rechtlichen
wichtiges
technisch
##rankte
festivals
usr
kompakte
kreative
diensten
##sprung
markten
erstens
sudost
designs
staates
tray
anbau
areas
veranstaltet
christen
chef
sms
digitalk
visum
1990er
##sprodu
##haltestellen
herzlichen
multil
##tostay
signalen
##fallig
professionell
gesellschaftliche
zukunftigen
grenzuber
logo
steuergerate
350
identisch
eigentliche
zweitens
expected
luxurioses
farbt
kritische
schmutz
limited
schwarze
wanderung
jemals
##kurse
timer
shuttleb
##bewusst
queen
bathrooms
runs
untersucht
prophezei
through
verweigern
teilnehmern
fremde
british
investitionen
atemberaub
champagner
addition
temple
verhaltens
offering
television
wayfinder
waytostay
buchungsanderungen
ubrig
erlautert
debian
jersey
nachbarn
spezifikation
solaris
verspatet
ausgelegt
außergewohnlichen
stabilitat
faszinierenden
jesu
moblierte
rustung
##materialien
abwechs
priester
inspiriert
wiederherstellung
kaufer
##verlust
fuj
okonomischen
prostitu
benutzernamen
kulinarischen
banus
wolken
request
haustiere
strichcode
befreiung
magazine
furnished
kiew
favoriten
bahnhofen
menschenkindern
eiffelturm
anlasse
tampa
dslr
harbour
mxf
protot
liked
wolfgang
moschee
occupancy
opfern
professor
tertull
bilbao
hanoi
maustaste
benjamin
academy
dreibett
contempor
freizeiteinrichtungen
86
boh
bid
cel
centrum
cup
cvi
dimension
f1
gard
hes
haufen
hash
hunderte
kuhlen
keep
male
oem
pi
rc
rent
ruhr
rica
sz
skl
slo
tg
wahn
##ae
##aim
##oge
##otes
##utel
##uben
##less
##litz
##fan
##ns
##nas
##iß
##hoh
##kunde
##yg
##300
##esp
##stufe
##ury
##urter
undelete
eintragen
##itiv
##schte
##schuld
##igu
##ettern
zus
##tere
##omo
staur
storen
store
erzahlt
##irs
holle
##isierter
##andes
anreg
anteile
##enta
bewertung
hotelmitarbeiter
##rus
ausfahrt
ausrichtung
schlich
schalter
schrieb
##adar
##redu
##afel
##absicht
##abhang
##lekt
##endsten
spart
umzu
##sprecher
##edy
##edes
abstra
repl
reprodu
recovery
manor
neut
never
nearby
##ples
##ausfluge
##aufnahme
fluß
##hofer
gesenkt
##aku
##quer
##altar
gereinigt
thb
##geste
##ization
##folio
maastricht
zeitschrift
isa
##standards
elite
##phase
landlichen
betru
##fuhrungs
##stucken
##artete
lade
const
##landern
fluggesellschaft
leere
worauf
reib
aktien
sicherer
produzenten
beschreiben
solch
song
heisst
##gelande
fuhrungs
##pointed
natural
##konvention
ferienort
somet
##nahm
dock
##loc
kreativ
bedeut
leitet
aufenthalte
bestimmtes
ports
nachtruhe
halben
fehlern
renovierungs
designhotel
familienhotel
175
gegangen
gegessen
kommenden
ruft
##ska
nordamerika
playliste
##leiter
doppelte
castel
knoten
carlt
einmaligen
1995
besseres
##sproblem
herzliche
labels
##design
##gets
themse
geeignete
weinkeller
eva
aufgezeichnet
definitel
bemerk
verdopp
anzupassen
method
eigentums
errettet
##cci
##gefunden
kalachak
maßgeb
berechnen
philosophen
easily
terminals
falsche
schriftliche
einwilligung
beobacht
##uku
tischten
swimmingpools
auszuwahlen
motorrad
korrekte
elektronik
gefahrlich
borde
veroffentlichten
semant
##player
##opfung
vous
niederlanden
hochstem
##palast
mittelalterliche
##gesetzten
gegenwartigen
majestat
##brun
kreuzfahrt
kochen
austral
zuverlassige
##festival
erzielt
verwandelt
retiro
veranda
bugs
skyline
wilhel
rustik
those
##wiegend
accounts
wunderschoner
realisiert
konstruktion
behaup
holly
intensiv
benachbarten
vulkan
verwendete
registerkarte
##mittee
quartal
ciud
kohlenhyd
##texte
departement
befreien
##methoden
renommierte
interaktive
interaktiven
vertriebenen
furnish
muhelos
beheizten
lounges
angefangen
donnerstag
officer
bischof
plastik
komponisten
steigern
##terminal
captain
##sburger
stattfindet
##sprozesse
happy
illustr
markusplatz
ausklingen
association
##wunsche
balcony
cafeteria
sightseeing
uplo
maestro
gefangnis
follow
roulette
shambhal
abwechslung
stauraum
carlton
definitely
amen
cc
cow
css
ef
ek
feinen
gare
gibr
his
jr
joy
kugel
kalender
lat
pots
puffer
qm
sir
summer
tft
uv
vil
vecch
zand
##riere
##rahmen
##oa
##typen
##ußen
##laken
##wall
##wesen
##sg
##pi
##hos
##hart
##kab
##viert
##vey
##65
##char
##iede
##inas
##sto
##stoß
##aries
einstell
einladung
##asie
##anleitung
##orm
##ori
##itacion
##etung
##auk
verander
##lichung
##berichte
erteilt
anzie
anrufen
anliegen
anker
imb
impos
beten
bedenken
beachtung
ausgestellt
scho
schme
schaffung
schreck
##ades
##sender
spot
##anntes
prob
umkehren
moun
entpack
##icient
geom
gezahlt
##rays
##uls
##ulieren
unternehm
unterliegt
zurecht
reach
##verhalten
prager
stadthaus
flusse
##rium
##erechnet
##astisch
gesichert
committee
befreit
chancen
##uhn
suße
blatt
blatter
##aki
##pfl
geleitet
ortes
rohren
lockt
##apter
##apolis
barbar
##wertes
gerau
things
teurer
##anzahl
seattle
hinder
marco
bod
##self
gramm
##ubt
begleitung
##iertem
102
lubeck
damal
leeds
works
belegt
heck
linz
zahlungen
monumente
verkunden
bahnstationen
basieren
spezifiziert
schwere
zusammengestellt
bestehend
going
kompletter
komponente
drag
traditional
##bogen
leib
##undeten
newcast
zuruckkehren
einzelheiten
##ampe
treppen
##bringt
beliebtes
screens
tatigen
##update
doppelt
##ronik
kopien
reserviert
verkehrsgunst
varna
passeig
zielen
##rechter
paare
netter
aufzuge
teststand
eurostars
##ifizierten
erweiterungs
avant
##uzzi
angesprochen
##fallt
franzosen
##gehenden
katzen
erschaffen
enthaltenen
gesetzes
lizenzvertrag
industrielle
anfangs
##statter
zukunfts
fuhrender
praktiken
fully
##othek
peace
wandel
menschliche
menschheit
großtenteils
frankfurter
error
behandeln
verzwei
lima
bedrohungen
einwander
geltenden
erneuer
erneuert
trium
triomp
##anwendung
bewegungen
##uropas
verweist
##position
bisherigen
primar
flora
important
datenerfassungsgerate
dynamik
verfolgung
positive
schauspieler
konzentriert
stilvolles
siedlungs
princ
friedlichen
gangigen
drittel
regularen
eindrucksvolle
muslime
analogein
gepflegte
harmonie
umgebungen
spannung
composite
kompetenz
mitgliedsstaaten
viktorianischen
erleichtert
beherrscht
mathematische
strichcodes
watch
reagieren
welcoming
durchsuchen
pxie
setting
auseinandersetzung
csv
ericsson
hulle
repositories
genehmigung
##uminium
weltberuhmten
stoppen
stylish
certain
##galerie
hochpust
kaugummis
basilika
statistiken
scherben
sonnenuntergang
anstrengungen
geschossiges
megapixel
guadal
zertifikat
speisesaal
wizard
alhambra
ciudad
furnishings
shambhala
gibraltar
triomphe
81
aur
baut
baker
dart
ez
eit
eix
fetisch
gange
gift
hl
kand
kra
kult
mast
mache
mauer
mxi
qr
rast
rav
setzte
viv
won
zo
zi
zen
##rem
##tur
##uy
##usche
##lv
##lein
##lings
##web
##wande
##etent
##sver
##nutz
##53
##ih
##iq
##hundert
##kka
##dig
##buh
##chtes
##chner
##eiro
##estelle
##onischen
##arien
einander
##assten
##anteil
##oro
##ather
##schel
##schaden
##igar
##etischen
mitzu
ermitteln
##agung
aufweisen
anne
ankommen
anblick
anleitung
anfangen
uno
unschlag
schien
schalten
##osh
##mere
##mern
##ehand
##ehnung
##abilitat
alben
ubergang
##ingungs
##ationale
allows
umgehend
##sprechen
##speisen
##speed
##iklop
vorlauf
vorliegen
vorgeschlagen
vorwiegend
##ulin
device
abc
realen
##geord
fresh
##plein
kletter
##ausflug
priklop
##aufbew
stadtgebiet
fly
großraum
genfer
pln
jahrest
rod
##checken
loop
louis
gebet
thin
##izien
seo
##acken
gewachsen
gegenst
##aces
zweier
handlung
laß
##demokrat
indische
brem
brachten
fahrplan
congress
teils
left
##zeichnisse
##cts
##vollsten
kurve
hauptplatz
immerhin
meint
##streit
##spielung
freiheiten
schwache
spielzimmer
##projekt
##profil
##handlungen
folgend
ferienanlage
bewaff
##temp
antis
antik
model
##drom
airways
korp
kunststoff
kunstwerke
kunstwerken
wohnviertel
##etermin
bestimmter
##reisenden
170
trade
##ragten
nordwest
besuchte
erfahrenen
##rollen
erfindungen
entspannende
##schließt
computertom
bruch
messgerate
offener
regelung
##rechner
rucksicht
magde
interessieren
interessanter
reina
durham
multit
output
erober
danemark
angesicht
lebhafte
twg
##gehende
angelegten
erholsame
geeigneten
rather
anwalt
anwendern
laufweite
panel
panason
anfanger
professionelles
hyper
kaffeemasch
laser
schulungen
umfangreich
ausgezeichnetes
schwerpunkt
behindertengerecht
stadtteils
osman
irgendwo
##begriff
patienten
ernannt
ernahrung
##buro
virus
mittwoch
auslandische
explizit
verzauber
flexibel
vernichtet
beobachtet
scheinbar
1967
zeugen
zerstoren
thre
konsumenten
record
krankheiten
afrikanischer
receptionist
diffic
##anspruche
dynamischen
unvergesslich
gipfel
rontgenro
##basierte
oriental
midd
needs
ausfuhrliche
illeg
##voort
sonnige
exportiert
##messung
leistungsstarken
schaltflache
tomtom
county
thought
aufzubauen
theatern
echter
strategischen
evangeliums
uppigen
prestige
einschrankung
fuerteventura
wartungs
idyllischen
krankenhaus
viktorianische
prioritat
enorme
lyon
bahnhofe
offenbarungen
erfrischenden
titan
connection
unerwunsch
copystation
##kshops
slowenien
jahrzehnten
akademie
zerstorung
tokyo
without
sponsor
wurzeln
signalkonditionierungs
zweifellos
cancun
templates
munzwert
seilbahn
uberqueren
##klemmen
salvador
typischerweise
uneingesch
angewandt
kaution
mohamm
french
##pflanzen
tischtennis
bordeaux
triumph
scherbenwelt
eixample
panasonic
eee
eads
gom
gil
guggen
hem
hunde
kuch
kitz
kings
let
laur
lane
lots
mr
maut
morg
nag
nano
numer
rte
rss
sien
sunde
ssl
tir
tip
ves
wahle
wanted
yog
##ress
##rache
##lion
##lim
##fers
##fanten
##su
##set
##mi
##44
##guer
##hut
##ves
##brau
##68
##enten
##erin
##nder
##eites
##stal
einl
einchecken
##ased
##anch
##anche
##tend
inland
##igste
zugewiesen
versam
##rose
sto
stille
##bereiten
##beruf
hold
hours
##agers
##ischsten
aufw
aufhalten
aufbauen
images
##ento
##iler
##ildeten
##olfen
##imer
aussen
auskunft
ausmaß
ausdauer
schei
schild
schopfer
##adischen
##adies
##rechn
##usa
aluminium
##lehrer
##steil
kongr
konfront
##annon
proben
entr
##sparte
##iki
amber
vorab
vorbild
vordefin
untereinander
##istisches
artes
arrays
lies
liest
prices
habitacion
genossen
##how
##hofen
exh
extens
neuem
##illen
suit
subt
##mech
blieben
##pfleg
gelb
personlicher
personlichkeit
personlichem
mehrwert
lock
##qual
##grenzen
##schloss
thai
##gebau
##gespr
hinten
hinweisen
geheil
weitergeben
weitergegeben
##stands
##flucht
lande
##acas
zweimal
einzahlung
versorgen
versicherung
brah
conform
teilt
standorte
webserver
instant
fluggesellschaften
hochmoder
lex
linke
shirt
shannon
interest
##ichteten
beschl
bescheiden
privater
bereichs
gleichzeit
arbeitete
gelegenes
freigegeben
seither
paler
palau
ohneh
zusammenfassung
malmo
##werks
blickt
##rankungen
normen
does
garder
garni
antlitz
automation
kulturell
##mosphare
stars
whisk
zuruckzu
prozed
ungult
regionaler
michigan
##stehende
##lana
sudwest
##brett
streaming
##upft
nous
ruben
sankt
netzwerken
rundum
balk
appell
wertvollen
##bildungs
carl
einmalig
##ators
seitenstraße
italiens
1991
##freundlichen
santor
deinstall
zulassen
testreal
tempo
heilung
danke
danken
japans
company
banking
corre
corner
freeware
erkenn
verschoben
transl
transaktion
bonbons
login
umfassendes
operation
wenigstens
##ocus
freizeitaktivitaten
albuf
californ
flexray
residencial
blogs
1985
jungsten
camel
dokumentiert
worth
photo
aufmerksamen
bedrohung
jemanden
galway
tropische
haufigsten
##streffen
universitats
kompatible
reichhaltige
guesthouse
1939
##ipped
steinberg
##scape
konsum
eingebunden
##archite
separat
jeglichen
investieren
ultra
krankheit
skifahren
360
juristische
importieren
erlebnisreichen
asthet
rontgenin
##personen
stucke
midi
moblierten
fließ
tschechische
sortiment
mahlzeit
prachtigen
beantwortet
verursachen
synchronisation
analysieren
president
nachhaltige
aerob
summe
verleiht
drittanbietern
augenblicklich
prestig
callback
erfreuen
etabliert
jackson
pizzer
##technologie
seminar
eingab
destin
faktor
relevanten
warteschl
nazi
vordergrund
welcome
##walder
beleuchtung
mailingliste
alexanderplatz
container
##kshire
activex
rabatt
kairo
leckeren
sperr
suppl
firewall
channel
gigant
gallery
ps3
petersburg
etiketten
jugoslawien
quarkxpress
oblig
##oires
dieselben
multifunktions
buhne
canyon
phuket
pforten
ermaßigungen
contemporary
upload
potsdam
newcastle
##aufbewahrung
kaffeemaschine
ohnehin
617
buck
buss
cv
cms
dog
eat
epo
earth
fassen
freib
glen
gib
gfk
haz
hinge
jub
jorge
kb
kass
krak
mc
mes
map
matt
member
ny
nvid
ora
ofen
porn
porte
pyr
rud
rief
sug
sendet
setzten
tieren
vend
vall
vog
vila
x3
xpress
zadar
##oop
##mah
##pan
##pap
##hers
##horn
##kit
##kasten
##krupp
##dest
##zicht
##vari
##ieß
##ietes
##iefen
##onas
##stool
##sturn
##urb
einsetz
eingest
einstellungs
##asp
##asste
##anik
##anile
audit
##atischer
##atown
##eliegen
##emedia
zuw
voneinander
mitunter
stuhlen
##eint
##einheit
holoc
##agne
aufwend
aufstieg
aufrechter
##ameter
impro
unangen
##ebar
beend
beweis
schatze
desc
##ree
##usco
alg
uberland
demut
quant
##anni
##spur
##uchtet
vorsatz
vorzunehmen
dete
deckt
deep
##anta
berater
rez
##beutel
angabe
weimar
stadtrand
exe
##uhrung
come
neuere
befurch
##illy
##assador
glet
##hersteller
thank
##gebir
freut
freud
streben
##etti
boy
gewand
gewiss
gewisser
weiterentwick
##runden
landhotel
##tellung
zweites
##arteten
haup
einzut
einzus
einzul
ausged
versorgt
teilzunehmen
##ußte
standorten
entspr
hochleistungs
workshops
beleid
belgien
shared
eigenschaft
##mail
privacy
##ipedia
##frag
verschiedenste
verkaufer
gleichheit
nutzliche
##axi
##strahlen
schwachen
ferr
##gelegten
rechtliche
historisches
##konz
saunen
menschenrechte
tours
schnellsten
fußboden
getotet
installierte
upon
bildschir
modifik
programmieren
bedeckt
canopen
medik
relais
while
wharf
rezept
versions
firm
##fernsehen
modernste
scsi
englischer
##glieder
nordosten
vereinbar
##hausen
edlen
wirklichen
wirkliche
sportarten
vermogen
##atorische
universums
individual
individueller
offenbart
arbeitspl
ambassador
##modulen
einzigartiger
brauch
kostenfreier
ave
unverm
##marsch
##gehoben
complex
grossten
erobern
wikipedia
angesagte
##jahrig
erkennung
redaktion
verschm
erreichte
suchergeb
transform
vorteilhafter
gesellschaftlichen
eingerichtetes
konigreich
feinsten
working
ahnliches
distributionen
pfund
pflichten
kostliches
##elev
anzusehen
simpl
simult
turkische
zwecken
backend
irgendeine
speicherkarte
prasentationen
include
aktualisierungen
valid
ville
romantisches
milw
billiger
sorge
campanile
goldene
distanz
zustandig
jugendliche
1968
militarischen
eingangsbereich
segeln
initrd
1938
1933
parametern
steinwurf
auszufuhren
motorsteuerungs
entscheidend
betreut
korrekten
separates
verkaufs
##ografie
recei
besteller
schicke
zugeordnet
wissenschaftliche
versteckt
trendigen
aussagen
hochstwette
zuverlassig
chiclana
brasil
gefuhlt
told
authentische
princess
miß
ngak
##apeut
formulare
wachsenden
frost
churchill
gesprache
laptops
fabr
letztere
verliehen
nahverkehrs
anstren
spannungs
leerzeichen
beeinflussen
corporate
luzern
nero
chinatown
astronomie
alliierten
keinesfalls
diagnost
vereinfachen
kummern
eingetragene
##gespielt
michelin
exotischen
zugriffsschutz
besatzung
besatzungs
verknupf
energy
irgendeiner
ausgetauscht
pyrena
tageszeitung
kunste
couple
transparent
thyssenkrupp
nottingham
endgultig
denkmalgeschutzten
miguel
eingefugt
proximity
##fußboden
sympath
bosnien
marrakech
##familie
plasma
matratzen
punta
bahia
qualifikationsturn
overlooking
engineering
##liebhaber
letztlich
sopran
albergo
##reduz
kalachakra
amenities
princip
magdeburg
difficult
mohammed
kuchenz
holocaust
pyrenaen
94
aar
akte
binden
cart
cip
dim
fem
gy
gur
gust
girl
haß
kast
lord
lump
meilen
nou
oak
phr
pont
rimin
sb
segel
tischen
ud
zell
zirk
zagr
##ao
##tour
##uan
##ually
##wungen
##ecke
##faktor
##sucht
##mm
##meter
##gage
##kas
##kamp
##zucker
##cre
##camp
##cca
##vol
##bah
##erklarung
##iegt
##eiß
##eiert
##eifen
##anomen
inspekt
inbetrieb
##atic
##schild
##emon
zuteil
zufolge
sieb
##aching
##rob
stich
sturzen
##irtschaft
##agern
anf
anschauen
##aman
##egung
##ota
unf
beweisen
bewertet
##imatis
hotelgebaude
ausschliesslich
ausprobieren
##reitet
schienen
##steht
konkre
allow
allmah
nachstes
##ikultur
unternommen
able
##umpen
##neys
appro
zurzeit
rep
##egene
##egenheit
##esseln
##ells
##elli
frist
##artig
##verg
arme
##ierender
##aufnahmen
flat
##rian
##ription
geschah
geschatzt
gene
##hofe
exakt
jahrige
neusten
befrie
cher
##ayo
gelost
orangen
rohr
trink
musli
lost
##wertungs
regent
boote
gewann
gewasser
gewiß
gehorte
weiterentwicklung
gemietet
parker
landhauser
weltmeister
beton
##odes
unsicher
datensatze
lav
##onds
##zugen
versorgung
125
brett
brenner
fahrstuhl
select
bedanken
bedrang
perio
entspannt
erwiesen
hochzeiten
##sbild
leuchten
wortes
urteil
adapter
belfast
phasen
schnorch
##zentrums
polite
verkorper
gleicht
grunder
##strahl
##zahlungen
preiswerte
ohio
##prof
##forderten
festland
festzustellen
gui
##innung
erstmal
##bereichs
antivir
erhaltenen
##music
kron
##alisierungs
canada
zuruckge
zuruckgegeben
dreidimension
musiker
halbe
##gleichen
gemeint
sudosten
##anish
scan
familienurlaub
##jekten
notes
sanften
volkern
##clip
##ikanische
playstation
gemutlichkeit
wertvolle
sauberen
carn
filmen
integritat
messdaten
verkehrsnetz
organisierten
speichert
barcelo
digitaler
individuen
reisepass
reiseziel
lokaler
##verband
##verbind
ausflugs
rucks
elefanten
geistige
beeintr
multikultur
lebensdauer
optimalen
mannern
kommunistischen
letztendlich
rausch
##visor
slight
wirtschaftlich
munich
##regel
anwes
verschaffen
staatsburger
##outh
dienstleistungs
koniglichen
zukunftige
logos
##apping
lasers
built
schulungs
##ottage
eroffnung
sammelt
originale
innovations
charakteristischen
gewahren
amsterdamer
melod
absoluten
datab
irgendw
dreie
dvds
vorherr
osterreichische
##sylv
1979
sekund
popul
entwicklungsumgebung
reichhaltig
runlevel
gesamtbetrag
keyword
blocks
zerm
##filter
borsen
chinesisch
israels
ott
schickt
datenschutzrichtlinien
tennisplatze
##werkzeugen
hochstens
besonderer
bevorzugten
tausenden
faszination
flachbildfernseher
schwimmbecken
protokolle
eleganter
beliebtheit
prazision
mikrowelle
gaudi
smartphones
konfigurationsdatei
drawing
berufung
echtes
abonnieren
knowled
minderheiten
spybot
kommunikationsguer
administrator
##wahrschein
sektor
reporting
touchscreen
verlangert
nachfolgenden
equipped
schoolforge
compactrio
verpackungs
ready
verschwinden
##kenntnis
##sendung
jacuzzi
animation
astronomen
terrorismus
ingenieur
reagiert
naturparks
friedrichstraße
ahnen
einfluß
nationalsozialismus
hilfsbereites
ansprechende
komfortabler
angriffe
zuvorkommenden
kondition
verheißung
aufgehoben
amazing
##installation
agentur
permanent
gedruckt
##mitglied
jpeg
attribute
verringert
weihnachten
telefonnummern
arenateams
vibration
vorsitzen
griechenland
##niture
gegenseitig
begegnen
jardin
anhanger
neigh
immerwahrenden
##swissenschaft
aeroport
pennsylv
beschwerdef
briten
##ziplin
several
pcmcia
kolosseum
shuttlebus
tertullian
hesperia
reibungs
wilhelm
vecchio
either
guggenheim
california
hingewiesen
nvidia
beendigung
kuchenzeile
inbetriebnahme
650
73
aj
bach
cels
deg
dark
emer
fis
fischen
fakten
gd
given
gitar
hunt
huel
hebt
jagd
kok
lp
len
less
lohn
pitt
paketen
range
rij
ssp
sul
saur
tube
taschen
walt
wundert
zoom
##rh
##upfen
##lastung
##fc
##fro
##fisch
##fab
##swerten
##mag
##paket
##kal
##kung
##dichte
##bem
##bund
##bader
##bklemmen
##100
##67
##inzen
##inux
##info
##ndiss
##onic
##sthe
ath
atrium
##arzt
einges
einnahmen
##anisch
##anweisungen
##elfen
##scheine
##schreibung
##etball
zuzu
##außer
siegel
verp
vergl
##ierbaren
states
erzahlung
##irche
denselben
##eges
##egriffen
##otive
##sees
furniture
becken
ausgesetzt
##reiter
schichten
##usk
##usen
##eho
##estyle
quar
##steinen
konf
spam
umgesetzt
##iving
##spf
##space
nachten
geform
##uliert
##opft
##erts
##ertigt
defekt
hero
berichter
##ickr
##istle
##benen
manu
neapel
##verage
arist
##ibition
wasn
stecken
stefan
prad
stadtischen
stadtpark
flickr
##eltung
geschafft
gestern
gesonder
chor
gelassen
trager
trenn
lower
##quick
barock
thon
teure
##gesetze
##izes
##izierten
regime
minh
dup
##acke
coat
verbrau
zeitlich
iss
##flach
gemoun
grant
##oble
##objekt
fruhere
datenprotokoll
104
105
##ordnungen
standige
hochgeladen
##sbet
ursachen
addr
adsl
belastet
bushaltestellen
meal
lincol
kurd
entwicklern
herrschen
offentliches
servicepersonal
schlagt
verkundet
wiedergeben
##souri
freiberuf
rechtzeitig
##ianer
lebenden
historisch
historischer
##kons
##kong
festgestellt
ausgew
fußlauf
garn
##ains
grupp
geschaftsleute
##loader
nationalismus
krise
zugunsten
##alisierte
erlangt
einzelner
einzelbett
spiegelt
ungehe
wasserfall
beliebter
autofahrt
anbietern
libert
##iosen
besuchten
edward
wirksamkeit
balkan
final
liegende
##bauten
broschure
carlos
tunnel
golfplatzen
spezielles
anzeigt
erkannte
herauszu
##athan
ausflugen
brauerei
ruckzug
spezialist
burning
##ossa
##getan
motion
##gehause
rauchen
kostenloses
millenn
geraumiges
gesetzlich
excellen
unmittelbare
kuala
qualifikations
##fahigen
betriebssystemen
bootrom
großeres
##beste
bemuhen
ubung
freizeitmoglichkeiten
schlechter
variieren
kampfe
backpack
patches
korperliche
##market
holzfußboden
unterscheidung
erhohung
boutiquehotel
bekannteste
frankfurts
everest
uberwacht
sicherheitsupdate
osterreichs
lautstarke
premiere
match
lieferer
maximum
sitzung
urlaubsreisende
crew
schwierigkeits
overall
sekunde
komplexitat
torre
kompatiblen
senken
##wirken
petition
klimatisiertes
bewegungs
immobiliengeschaft
ergebnissen
##stadion
kroatischen
gultige
sozialismus
mietwohnungen
begrußen
##deutschen
wissenschaftlichen
warmes
auftau
ansprechend
dynamische
missouri
nummern
arabische
sahen
risiken
tiefer
488
geheimnisse
intelligenz
imaging
##servator
kommandoz
verwandten
vii
viol
faszinierende
siedlungen
prague
sortiert
grundete
bulgarischen
reichtum
negativ
aktuellsten
hrer
promotion
wiederherstellen
memory
wachsende
berucksichtigung
anspruchsvolle
getrennte
trockeneis
strategische
spektakular
consult
okonomische
polnische
edelsteine
zivilisation
idyllische
abwechslungsreichen
verpackung
notebook
##balken
algorithmen
industri
living
libraries
bekampfen
##ieferten
erledigen
zufallig
dining
zahll
nurnberger
keineswegs
kummert
hilfsbereite
beansprucht
challen
eintreten
aufregende
zuvorkommende
potential
antonio
meldung
ischma
towels
##behandlung
intellektuellen
erforschen
anklicken
venezianischen
stadtmauer
stadtmauern
routine
##herrschaft
diagramme
scharfe
vergnugungs
ermaßigung
schreibe
##adresse
kempin
herausragende
##partei
umwandlung
außerordentlich
brandenburg
intuitive
angrenzenden
fciv
ixquick
abschnitte
skripte
braunschwei
schraubklemmen
hauptein
rotarier
siehst
auferste
arrondiss
weitlaufigen
singapur
##institut
concierge
sommermonaten
taufe
vermittler
anpassung
##elektronik
pharma
wahnsinn
hollywood
##aukee
hochpustertal
wonach
computertomographie
middle
albufeira
rontgeninspektion
aerobic
unvermeid
milwaukee
zagreb
irgendwann
celsius
lincoln
bir
batt
borg
dichte
ddr
dunge
eco
esta
hur
helles
hitze
hvar
iber
jord
ks
kiss
ling
lamm
mord
nahrungs
pg
pes
pel
rac
ritz
sent
sak
sehe
sush
tam
tiff
vr
wide
wuste
wusten
xf
zel
##ta
##tl
##tal
##turm
##uc
##fu
##nachst
##male
##ippen
##gh
##gy
##gate
##ku
##dok
##doc
##zum
##zgl
##jana
##ero
##eihen
##eskop
##onische
##sts
##ichern
##arer
##arat
##aser
##anes
##anischer
##itage
##itare
##atra
##scha
zugen
zuges
##terungen
##terdam
verder
verse
verschluss
vermittlung
mitteilung
erlo
##agos
anfahrt
another
imstande
##ilm
##ebungen
##ebiete
beat
beau
##imeter
hotelanlage
ausb
auser
ausfall
auseinander
auszeichnung
ausgrab
schuhe
soc
##afes
##ablo
##estand
uberl
ubergangs
ubermittelt
demnachst
##angaben
umgebaut
##spitze
##ehrten
##ehrung
##icon
##ikum
gea
gedr
beider
vorfeld
##ulator
##ulous
untert
unterzeich
defen
defe
##weiß
herstellern
##genau
recher
reef
wars
##zeß
##ollen
##verk
zumeist
##beugen
liebt
liegest
##bard
stadtplan
##hod
plant
gesucht
gesorgt
expo
comer
##bleiter
##assungs
personliches
naheren
##rieges
darzustellen
benef
##zufrieden
##grenz
##anza
minig
1920
strg
due
geholfen
zeitgema
##uteten
##klimatis
ubernachtet
islands
emot
emotion
##netze
nochmals
##schied
##ppel
landung
betragen
betreibt
##teller
zweiter
zweibettzimmer
handelte
handhaben
##ondel
##avista
begehen
##lauer
self
standpunkt
perg
##sbridge
leucht
adler
belast
##azitaten
shift
##uberw
herrscher
parc
monopol
internets
internetterminal
verkurzen
gleichgewicht
gelegenheiten
##link
palad
spielplatz
namib
##istente
##ource
##geleitet
hauseigen
fuhrten
naturlicher
schnellere
bewohn
kleinsten
installierten
erhebt
anthr
bildhau
kompetent
##sprinzip
richtungen
##ount
profi
profis
asc
medium
kunsthand
gefullt
syng
##eigenschaften
marktes
ungez
halbleiter
sudkuste
trevi
modernster
hervorgehoben
scott
tatsach
archiven
tvs
##sky
automatic
nordost
edle
pcie
typisches
einkaufsmeile
supermarkte
finale
402
angegebene
##wortern
reservierungs
radios
patentschutz
##bedurft
analysen
erforderliche
netten
netscape
prasenz
geoffnete
erfolgte
magnet
reinigungs
durften
farm
angewendet
lebensmitteln
options
kommunismus
highspeed
bergwelt
lebten
munster
##modelle
lese
cleanliness
deutsches
professioneller
stockwerke
konigin
registry
registrierte
aufgefordert
##grunden
chemie
##besuch
profitiert
prozessoren
propag
infekt
ubelt
verdacht
innovationen
andernfalls
erganzen
widerspruch
speicherkarten
kaliforn
patri
command
dreck
##markten
aktualisierte
jungeren
cambridge
legal
romantik
erzeugung
billard
wochenend
sitzt
subsem
schwierigen
anschlussblock
1949
zerstre
sexuelle
dialekt
entscheidende
zuckerfrei
investoren
harris
texten
markenzeichen
rialt
ermessen
beschriebenen
verspricht
trends
unvergessliche
beteiligung
effiziente
germany
vegas
beschaftigung
aussage
grosses
edinburghs
stabile
gewohnheits
##kanale
zubereitung
tschechischen
buttons
mausklick
elegantem
picasso
intim
slowak
angemessenen
pferd
fischerdorf
consider
privilegierte
##veranstaltung
underground
machine
sektion
beschrankung
ghetto
zweitgroßte
bunten
mittlere
##kriegs
verteidigen
verteidigung
haustur
asiatische
chinesen
außeren
gebirge
komprim
leonardo
konsensus
auseinandersetzungen
haarlem
future
hafens
mobiltelefone
indianapolis
hirsch
trockner
fieldpoint
arenateam
assistant
ignoriert
pazifik
flagge
geschlecht
ansprechpartner
##spezialitaten
softwarepatente
until
##grafik
##kombination
anmerkungen
befolgen
stirbt
ultim
brandneue
pantomime
geschichtstrachtigen
hammam
zusammengefasst
regelmassig
##zuspielen
puzzle
angekundigt
reproduz
behauptet
zandvoort
conformiq
potsdamer
modifikator
lumpur
rimini
konkrete
zermatt
kommunikationsguerilla
pennsylvania
kempinski
auferstehung
subsembly
550
agen
bam
bled
care
cache
cusco
dt
dell
drop
determin
eil
eul
fam
fed
felt
fill
gat
gonnen
horte
hunderten
iz
json
kut
kauft
kehren
kids
lap
lucken
mij
ow
pion
pausch
pause
paint
raf
rank
reinen
segen
sachsen
sehn
sitze
thal
till
tasse
tasche
vital
wra
wed
wine
wov
wusste
xdm
zyp
zona
##aan
##ofen
##ofs
##tv
##life
##sade
##szene
##nutzung
##mord
##more
##pot
##pra
##pond
##83
##gas
##gischen
##gio
##hat
##haufen
##key
##kilom
##dv
##cs
##city
##vogel
##200
##74
##76
##erie
##cha
##eife
##stunde
##ural
##arl
einher
einhaltung
einschatz
##ases
##orie
##iton
##itif
##itime
##atmosphare
##elast
##schalt
##emog
##igtes
##etown
##etracht
zutritt
sieges
##lichsten
##acheln
streich
stuhl
streifen
##einsatz
aufklarung
##andern
##ega
unrecht
unfall
unique
##sea
##sex
##sekten
##sehn
##sektor
##ebr
fursten
##uther
bezeug
##imb
hotelkette
##reihe
schaf
schaut
schuf
soph
social
##usha
##abor
##ably
##ables
##ability
ale
uberfluss
##steige
##endung
esplan
umstand
umbr
umson
umstande
mose
##ffield
##spuren
nachst
nachgewiesen
##eschl
##ernob
vorne
vorbeh
vorliegenden
unternehmer
##erth
abkl
herd
##gende
##istin
##istinnen
wende
wenzel
komme
##gefahr
manif
##verhalt
##verarbeitungs
arl
arom
klingt
##ibo
##ibes
##ogp
grob
steil
steine
stadtchen
geschick
genial
genauen
genugt
exkurs
combin
jahrigen
chester
former
etliche
hierher
barb
thistle
##anzler
regular
##sames
marsch
strauss
cote
verbund
koffer
weitergabe
dirty
##fliegen
##arbeitete
##arbeiteten
##immel
gemisch
##idaten
##perrt
##acter
einzur
mengen
wahrnehm
indep
fahrzeit
##ließen
constru
welter
##landschaften
itunes
standigen
webanwendungen
instanz
adams
belve
##ctive
cliff
interaktion
beschreibungen
wiedergegeben
enger
langjahrige
heiße
##streben
herzens
1500
kontinen
##ologischer
palpa
skin
spielte
warenkorb
kambod
verletzt
240
sprich
ganzlich
ganzheit
ganzjahrig
alto
straß
wille
einkaufsb
platzieren
ortschaft
inszen
modified
##uchtisch
charlie
turb
turin
kultureller
##eigten
zugehorigen
mirab
korros
dias
kunstwerk
newly
erlang
168
sudwesten
baume
##branche
##anismen
familienfreundliche
trap
archive
runt
##skop
##asee
westkuste
statte
gottlichen
gottliche
sportler
finstern
##baume
brudern
spezieller
diskotheken
italiener
regelmaßige
internationalem
fortsetzung
herausfinden
erfolgs
heilig
heiligt
clear
unverzuglich
unverzicht
motogp
geschmackvolle
efficient
angesagten
geldbeutel
lebte
coremedia
million
munchner
noval
erschwing
touristenattraktionen
artikels
##leger
##legungen
provider
erreichbarkeit
transit
yorkshire
checkpoint
##datenbank
rotterdam
bootloader
funfzig
operationen
##besucher
jenes
verdient
originalen
audi
ursprungs
haufiger
irgendwie
finanzielle
patio
expedition
1986
korperlichen
augsburg
anzeigengruppen
ifco
ehemals
kritischen
croup
crown
verzog
closed
accessoires
director
gebrauchs
hochwertiges
falken
vernichtung
##produkt
##details
1978
1970
1973
lauten
taxifahrer
##actos
salzkammer
ewigkeit
##strukturen
hotfix
##iegelt
##amerikanischen
##restaurants
thron
##kompatib
souver
blutrache
glucklich
turniere
champions
freiem
bands
buchungssumme
voice
niederlandischen
florentin
##anspruch
sandstranden
elements
derzeitigen
erinnerungen
dorfern
restaurierten
marble
positiven
synthese
konzentration
atlantischen
eingeschlossen
eingeschaltet
ausfuhrlich
wilden
awards
powerful
uberblickt
prazis
advance
crusade
zeitgenossische
draen
molto
berucksichtigen
behaupt
sleeping
worterbucher
fabrik
hitachi
ghana
entstehung
equipment
derartige
vorsichtig
gehobene
windsor
buena
##wurdig
##wurdigen
schatzt
gelungene
zwangs
instrumente
##ropole
archaologischen
dunkelheit
sheffield
##vereinigung
##vereinbarung
konzerns
##orientierte
destru
kompilieren
ingenieure
boliv
##motor
konsequent
##umbia
teufels
vitamin
yeshe
##zweck
##zwecken
highlight
vertriebs
eiffel
geldautomaten
verhandlungen
henry
ischia
railway
##pflichtig
mineralwasser
mobiltelefonen
##behandlungen
uberraschend
leckere
hindu
druiden
ocee
aufbewahrt
berechnung
verfahrensweise
##getranke
erstellte
potenzial
##sprechanlage
##bilden
ankundigung
leidse
niederlassung
jugendherberge
ausgedehnte
karibik
mythos
verurteilt
preisgunstige
verpflichtung
##ready
##glasung
legendaren
stadtereise
mitgeteilt
##bedienung
sloane
##brunnen
unternehmungen
priklopil
##dromass
siena
exhibition
palermo
##architektur
prestigetracht
xpressmusic
knowledge
huelva
minigolf
syngenta
umsonst
belvedere
ax
azur
boch
bow
bott
ded
dia
dong
eugen
fangen
fangt
fielen
i5
kin
kent
kuh
kette
lichte
latin
mul
nass
ov
prei
raten
say
sans
sitt
teg
tang
toren
tasch
tanzen
tetr
vod
wma
wohnt
wagg
x86
##rischen
##rive
##oter
##tum
##lendet
##eze
##fine
##nast
##nia
##nitz
##mischen
##mission
##iw
##distr
##cue
##cted
##25
##63
##38
##eration
##inia
##intens
##ndes
##stur
##stro
##stop
##uro
inne
invent
infolge
##itas
##atch
##emie
##igter
##eters
zuliefer
zuflucht
##aunen
verpassen
verordnung
##rohr
mitteilen
stip
erreg
erlosung
aufkommen
aufrecht
denjenigen
##andra
anfallen
anzugeben
##ampf
##amour
##deh
##oto
uni
unfreundlich
##seeland
hotelgasten
schicht
schema
soder
already
##leuten
##estung
uberschau
demselben
quint
quasi
##steig
allah
ents
entz
##menten
##mengen
nachteil
anden
##hallen
vorlagen
vorganger
##ulse
##opter
unterird
dek
abbild
abgew
abwicklung
##weiht
aper
##istent
rey
reus
rekor
##ungsmittel
##gekommen
diesmal
##essa
##plattform
##bewerb
##forschung
##ausgabe
steinen
prinz
verfein
flotte
geschutzten
gesunde
gestellten
##atent
blind
gelernt
rose
glastisch
##herstellung
loft
loved
gebildet
##appt
##zuela
barrier
##gebungen
##gebnisse
freder
seeb
##samer
schonste
1918
strings
bond
gehandelt
zeitalter
##klaren
emigr
else
##fahrung
##iding
parkanlage
##iften
betat
##obre
##ubung
begreifen
begleiten
fahrpreis
##mala
##ußt
obigen
buches
##sbasis
hear
sicheres
interkultur
parag
monten
schlug
metres
strandnahe
##swesen
englands
langem
grundstucke
selbstver
##ully
schwein
skil
##unterkunft
##handbuch
formpresse
verlass
bestechen
gotische
springen
festnetz
ausgepr
##freunde
getauft
troll
kompakt
dres
kreativen
gartenanlage
bedeutete
##spras
leih
diadem
gestalt
ungen
##ampft
haltet
fira
sudafrika
tree
trekk
255
256
210
##train
##ueck
familienbetrieb
179
##skan
##skosten
automatisierungs
pueb
##cader
starksten
aggress
chefk
konferenzraumen
appe
appre
sportlichen
doppelver
superb
hinterlassen
carr
brust
universellen
radi
dienstag
##ances
regelanwendungen
regelmaßigen
password
anzut
fortsetzen
paid
verfugbare
##slauf
herzog
##parkplatz
entscheidet
multis
unverandert
openoffice
netzwerkkarten
angesiedelt
rollstuhl
slaw
cork
bundnisse
kapelle
themes
ausgangs
gesetzliche
##kraften
kindheit
freundlichem
provides
rechtsanw
##schnittstelle
##korre
vorteilhaft
hydromass
konigliche
transparen
##achteten
postscript
registrierten
operating
columbia
entfernungen
kontroller
bemerkt
peak
ubliche
hardwar
kostspiel
sammel
toller
veneto
moduls
bugeleisen
ergreifen
montju
baysw
##reste
widerspie
bundesstaat
weißes
##anbindungen
1988
1987
dream
invas
assistenten
pflegen
directly
directions
wanderer
lieferanten
goldener
geltend
maximalen
begriffen
lobbybar
##icode
##splattform
samtlicher
ankunftszeit
untersuchen
satan
islamische
blockieren
rembr
##stadter
elektronischer
turniers
anderswo
ereignissen
veroffentlichte
veroffentlichungen
umweltschutz
verbreitete
jemandem
rhyth
verstoßen
kommerziell
ausgerei
orientierung
lebendige
intelligenten
touristisch
olympischen
pilger
handtuch
vollkommenen
mercedes
##gegend
tagungsraum
autosar
robuste
grabungen
medizinischen
##cuit
smartphone
synchronisieren
volumen
reprasentanten
inspiration
wachstums
mask
##horig
##inseln
begrenzte
barceloneta
echo
analysiert
grafikkarte
konstruiert
##sprozesses
reflekt
wait
traditionellem
beeindruckend
##runken
administration
prasidentschaft
satellite
splend
durchschnittlich
broadcast
vincci
achsen
jacob
mathematischen
##empfehlen
ubertreffen
externe
gateway
zahne
vorzubereiten
magazin
begleiter
##organisationen
priestertums
##farbe
luggage
exquisiten
crazy
pxe
##mobel
##guide
aufgelistet
sizil
verknupft
folgte
ungewohnlich
hutten
gemalden
figur
weiblichen
ausgetragen
verschlusselung
verringern
feierlichkeiten
dlna
weihnacht
##skraft
learning
cfd
potenz
korrigiert
nomin
leugnen
nachttische
##beziehungen
befindlichen
tranquil
##firmen
basketball
ausgestattetes
katastrophe
android
fjord
exclusive
verflucht
complete
tschernob
skipisten
mezz
abtastraten
killar
saraje
tgv
something
mounten
oracle
einzusetzen
allmahlich
beeintracht
slightly
millennium
haupteinkauf
eulalia
manifest
independen
finsternis
tetris
montjuic
tschernobyl
a8
a7
bik
balt
biz
cell
carb
ds
dm
dachte
ei
eier
efe
eye
estep
eclip
five
fohn
gter
hein
him
hamp
jones
kehrt
kaj
lehn
lts
lju
mild
meiden
momen
nir
pt
pv
panz
pix
rag
roch
rai
ritu
retten
raketen
saft
salt
sagr
td
tc
tin
tav
uit
ugo
vas
vok
wro
wave
wandert
yet
zier
zigar
##ric
##oße
##town
##unen
##wiki
##fassen
##siedlung
##pens
##45
##ippe
##griff
##dd
##dist
##zent
##zilla
##vas
##vag
##ving
##viet
##vards
##bit
##brauch
##69
##ieu
##eibt
##oner
##onom
##stamm
##stour
##stone
##stutzung
##aris
eingesetzten
##ankt
##algar
##orial
##atie
##schuss
##schuhe
##emein
##eming
##iga
##igal
zukommen
##aul
##auser
verdr
##roy
mitgel
stort
stack
erle
hob
holy
##ised
auflosungen
anbet
unvor
unverbind
beam
beabsicht
##aha
ausnahmen
auswertung
##indungs
schir
schmal
schade
desser
##reche
##reux
##uni
ali
alber
ubermitteln
quiz
spect
spritz
nichtj
umsetzen
entschlossen
nachster
##ikon
geck
beigetragen
##raz
vorhang
vorjahr
vorgabe
vorrang
##ules
unterschieden
wiesen
abste
ablegen
above
appointed
besuche
referenzen
reactos
##ochten
frischer
frisches
##verteilung
arms
aragon
wurst
klagen
klub
##ptor
##ogh
durchmesser
##ausfuhrung
steigt
##auflosung
##rauen
verfu
stadtrund
flan
##stellte
##erez
geschlagen
geschenke
gesunden
gesicher
gestellte
neujahr
neuseeland
##bleiben
rost
round
offnung
mehrsprach
musse
##apartment
##quart
##quate
benalm
##zukommen
thing
##anzeigen
freed
fruit
dupl
counter
couchtisch
verband
##etty
geworfen
kodach
weiters
##klam
##kleidung
gemeldet
elsa
##loses
##idge
##perten
##oba
bestanden
einziger
ausgeben
begunst
wahrung
108
convention
##vorgangs
once
##maler
##lander
vielem
obs
observator
hochladen
adl
added
belgrad
heer
claim
phased
phanomen
ideologie
hauptverkehrs
##lyphen
verwiesen
parco
funktionierte
familia
grundleg
##strager
stehende
spezifikationen
kontos
termine
##unterstutzung
fuhre
goth
altis
festzulegen
menschenhandel
komplet
kompliziert
##free
bewaltigen
disra
getrei
allesamt
##ascha
##portal
##lichkeits
automotive
kreationen
##unktur
korallen
korres
wohnungs
wohnraum
badet
ungest
1600
##zieht
musee
modernitat
wolle
tatigkeiten
archip
englisches
irische
empfangsbereich
automatisierte
aktivitat
sanft
starkung
folgender
1394
##utto
##utton
salat
wissenschaften
##leihen
knight
bequemlichkeit
carp
carlo
brug
messwert
organisations
parisina
##rence
marktfuhrer
tausch
reisedaten
santo
america
herausgeber
zulassig
ruckgang
angebots
spezialitat
entschuld
##ifizierungs
kara
motive
##versicherung
geschmackvollen
raub
rauschen
signatur
slr
nova
videoan
umgebene
##ickets
gesetzgebung
telefonisch
gemeinsames
staatliche
provinzen
deutschsprachigen
exklusiver
hauptbahnhofs
elegantesten
682
extremen
workfl
schweifen
freizeitangebot
nachstenliebe
pred
amsterdams
5000
osaka
therapeut
lichtbild
verbundene
1980
traumhafte
erfahrene
verziert
schmiede
vorherigen
vorherige
ungeachtet
##zulernen
gebrauchen
falmouth
##config
argumente
1975
browsers
horde
oliv
komplexer
lagune
1969
maybe
ewig
gespeicherte
beliebteste
##browser
attraktiver
##ameras
1936
feldern
##hedral
muhe
stetig
regenzeit
##analysen
hervorragendes
choose
recently
vertrages
fussball
cathedral
##prasident
voip
dekoration
dauerhaft
datenschutzerklarung
##palomas
navigieren
wahrscheinlichkeit
msi
rontgenbild
aquarium
außergewohnlich
aussuchen
aussieht
besonderheiten
charming
epoche
serbische
kommandos
miro
friedhof
ubereinstimmen
geiste
baumwoll
gangige
drogen
beantragen
zertifizierung
negra
klicke
advantage
gaudis
geschaftsviertels
formuliert
produzieren
maspalomas
##durchfl
##verletzung
elysee
valencias
hills
reflex
privilegierten
interpretiert
beschranken
windsurf
unglaubliche
icons
steigenberger
sowjetischen
geburts
stoffen
campingplatze
ubersetzungs
fuhrerschein
piraten
quartier
chianti
konzeption
kompiliert
faktoren
dhcpd
einflusse
##stechnologie
schottland
rechnern
jobs
familiarer
ironing
nicol
griechischen
meldungen
##stemperatur
intellektuelle
tokio
repository
lifestyle
schwedischen
travell
traveller
adressbuch
educ
pickn
eigenstandige
multiple
dunklen
argentinien
memorand
ogg
abgestimm
trafalgar
##greifende
erlesenen
nachttisch
unkompliziert
verabschie
brighton
feuchtigkeit
versicherungs
aufgetreten
rekonstruktion
ubertragungs
anglais
cosy
reizende
##kategorien
schroder
sandwiches
lamaniten
pavill
mongolei
tendenz
kartoffel
##wirkung
handhabung
dreibettzimmer
neutr
beobachtungen
##ehandlungen
sponsormarken
testrealms
buckingham
hazrat
cipra
fisher
duplex
gemountet
braunschweig
##uberwachung
anthrop
kalifornien
gewohnheitsrecht
wovon
zypern
abkling
wenzelsplatz
novalja
leidseplein
doppelverglasung
haupteinkaufs
estepona
eclipse
ljubl
benalmaden
kodachrome
achen
bale
bij
cort
chen
cpu
categor
d300
dpi
fang
fingen
fasch
faks
fusion
g1
gif
harten
heng
ik
jude
jeher
lien
linden
lid
mahn
mtr
mike
meiste
nos
pot
pall
pill
pip
pian
pyth
pisc
qt
qtr
rain
rivers
ssen
sale
sip
tos
uss
wick
walter
xfree
yen
zip
##ror
##tland
##lor
##lischen
##lasst
##wes
##wein
##fein
##felt
##fok
##nei
##mahl
##klen
##kreten
##kalender
##dale
##disk
##cal
##cafes
##vin
##via
##brucken
##jar
##jour
##jada
##75
##erl
##onne
##stagen
##sturm
##arisches
##arren
einkommen
einnehmen
einsteiger
eingegangen
##tended
derjenigen
inspektion
##attet
##igma
##etische
zuzug
zustimmen
##autes
verzeichnisse
##acha
starte
erp
errichten
ermittelt
##irts
hond
houses
aufstand
anleitungen
##ckte
unheim
unwahrschein
##entsch
##immee
##rup
ausgenommen
ausfullen
##indel
schie
schock
schenken
##adi
##adir
##adaten
deswei
##recken
##usik
##ehme
##uner
##abteilung
##ingang
##steam
##endien
konten
konkreten
prodr
moge
move
entkommen
entgehen
entrichten
entwerfen
##sprufung
nachtrag
##lendern
geo
geteilt
gefuhrtes
##eschen
beides
beistellt
beibehalten
voruber
vorgeschrieben
##uler
##edict
unterlagen
unterzeichnet
##anto
abruf
abget
abgehalten
abzuspielen
herbei
herberge
##allo
##allem
reale
diesjahrigen
##plus
##bevolk
##utzter
klettern
##ogie
angesch
durchge
##ausstellung
steckt
verfasst
verfuhrt
stadthotel
flight
##riend
großter
##oko
genre
##hou
##hob
gesetzen
gesichts
ext
exeter
exakte
jahrliche
neueren
chir
chil
forte
suff
##assol
gelingen
rov
router
trom
trick
tricks
trennung
offnete
glieder
eto
darstellungen
##formige
gebrochen
barri
##gebunden
sehenswert
##owen
##izitat
hinunter
regina
mins
##wendung
strat
duften
verbot
verbracht
##etts
gewurz
zeitungs
zeitschriften
##klicken
ems
gegensprechanlage
##idr
gron
graus
grimm
landen
##ifilm
##obnis
##indert
zweig
##ody
datentrager
laz
einzahl
##zugang
fahrlass
teilhaben
selection
bedingt
##vorschriften
##chnungen
flugel
uhrzeit
entsprech
hochschule
lee
leave
advent
belastung
vollem
vollmacht
shuff
resolution
entwickel
guts
##offiz
verwir
bittet
parade
paracas
notige
gleichsam
sole
meinungen
langste
funktionalen
stella
stellten
geschaftlich
geschaftstreffen
basierende
einfachste
terasse
freilich
schwingungs
201
##programmen
##handlung
rechtlich
formaten
##poo
datein
historiker
historical
##platte
festhalten
romische
menschenrechts
##frequ
guate
unterstutzte
disap
norweg
dokt
kompakten
modular
modifizieren
charl
character
##boote
wundervolle
nunmehr
zugrund
profile
##undete
##arena
##elsior
gefuhle
innenausstattung
inneneinrichtung
portfolio
delic
nachtclubs
sudliche
treue
prax
bauer
115
##bracht
beliebiger
scannen
wollt
kurzfrist
stream
jahrhunderten
breeze
##riebene
kommende
##skunst
automatisierung
vereinbart
besuchs
generierung
westlicher
edge
balken
##ventionen
integer
konferenzzimmer
vermietung
vermieden
daruberhin
technologischen
fernando
bereitschaft
patentamt
individually
disketten
visiten
kirch
kirtland
##heimer
anzunehmen
##bedarf
##inth
fehlerbeh
sants
##sprotokoll
paß
##athon
##verbrauch
produkts
ruckfahrt
testing
niedergeschrieben
clever
seeking
erfolge
compac
foder
bergauf
##itude
bankette
##lizenz
empfehlung
globaler
excelsior
kindes
##vertr
providing
exklusives
yorum
##zusammen
ostkuste
massiv
##achstum
##appe
definitiv
ahnelt
klassiker
babybetten
afrikas
innovativ
geratedateien
preuß
expresscard
dvb
absolutes
##begeist
bedeutender
finanziellen
botanischen
kilometern
tablet
dreht
junger
unterschrift
josef
inval
erhohte
applications
jahreszeiten
erlebte
erlebnisse
uberwinden
uberwachen
verzichtet
sicherheitseinstellungen
sicherheitsregeln
##zulassen
aufmerksame
sorrent
matter
##fertigt
schriftlich
erstklassiger
kennenzulernen
gebiets
lauter
tropical
credit
shoppen
1940
ausdruckliche
farbenfro
hotelzimmern
existierenden
laguna
philosophischen
##wirt
schonheits
sensation
kunstlerischen
institute
samtlichen
##kompeten
keylog
entscheidenden
vergangener
schallisoliert
glucks
##schwung
true
papag
telekommun
southern
atlas
extravag
hohes
abgeschnitten
juristischen
niemanden
capit
kundgetan
dynamisch
ausgelost
urlaubern
majestic
familiengefuhrtes
someone
##ehorigkeit
toilet
paypal
query
orientiert
orientieren
risik
kommentar
einstieg
fairen
diskussions
olympia
lisbon
buddhistischen
retro
vianden
authentifizierung
souvenirs
mozart
beratungs
accomod
kontinentalen
utrecht
prachtige
interessantesten
traumen
medizinische
piccad
negativen
paulo
gepragten
mechanischen
weissen
reprasentiert
##osterreich
lagerung
maske
fortschritte
szenarien
georgianischen
earl
fehlers
boulevards
mountains
raucherzimmer
##deckten
benutzerdefinierter
isoliert
beschrankungen
feiertage
alltags
frequent
erganzung
edelstein
layouts
bronfen
##kopfe
stimmung
stimmungs
gelungenen
effizienten
initiativen
abwechslungsreiche
abwechslungsreiches
reittier
beherrschen
##bonus
##empfind
wiredus
moralische
cyber
wartezeiten
enorm
gebirgs
steckplatz
gesteuert
interviews
proxy
charmantes
dcf
betreffende
erfrischende
bungalow
leiterplatten
leistungsfahige
ziffer
konditionen
patentanmeldung
##maske
towers
ethnische
surroundings
unbegrenzte
tracking
##mitglieder
prufs
pasta
##kolonial
opposition
ermaßigten
amtssprache
beseitigen
chairman
electronics
task
##skrise
herausragenden
dunkle
eifers
##parteien
stundlich
gedenkens
freiwillig
brandenburger
bewahrten
talking
niederlassungen
economy
stalin
befestigt
naturschutzgebiet
reasonable
stiftung
anlegestelle
schlimmsten
unterdruckung
robotik
##agentur
particular
missbrauch
maßgeschneiderte
vergroßert
hospitality
wohlfuhlen
ausruhen
barmherz
wahrhaftig
##schafter
##spersonal
sufismus
weltbekannten
grenzubersch
anregungen
kreativitat
maßgeblich
cowder
screensh
peaceful
guadalpin
antisemit
rontgenrohre
konfrontiert
garderobe
erkennbar
pizzeria
unangenehm
gletscher
period
anwesend
lasersoft
qualifikationsrunde
kissimmee
sushi
ungezwungen
mijas
##kilometer
runtime
aperitif
chefkoch
bayswater
rembrandt
sagrada
disraeli
korrespond
benalmadena
faksim
hengst
qtronic
xfree86
desweiteren
prodrive
shuffle
daruberhinaus
telekommunikations
piccadilly
750
aa
atem
b2
ble
bert
bunt
bibel
cen
crit
cry
drak
eps
fug
fabel
fassung
gpl
greif
hlen
jon
kil
kell
kade
khand
kup
lon
lein
lite
lerne
muhl
mdf
nem
nil
nimm
nackt
nathan
oth
pon
pse
perth
rim
reh
rassen
ride
sed
sights
shaftes
talen
tarb
torn
teller
tong
t10
uri
ufern
vm
vd
v2
wow
zogen
##rab
##rick
##oon
##oint
##tausch
##uiten
##lava
##wachsen
##fg
##fache
##saft
##suchen
##nan
##noten
##my
##misch
##mobil
##mauern
##pad
##hl
##hurt
##koll
##kabel
##ketten
##kanal
##keeper
##zog
##zelt
##vm
##vue
##villa
##ßungen
##bte
##biert
##jugend
##junktur
##232
##eno
##chal
##chise
##iew
##inf
##esien
##arz
einsch
einsicht
einbau
einsehen
eintau
##anbau
##anfragen
##anya
##alz
##altete
##orp
##order
##attern
##emouth
##etit
zuschauer
##auch
##aunt
##denkt
verle
verbergen
##ierbarer
stall
stone
strip
era
eras
ergehen
erschlossen
##einigung
##ising
##agna
##telfen
aufl
aufh
aufgeb
aufgesch
aufgew
auffassung
anh
anlauf
anschau
##amera
##decke
unvollstand
unschuld
##sebene
##ebo
##uts
bewerb
##impf
ausbau
ausschalten
schaff
soul
##abil
almo
##estra
ubersichtlich
##stee
##steck
##enda
spor
spots
umland
##spra
##spunkten
andauer
##icas
gefuhrten
vorn
vorein
vorhers
vorallem
unterwasser
dealer
decke
defrag
##antin
abk
abfall
abschließen
abholen
heran
apartement
rezen
review
realisierung
##ungsbereich
##gepack
##ocht
fragte
##olle
##verbr
##verstark
##verschm
aromen
toast
##forsch
##utzucker
klost
angler
angha
durchgehend
steps
pram
verfallen
allee
stadtbild
flei
##ucke
geschl
geschnitten
plak
jahrtau
serial
befeh
befahr
befahren
befragten
chm
chand
ford
blutzucker
gelben
gelbe
tryp
##ankungen
glanzen
lov
loschung
##api
##queira
benz
##gris
barrio
zwingen
geruch
##geboren
freuden
ofter
##itees
maz
mari
maritime
1900
strahlt
##acker
conde
verbundeten
##ettungs
gibts
emblem
emilia
##teilte
gegenstanden
elend
informatik
handh
##odie
##feuer
indoor
indirekt
##sterb
contrib
teiles
##landischen
itself
webmaster
least
##zeichneten
##prom
advert
vollversion
shirts
kurt
##ubertragung
reste
schneiden
guthaben
hauptstraßen
##offent
verwirr
##main
verkurzt
notiz
##swelt
wiederer
wofur
heiz
##strassen
##ansk
selbstvers
apartmenthaus
apartmentkomplex
kontro
angebracht
artist
feriend
ferry
skins
zusammenhangen
##prov
malaria
verlegt
stere
ganztag
ausgewiesen
folien
romp
guard
##betreiber
platziert
nebeneinander
orthod
erhaltene
benotigte
airline
kreb
richtungs
richtlinie
leihen
eingereicht
sehenswurdigkeit
why
zuruckhalten
dreiß
dreimal
machtig
portage
deleg
spiegeln
ungerecht
ungarischen
aufgegeben
hals
wasserfalle
politisches
##onto
sudamerika
##flugzeug
##zieh
##zielen
museo
178
irre
franken
nordic
cityguide
##isteten
zusatzlicher
studieren
type
typs
swe
konferenzeinrichtungen
appart
finca
commercial
zielsetzung
kopfe
filtern
ferne
reservation
madeira
madison
patentinhaber
diskr
taucht
passagen
passworter
wunderschones
wohlstand
##freundlichkeit
##figuren
##presso
raumliche
privates
century
interessierte
faro
entschad
angeordnet
burgen
aspekten
fitnessbereich
merken
##holt
facility
tiber
daniel
mandanten
theme
telefonieren
sands
redhat
##ufett
##ishing
mußt
weinkarte
cleaning
gesellschafts
konigspalast
garantien
helpfull
workout
##lebens
klassisch
klassisches
prozesses
schulung
landeshauptstadt
##obern
##oberflachen
schweigen
vorausgesetzt
demokratisierung
innovatives
##tpci
charakteristisch
bedienungs
identifiziert
landschafts
prufungen
melbourne
bayre
##gefert
trainer
speichereinstellungen
finanzviertel
270
luxurioser
##marke
##marktes
aktualisierten
jungste
granit
arbeitsbereich
pflanze
terminus
entspanntes
eventuelle
sorten
##großen
camps
dunn
##fertigung
wiens
schlosses
schwieriger
1948
bestatigungs
##erkuste
timing
jugendlichen
doppelzimmern
russisch
meeresspiegel
erscheinungs
schadenser
fahig
eingangs
##planen
##paradies
ltd
##amerikas
verstandigen
##ipper
perfektion
##erkennung
blockiert
since
sounds
seltener
wohler
##archie
schließfach
kroaten
##schwimm
zuckeraustausch
symbolischen
bestellers
borse
trug
tempels
reizvoll
sozialer
##feldern
offered
strategien
telekommunikation
relaxen
schicks
burgermeister
differenzen
abgeschieden
lineare
importiert
##paar
gegenwartig
datenerfassungsmodul
feldes
außergewohnliches
aussichten
toiletrie
sidney
waldes
hilfsbereitschaft
1957
erzielte
ausfuhrungen
effektive
hellhorig
espana
verwandeln
vertrage
bugzilla
saisonalen
wilde
##ailles
locher
dialogfeld
moslem
##wieder
berechtigungen
##acional
pleasure
kerzen
aktuellste
convenience
inspirieren
naehe
##durchschnitt
szenen
##carat
resultat
##zzo
dominiert
nachhaltigen
schlachtfeld
hugo
unterhaltungsprogramm
interpretation
##sumfang
respektieren
derartigen
##funktionalitat
strafrecht
finnischen
finnland
schulerinnen
impuls
nachmittags
abgelehnt
##ehntau
division
kasino
##nachrichten
bauernhof
erklarungen
vielseitig
ingenie
##ieferte
##steigerung
konsequenzen
ndt
franco
##attraktion
##ministerium
betreffend
##donald
widerstands
##odex
##generator
##generatoren
urbanen
discos
aufgelost
arzte
verwirklichen
griechische
##bezirke
konservativen
snowbo
##ehotels
portugiesische
hindurch
geographischen
substant
md5
tampere
##spannung
coverity
progressive
weekend
ungleichheit
fraktion
ocean
toleranz
eduardo
ryan
lawrence
##drehen
notting
korrigieren
rassismus
ocx
##firma
behagliche
zunehmende
##schlafzimmer
datenubertragung
connell
football
effects
erweckt
kosmopolitischen
kitesurfen
tallinn
exceptionally
baccarat
presenter
configure
apollo
##integr
ausbeutung
kuchenchef
fujifilm
prostituierte
prototypen
entpacken
heckflugel
kitzbuh
einladt
brahman
balkonen
camelot
warteschlange
pyram
ausgedruckt
entsprach
anstrengenden
dreieck
gesonderte
coatings
fußlaufiger
ungeheuer
borghese
society
##zufriedenheit
bildhauer
kunsthandwerk
sehnsucht
vorbehalt
##verhaltnisse
korrosion
sarajevo
gecko
lichtbildausweis
abklingzeit
ljubljana
##bevolkerung
guatemala
compactpci
dcf77
cowdery
kadewe
khandro
pseud
shaftesbury
orthodox
toiletries
615
810
baus
clau
cgi
divers
danzig
diana
epa
finder
face
fieber
gc
gaz
gave
gaming
hg
hig
hahn
ia
icon
j19
krau
kow
kite
kreise
kios
lc
lor
lah
lum
lekt
lack
lille
lichter
ml
misch
mate
nf
ns
nin
nich
nick
niger
nud
nax
noten
pm
pein
pest
pow
patt
pins
psd
rache
rates
rpm
roger
rfc
sang
satur
sende
sets
tt
tad
tore
tals
tumm
tips
vb
wunden
winn
wande
wußte
x1
xvi
zij
ال
##aik
##rut
##raben
##oi
##oug
##oud
##oftware
##oire
##uas
##usch
##uay
##lon
##lok
##water
##wende
##file
##smoglichkeiten
##mad
##ming
##mart
##pite
##preisen
##47
##ibe
##gau
##gab
##has
##hire
##krank
##kocher
##dung
##dade
##cer
##cafe
##ji
##chu
##iest
##iegel
##eistet
##esca
##onien
##onald
##stopp
diejenige
einschlag
##anie
insekten
##itaren
##elia
##schmerzen
##emann
##hrt
##etor
##etho
##aug
##aud
##aumen
##auert
verun
versen
verweise
veraltet
##row
mitbringen
stier
stun
sturm
stapel
##berlin
errech
erarbeitet
hop
##isst
##aging
aufber
##andro
anten
anschein
antrag
impression
unsterb
##entwurf
##ildern
##ebit
##ichtungs
furst
##uto
##utte
bewertungen
##imierung
hotelgarten
ausschluss
aussteller
auszeichnungen
scham
schopf
schilder
schinken
despite
##ktoren
##afeln
sichert
##osoft
##uno
##abad
##abkommen
##ablan
##ablauf
alam
##endurch
spass
spreche
allmacht
umgest
umgangs
##eichert
##ffekt
##lenia
##icle
##iced
geog
##uchter
amph
vorang
vororten
vorzuge
##opfen
##opfe
unterr
unterstr
##antinnen
abges
abspiel
abgestellt
abhol
absichtlich
##adtouren
herein
##aller
beruhen
##geworfen
##benutzer
##afton
zumal
##beob
##utzend
##ogn
durchsatz
durchmuster
##ausrustung
prime
prags
floh
##rite
genugen
##hows
charts
suppe
##meer
blute
geleistet
personnel
tril
restlichen
##ries
##formig
##quet
benzin
##altheater
##gres
##schlagt
##wertrain
freies
seas
seefeld
minor
##folk
fruhe
mainz
marg
gastein
bourn
gewunscht
kodex
zeitgemaß
weiterempfehlen
isst
##teilnehmer
##flotte
gemischt
##idas
##idio
parkett
grafton
##ammung
weltbank
weltjugend
##fuhrern
handling
##onde
begegnet
versailles
wahrungs
brest
bratis
107
##ordner
##lernt
teilte
selbe
##uda
obama
periode
hochschulen
worin
urls
admir
belager
powertrain
busy
hex
hepat
reisel
clock
vollautom
sharing
rescue
schluß
##cotel
polo
metal
##swahlen
##minster
arbeite
langweil
langlauf
terre
terran
rechtfertigen
verlasst
##ingenieure
dated
rennes
ausgefullt
saulen
romans
##essed
disp
doctor
trouble
kleinem
helden
antwortet
bildmaterial
bildqualitat
turistic
##garter
wunderbarer
kraften
bookmark
##eign
dortmund
losungs
korru
klimasch
asia
gestohlen
gestarkt
mittelstand
zuruckzufuhren
musikdateien
firenze
renovated
bauarbeiten
112
##bring
science
174
feu
traur
vertreiben
areal
kundenservice
werkes
##ragte
automatischer
erfahrungs
##staates
agadir
partners
wirksam
kanu
138
135
balance
balines
swan
swap
integra
casin
zielort
##inke
filialen
messing
breakfasts
smar
jedesmal
zeichnungen
individuum
offenem
visionen
italienischer
tauschen
analoge
##mous
straßenseite
##sprojekte
##sprogrammen
fortgesetzt
##schneiden
##mbol
hohepunkt
##sleben
geoffneten
elect
magischen
##atisierung
##ifizierungen
##eyball
absichten
avira
konzerten
##versuche
metropolit
textur
architect
highway
konfigurationen
tirol
christop
christlichen
franzosischer
freeview
ausgangsbasis
##kratz
##krise
luftfahrt
kuwa
redu
##modellen
##ishment
qualifiziert
suchfeld
boni
july
##merkmale
##behorden
druckt
grenoble
massaged
verantwortungs
builder
target
saal
##kameras
schulern
schultern
##windigkeiten
schweiß
ubungen
eroffnen
verdanken
alba
schwerer
landschaftlich
wechselnden
caleta
variationen
errichtete
bundeswehr
vielfaltig
##beginn
supports
280
maßstab
maßstabe
##iegende
surin
realm
expert
blogdesk
1982
egosoft
unterschriften
##shop
legion
##ogramm
auslands
crois
limp
limassol
gewalttat
erzeugten
hochwertiger
erstklassiges
leichtes
extreme
subje
urlaubsort
audiovis
audiodateien
##bereitungen
existierende
einladend
1962
1960er
snackbar
macdonald
sexu
geschlossenen
fertigen
1930
untersagt
dynast
verstandlich
##ipps
##stimmungen
couldn
seltenen
unersch
makes
sonderangebote
bestandig
fussganger
ulrich
hintergrunde
kolleg
collector
harro
implementieren
packs
munchens
alpenkonvention
primoz
erscheinenden
publiziert
nachstehend
beteiligen
legende
cardiff
kanalanzahl
beschaftigen
arabisch
##politischen
virtual
schauspiel
stuttgarter
stilvoller
stilvollem
hochzeits
angeschlossenen
vollkommene
physik
erhebung
andalusischen
urheberrechts
mosamb
drohen
storungen
displays
wesentlicher
ernsthaft
##diagr
materielle
materiellen
volt
prompt
einheitlichen
flugzeuge
wiederhergestellt
wunderschonem
mold
cocktailbar
verpflichten
anschlussen
georgetown
angemessene
strategisch
intensitat
benutzerdefinierten
isolierung
konstanz
fotografieren
begeistern
weltkriegs
##zurufen
floors
kostengunstig
signalexpress
zivilgesellschaft
##ajas
##kopfen
statement
implenia
nachmittagstee
effizienter
##eshire
archaologische
liberalen
liberdade
reading
verschwunden
persistente
lowen
bauernhaus
liebsten
vorzugen
betriebsanleitung
gefangenen
sympt
relevante
circuit
schreibweise
##etooth
##kapazitat
##zyklus
##stechnologien
patentierbarkeit
years
nationalsozialistischen
ventil
##lieferung
##diensten
visiting
anmelde
eintritte
##dorfer
andreas
exotische
arznei
honore
sendung
sizilien
amazon
surrounded
unbekannt
jahrzehnte
indianer
architektonischen
portugiesischen
beschadigt
proprietaren
diagramm
fundamental
residential
unvergleichlichen
glykamische
kunftigen
meinungsaußer
weltberuhmte
zykl
beseitigt
berechnungen
cornwall
pdas
sponsoren
phantast
phantasie
transparenz
ehebru
musikalischen
signalkonditionierung
benachrichtigt
seltsam
versammlungen
neugier
joghurt
##beziehung
angrenzende
bluetooth
##kombinationen
norwegens
jugendherbergen
langfristig
activehotels
urheberrechtlich
anmerkung
prafekt
tankstellen
erstaunlich
defaultwert
schmackhafte
vietnamesische
lehi
##kulisse
volkswagen
cordoba
bayerischen
required
raffinierte
##anschlusse
treuhandschaft
dazugehorigen
functional
verdoppelt
multithre
kingsize
versammel
ambergris
subtrop
santorini
epoque
##eliegenden
aufrechterhalten
inspektions
##robat
##fabrik
address
backpacker
consulting
ischmaels
ascot
##bedurftig
owner
esplanade
kambodscha
mirabell
salzkammergut
destrukt
monteneg
##skanale
anzutreffen
efex
##vietnam
picknick
zuzugreifen
rompido
diskrimin
schadensersatz
stunning
geoglyphen
bournemouth
hepatitis
510
aalb
bsp
bib
basse
bolog
brechen
britten
cater
cottage
done
dance
dors
dsc
dschung
fake
falk
give
gpu
giles
greift
hess
hac
hipp
jerez
kf
kot
kies
kanten
kerts
lett
letter
lyn
m4
mim
messer
mapping
nn
nc
nde
nase
nash
nutze
opport
oasis
pud
pages
pruft
rer
rug
rog
rational
rush
sag
sot
sitten
suhn
tet
tiv
tub
txt
tuk
vierte
vella
wang
winden
walls
wanden
weichen
wussten
x11
yout
zions
##rc
##rische
##rieren
##oßt
##tisch
##the
##uco
##langen
##lington
##wis
##wards
##fachen
##sol
##nacht
##mach
##mun
##machte
##machung
##pus
##iat
##izen
##geist
##greif
##hu
##hte
##hill
##kast
##zelle
##zeilen
##cz
##cil
##cing
##bten
##bay
##bij
##jer
##jord
##170
##ernd
##erium
##erlebnis
##intern
##inhalt
##insatz
##insoft
##teo
##tech
##teuert
##eiger
##esk
##esund
##stufen
##urse
atom
##arg
##arme
##arischer
einschliesslich
##anas
deriv
infr
inneh
##orum
##itsch
##atung
##atia
##atwur
##elab
##elijk
##schichten
##schaltung
##emm
##igend
##aume
vere
vergebung
verrat
##ionale
##routen
stro
stuff
stoß
ert
erlernt
##irn
##isl
##isso
aufricht
aufforderung
aufschwung
anc
anhalt
aneinander
anfuhrungs
##amos
##egal
##egion
##egesch
impress
unnot
##entumer
##ols
##olz
##uttel
##ruppen
ausf
ausweis
ausschließen
##reist
##reihen
schal
schmel
scharf
schmerzen
schlendern
##ados
##adio
##reie
##ehlt
##abler
alf
ubermittel
uberfullt
demand
quay
##stete
##serklarung
konjunktur
spanish
ihrerseits
progn
umbau
umfrage
##menus
##menschen
beispielen
amus
##ratet
##rake
vorstand
vornehm
vorfahren
vorschlagen
vorliegende
vorreiter
##ulden
##ulare
##opy
##opoker
unterworfen
unterbrochen
deje
deklar
abgeben
abstanden
abbildung
abschalten
##weiser
heritage
##netem
bestes
besaß
##ungsort
diesbe
manuelle
manusk
warmer
neok
neoli
##zeut
ark
arger
##ploy
tode
took
totem
toaster
klage
klippen
##iban
wasche
steuert
verfassungs
flu
fleming
##okraten
pla
gesandt
gesperrt
exek
jahrlichen
neuheit
neuheiten
befunden
befasst
chaw
##arete
supp
blas
blow
blutes
##assigen
##pfad
gelehrt
roosev
eurol
try
mehrtag
##formigen
aberde
##werf
zwisch
germain
thur
thor
##owitz
seeho
tagest
minutigen
maar
maint
##samt
##gerichten
marin
marathon
stras
strass
duomo
coun
verbrauch
##ettbewerb
boat
boom
gewichts
gehalt
weiterver
##klima
ubernahme
isot
isla
##teilten
##ioden
els
landliche
##ohnungen
##amma
##objekte
ausgieb
ausgleich
zwischenstopp
begeh
begangen
versetzen
##ssi
129
indones
bres
funften
contra
##laut
##laufer
bedacht
##reibungs
erwahlt
##sbeg
##sbehandlungen
##prinzip
adel
busfahrer
meeren
sha
sham
kurden
kursen
interact
interlaken
##ubersicht
phon
phang
##aded
beschaffen
hauptattraktionen
direktive
verwalter
##aumten
##fragt
##couch
enco
polens
metadaten
wanne
außerungen
engeln
wozu
nutzlichen
##minute
funktionelle
##links
wechs
##axe
grundet
grundlich
preiswert
preislisten
##ietungen
zusamment
184
1830
zusammenstellung
kammer
verlaufen
verletzungen
kommend
##itzer
##rankten
ganzer
festgelegten
endlose
ausgefallen
gouv
saun
##fred
guar
bewiesen
bewirkt
norfolk
kleinschreibung
bildbearbeitung
bildverarbeitungs
modischen
dress
acrobat
gartenterrasse
krone
##eigte
##eignet
dortigen
zugig
##ouk
##alisierten
korb
eingereich
whole
syl
gestort
machtigen
machtige
markovic
portable
delph
ungarische
wassern
##ragende
autocom
kurzester
tracks
archives
nostal
werkstatt
aktivierung
vereinbarten
westf
wirkungs
erfindungs
bildete
gasthof
gaststatten
players
gegenuberliegenden
casablan
weitaus
ideales
##aiso
vermag
vermeint
##spruche
brown
##inkeln
cars
##world
bereitstellen
akust
erweisen
zeichens
diskre
vergleiche
offenbaren
dahinter
analogen
sommerurlaub
sommersaison
##idenz
faxe
herausrag
##verbund
produktlinie
brauchte
rucker
##slash
tempor
##gewalt
interesses
durft
attraktion
euroc
##getreten
238
vierteln
contact
facto
angestellte
banks
mitarbeiterinnen
millor
bundnis
bezugs
ratjada
verschicken
verschmel
panam
weingarten
lehrt
suchmuster
kernels
dienstleister
druckmaschinen
sofortige
sozi
##bucher
extrah
behinderte
perfektes
colum
colazione
worked
graphen
dichter
klassik
propert
pfeil
pfade
anzuschließen
sonnenb
sonnenschein
albanische
identische
prekar
predigen
preußen
janeiro
gewahrleistung
batterie
beziehungs
bundesregierung
speichermedien
tables
expans
1984
1981
1980er
legte
kritiker
explos
squared
uberwaltigen
schmid
exzellentes
milano
milosev
lautsprecher
wanderwege
vernetzung
digitales
1972
1976
1977
##rakel
normales
beobachtung
treibern
1960
ewg
uberzeugung
senior
##ukose
sexuellen
fertigungs
verstandigung
entscheidender
woher
elektronisch
##nummern
##arius
zuckerfreien
investment
bestandteile
addinsoft
hamburger
paphos
sitekeeper
implementation
dauerte
kampft
burgern
##deutschland
programmiersprache
capri
crash
##gesetzes
390
astro
giard
austauschen
israelischen
aquator
angemeldet
baqueira
restaurierte
beschaftigten
grosszug
besonderem
besonderheit
##kontroll
communication
risk
dublins
intelligence
imagin
helligkeit
braille
lateinischen
verwandt
psychologie
friedliche
nutzungsrechte
erkundet
schlechtigkeit
##ambre
venedigs
direktem
berechtigung
skripts
zertifiziert
haftungs
sapwin
chats
mechanismus
##willen
##chemie
miniatur
##taug
manhattans
##ereien
anschliessen
analysis
grafikkarten
konstrukt
analogaus
intensiven
nachhaltig
huge
understand
upper
durchschnittliche
fehlende
parallelen
wetteinsatz
fotografie
begeisterung
parlaments
erfreu
wohngebiet
anerkennen
kennzeichnen
conveniently
bunte
vergewisser
multimed
zwangslauf
langsamer
instructions
kompetente
verschwindet
murten
sdss
chiang
nerven
sval
entscheidungs
astronom
sarah
ordentliche
homoop
pentium
penthouse
##motoren
glaubte
##spezifischen
außere
schwedens
patentierbar
patentierbare
schottischen
##aggio
kontinuierliche
##bewegungen
kristallklar
gerichtshof
elektrische
mailinglisten
exklusivsten
andrew
languages
bewußt
lady
settings
blanes
verwirklicht
sized
folglich
haftet
natascha
bootsfahrt
unbekannten
fokuss
irgendeinem
journalisten
architektonische
grauen
spannende
pilotdistr
##borough
proprietare
fauna
unentschieden
essent
trocknen
##montage
channels
meinungsfreiheit
multiplex
anwesenheit
muslimischen
bellevue
fettverbr
hebra
##galerien
hubsches
sitges
erstellten
konvertiert
abgestimmt
etikett
mikrofon
erlesene
possible
unkomplizierte
##bildern
unaufhor
ausgedehnten
pkw
befindliche
korea
anhaltende
verborgenen
erwecken
verpflichtungen
physikalische
kitesurf
##signale
vervielfaltigung
bekleidung
funktionalitaten
krems
hygiene
annaherung
marienplatz
telefone
##strategie
cultural
agyptischen
digitalkamera
atemberaubend
kohlenhydraten
schmecken
katzensprung
certainly
folgendes
korpers
verzaubern
thread
##lioni
scheitern
##pflege
prozeduren
ungultig
rubens
arbeitsplatze
femin
database
kommandozeilen
verschlusselt
namibia
pionier
pauschal
exkursionen
croupier
draenei
zulieferer
##sprasident
trekking
hydromassage
independent
hampshire
nirgend
karaoke
python
rovinj
etoile
##vertreter
eifersucht
barmherzigkeit
hengstler
others
bayreuth
kitzbuhel
kowlo
bratislava
metropolitan
croisette
aalborg
kfz
kertsman
opportun
neoliber
roosevelt
seehohe
casablanca
zwangslaufig
homoopath
aids
bike
bella
cb
coch
cub
curt
caching
dot
dut
ding
drum
dutzen
dzin
dutzend
fak
fift
gz
gett
gogh
iec
jag
jum
kel
kav
kha
khan
lich
lung
lop
lak
loren
lehnen
lernt
mcc
maps
native
nai
ole
oox
ohren
qur
rd
rar
rind
russen
ritter
rfa
rettungs
sung
shr
sib
saum
safte
sda
seht
tid
tmp
uben
ucc
vl
wak
witz
wetten
wendet
wachter
yar
zellen
zoro
zehntau
κα
##ait
##rist
##rennen
##richter
##relev
##tor
##lampe
##wider
##eut
##fy
##faden
##such
##suche
##satzen
##nische
##prie
##ifen
##hs
##hus
##histor
##harmon
##kg
##kd
##kos
##kuchen
##dl
##dner
##down
##yel
##zauber
##cell
##vest
##vic
##jos
##28
##78
##71
##enst
##erd
##ergie
##iele
##inal
##eiern
##esia
diebst
##uras
##urlauber
##ichere
##arif
einsp
eingenommen
einverstandnis
##anfang
inlands
intran
##orger
##elden
##schme
##schalk
##emble
##emusik
##igl
##ety
##etch
##terasse
verj
##omer
##ometer
##ieri
##iermark
##ionary
##achungs
mitteilungen
##bers
##berry
erzw
erblick
errichtung
ertragen
##dera
hosen
##ises
##isations
##agh
aufb
aufsatz
auflage
anat
anspr
anna
anordnung
anhoren
##otter
unit
unicode
##sec
beute
##image
auszug
auszeichnet
ausubung
sched
scheine
schrag
soho
##aftes
##osite
##ehst
##aby
ald
aless
along
demnach
##steigt
konkret
kontexte
spru
spend
spont
spek
sprecher
alla
umr
umst
umzug
umsetz
umgibt
monde
enttau
##ffekte
nachweis
nachdenken
##iking
##ikopter
##eschi
amate
##rates
vorsch
vorbes
vorliegt
vorgegebenen
##ulo
##ulations
unterrichten
unterzeichnen
##ertrag
dead
abd
ablen
abkur
abfragen
abstimmung
abhangen
abgespielt
##uma
apis
besagt
besorgen
berges
##icke
refer
repres
reklam
mantel
mansion
warn
warwick
necess
frames
##verschie
##verfolg
##verlauf
##afting
##bearbeitungs
##bekampf
##forum
klaus
klinischen
##ibus
##ibly
groden
angriffen
steiger
steaks
pris
prater
prenz
printer
##aufgabe
weißt
##ateien
flussen
##rif
##oku
geschul
geschirm
##hood
jahriges
jahrmarkt
sercotel
chel
chambre
forums
foreign
##ayana
##blatter
##akuste
gelieferten
rond
rouen
roof
rostock
persons
##iae
treb
glock
ett
mehrzahl
apostel
##herie
##herum
##herstellern
loy
loud
locker
hierdurch
benennen
gereg
third
teamm
sehenswerte
##anzt
minuter
##folger
fruchten
1919
duo
bost
boast
solltet
weitergeleitet
ubernahm
isola
##selbe
##standig
gegeneinander
gemass
##schiede
parkplatzen
parkmoglichkeit
betriebe
##fuhrenden
##kennen
##ials
zwischenzeit
begannen
##overs
menor
menup
wahres
1200
brach
funchal
##ussion
confl
luc
selva
bedford
##vors
##voraus
##vorschlage
onlines
obgleich
perus
perip
empfinden
buslinie
clift
##ustern
vollklimatis
vollbracht
kurses
##ystems
schnapp
eigens
direktor
aparthotels
bits
##frem
schlangen
verkund
gleichung
nutzers
arbeiteten
langzeit
##ignal
funktionale
funktionsumfang
sono
sont
benutzten
##schew
wee
##raums
grundsatze
heilen
##autor
einfachsten
freiluft
skiz
spielautomaten
##gelegenen
rechtsw
formigal
verletz
stereo
technical
##konze
##konzer
endlos
goed
systematische
touristik
bewohnt
getreten
troj
standardzimmer
installationen
installany
helm
nebenan
nebengebaude
erhielten
gruße
##ports
bildverarbeitung
drang
drauf
driver
dryer
turken
##nehme
kulturelles
##boutiqu
korrel
diat
diablo
canos
relations
gestr
ungunst
fire
wasserkocher
teleskop
##manuel
##freier
##trak
pract
praca
prapar
baustelle
##rath
autocamp
kurzere
kundenspezifische
apartmentseite
automatisiert
1400
letztes
vereinbaren
erfahrt
starkem
agieren
swisso
gottschalk
appar
salle
salobre
##tragern
sportmoglichkeiten
zuganglichen
cash
knie
known
vermarkt
zielt
stattgefunden
caribe
reserve
message
messias
verkehrsanbindungen
organiser
greuel
radar
##aires
holt
digitizer
##viele
vergleichsweise
bleibe
regelungen
anzul
##intosh
friends
##modern
straßenbahnen
straßenlarm
##interessen
netreserv
herausgegeben
zulassung
badeort
vierzig
brauche
elev
##ummert
dateiformat
geistig
attractive
streets
##compu
wellnesseinrichtungen
karik
karne
karriere
vollstandiges
optionale
juniors
unverwechsel
optimierte
mobiles
domingo
##endete
##endeten
verbesserungs
byte
highly
signifik
downloader
##laufwerk
##ituation
corte
wirtschaftsw
myster
samen
samuel
##iteratur
beachte
beachtet
angela
##jahren
##jahriger
laufend
kontaktdaten
industriestandard
haare
suchte
##antwortung
downloadcre
entsprechender
stockige
vorteilhaften
transp
betriebssysteme
gediegen
hafenstadt
binar
toolbar
##buchungen
verantwortlichen
verantwortliche
evtl
balkone
busch
buster
graber
nationaltheater
hoherer
jena
silic
anzuschauen
anzuwenden
gerates
steuergeraten
sonnenschir
turkis
albaner
wandler
menschlicher
monta
montreux
kampfes
absolu
passend
bundesk
formats
maßnahme
finanzierung
patong
junges
jungere
schlosser
arbeitsspeicher
arbeitslosigkeit
ifa
##agoza
behandlungs
useful
explor
squash
##mpel
schmalen
sofas
romantisch
bedroht
schriftzeichen
aussergewohn
##graber
beginnend
browsern
afp
verhaltnismaßig
gunstigsten
##manns
komplexes
bruders
mainstre
experim
erdboden
macau
id3
esther
hoflich
##gegenstande
schrittweise
geschlossene
editionen
##parameter
speak
##entwickler
klarheit
transportation
throug
echtgeld
sinkt
konsult
anwendungsentwicklung
produktent
hallo
hosting
großbritanniens
tiefsten
muttersprache
symbolen
symbolische
borne
skiaufbewahrung
330
wayin
##programms
missionen
4000
textes
hilfes
riads
ermord
juristen
kundigung
rubin
vietnams
##adores
astrol
kriegen
krieger
austria
erinnerungs
objektiv
bapt
kits
anyone
formentera
ibm
##hanouk
stabilen
positives
stammes
hoffnungs
bevorzugte
verschleiß
1958
##servern
##gerechnet
schwarzweiß
miami
builds
ressource
lotstellen
zubereiten
zubereitete
geringsten
leistungsstarker
beautifully
sortieren
powerpack
tomi
zauberhafte
sihanouk
droht
story
erbauten
picchu
negative
##speicherung
mediterraner
gaulle
greenwich
tutorial
zufriedenheit
zeitgenossischer
zeitgenossischem
anonymous
##sphase
wiederholen
palmas
##kirchen
omnis
abwehr
scripts
eindrucksvoll
muslimen
apartamento
stephen
privilegien
##fruh
nephiten
##oraptor
concorde
1906
reports
geloschten
fehlenden
verlangerung
ukrain
johann
sternenflotte
steigenden
etablieren
##ificant
detaillierten
alpes
##boxen
wolff
##afrikanischen
abgelost
kooperieren
instruktionen
feindliche
hungers
porsche
zogern
rohstoff
sdk
monitoring
mastering
##blocks
vielseitige
pentax
relevant
##konstruktion
glaubten
wartezeit
arrangiert
##speriode
fragment
gebirg
eindeutige
##books
888
rechnungs
franca
##artikeln
tribbles
ansprechenden
verstarker
loungebar
##zwecke
skigebiete
contains
rechtschaffenen
tibetischen
arzhan
verwirklichung
ebay
aufgehort
ungewohnliche
azia
osteuropas
##hardware
anmuten
vorgehensweise
##pflichtigen
bemerkenswert
##effekte
##varian
surrounding
uberraschung
9001
agenturen
araber
##disziplin
unbegrenzt
gehorchen
quadratmeter
rapid
geographische
substanz
grosseren
current
jpg
italian
schwachstellen
schokoladen
nobel
##tests
steigert
kunftig
menton
wochentags
spirituelle
fraktionen
harbor
opposite
widmen
zaragoza
##otherapie
hochauflosende
separatem
kreiert
liga
podcast
selektion
muslimische
musikalische
kaugummi
pazif
verlinkten
seemed
fortgeschrittenen
denkmalgeschutzte
vacation
chaos
ansprechendes
joggen
##ahmung
rs232
##swissenschaften
versteckte
hausgemachte
bezogene
transnationale
napole
begrundet
adapt
skripten
ubertretung
erwahnten
bewußtseins
angetan
nahtlos
confortable
opernhaus
lindner
ringsum
##videoraptor
fungiert
pacific
ordnungsgemaß
teilnahmeberechtigte
applikationsingenieure
vergroßern
attentive
orchide
adriakuste
gastronomische
lemuel
herkommlichen
stephans
cinque
prophezeiung
##abhangig
renovierungsarbeiten
imbiss
damaligen
workshop
einwanderer
jahrestag
bremer
unerwunschte
kongresse
mehrwertsteuer
##gesprache
geheiligt
correct
cvs
freiburg
vendome
##variablen
description
quantitat
weiterentwickelt
medikamente
fabrics
qualifikationsturnier
dimensionen
##spflicht
kurdistan
liberty
arrondissement
pharmazeut
dungeons
pgp
erlost
##grenzung
pergament
fedora
bezeugt
trapani
souveran
eugene
taschend
transparente
invasion
anbetracht
desserts
brugge
riverside
doktrin
##verschmutzung
wohlergehen
j1939
naxos
weltjugendtag
christopher
fussgangerzone
ehebruch
bologna
suhnopfer
anfuhrungszeichen
neoklass
chaweng
gouverne
kowloon
fifth
ooxml
zoroast
prenzlauer
minuteren
installanywhere
swissotel
netreservas
downloadcredit
throughout
512
average
bj
bingo
bzgl
cu
cere
cite
clos
cuis
dum
d90
e3
eichen
fell
g8
gie
hist
hak
hamil
horn
icc
jj
jacht
kru
kle
kohl
kasch
kreisen
lil
lido
lingu
m5
m3
mort
malen
mud
muff
mime
masc
nau
nack
o2
peg
ping
pok
pct
pens
ric
rho
rip
sf
ses
sass
slie
sfr
sure
ssh
tan
til
ted
tum
trum
ug
vekt
voy
wehr
wais
words
##ram
##rim
##raf
##riel
##rass
##rassen
##rachten
##riken
##rera
##ood
##tun
##typ
##lust
##leichen
##ezuela
##fi
##san
##som
##sis
##sachsen
##sberg
##swerter
##mauer
##muhle
##piel
##81
##iast
##ioren
##ians
##gan
##gasse
##green
##hten
##horer
##kw
##kh
##ky
##kant
##kod
##keln
##zell
##zeile
##bu
##ban
##beb
##behr
##brie
##just
##224
##95
##72
##но
##на
##ст
##eres
##erzeug
##chips
##iehen
##initi
##testen
##start
##stuhle
diehr
##arin
##areg
eind
einbezogen
##ask
##anleg
derjenige
##iting
aux
##atal
##eline
##schad
##schritte
##emat
##emonie
zugenommen
vervoll
verruck
verzer
verstre
vertragen
verwerfen
verordnungen
##achel
##achtete
##rod
##room
std
stur
stieg
stoßen
sturz
sticks
stuba
ernen
erfragen
##eingang
auflos
auffall
aufpassen
anruf
anforderung
anstieg
##ckten
##egangen
unum
##enty
##enturm
##eball
bee
bewerten
##ims
##imi
##rub
ausbr
auszur
auszeichnen
auszut
auskunfte
ausdeh
ausleihen
schen
schale
soap
##reht
##osoph
##mers
##unken
alma
##ugten
##levard
##estadt
##estyp
uberbl
uberarbeitet
uberschw
uberdurchschnitt
##sted
espresso
spin
spende
spoke
umben
umher
umfragen
umstieg
moon
movie
moulin
entschl
entfallt
##ivo
##spannen
nachdruck
nachlesen
##icz
geop
daim
daemon
amtrak
vorur
vorgel
vorschau
vorgaben
unterzogen
unternimmt
abel
abenden
abstellen
abteilungen
besetzung
besiedelt
##alla
##isto
reformen
##gezeug
neteller
fracht
##ferien
arno
##plpd
klingen
##ibc
liechten
durchdr
durchlaufen
wascher
steak
steven
##aufkommen
##atei
flaschen
##stellers
##rique
##ucks
##ucky
großunternehmen
kannte
gesang
comedy
jahrel
befassen
chue
suse
##ayette
##blau
bluhen
##achtige
gelistet
roter
eures
nahert
trachten
trennt
glad
glatt
glyp
glamour
glukose
restbetrag
##riegel
mehrsprachigen
##herzig
##herapie
##haltigen
lose
gebuchten
##alty
zwie
zwingend
##utend
thier
teuren
##gebietes
often
mae
marmel
bozen
gehorten
gehweite
weiterzu
##klin
##klub
emir
##arbeite
##arbrucken
nochmal
##loss
##fahrern
##fortable
landestyp
##periode
##fuhrende
bestatt
##acs
##zeitschrift
zweisprach
datenanalyse
lava
einzustellen
ausgab
moglicher
##avan
##avent
##zugs
begraben
##sseite
##ssitz
##richtungs
india
indire
brad
109
106
fahrplane
##ordneten
bedingung
onboard
##malm
standby
##chnologie
obige
pero
perle
hochsaison
hochschul
leaf
leeren
einfamil
empfing
poz
mekka
reifen
lines
shinj
kurven
phur
##adez
idea
ideologischen
bescheid
beschichtung
beschließen
hauptseite
bitter
##ipe
serviceangebot
schlucht
notfall
strandlinie
kinderl
außersten
wiederver
gleichwohl
engines
langsten
langjahrigen
ebenedict
##uerte
grundungs
##geschicht
##geschaften
##geschmack
##geschaftes
##striche
##zahlungs
basiertes
preisniveau
schwimmer
185
182
##projekte
##forderte
fuhrungen
##efel
verliert
verletzen
verleger
naturliches
naturlandschaft
anwendbaren
altavista
festspiel
served
##anderten
ausgef
schnellste
guy
guenst
bewir
bewirken
trouser
hela
helikopter
antreten
ortliche
geschaftsessen
geschaftsfuhrer
geschaftsbereiche
stile
turig
kulturzentrum
##issionen
##garde
kresse
krisen
zugest
zugegriffen
canape
kunstgalerien
erlassen
erleiden
wohnte
gefull
portmap
delft
##aldi
aufgeben
musikern
halber
wassermel
behorde
gemeinnutz
treat
##flughafen
stairs
scand
traten
vertik
kosova
irischen
irlands
werkstoffen
etwaige
##sko
##skirche
142
aktivisten
wells
westminster
starkes
##eidungs
##setzte
playlist
klimaanlagen
sportliche
doppelten
weithin
schlafbereich
##inkatu
##wortete
messier
verkehrsverbindungen
##preises
einziggezeug
smell
diskret
optisch
speiser
anzur
erkrankungen
reisezeit
friendliness
analyt
##sprojekt
loken
produktiv
poolbar
herzlicher
magie
##hinein
phpmy
niedersachsen
avec
asphalt
235
##bergs
mannschaft
verbesserten
##cester
erot
erobert
fox
significant
projektor
christoph
christentum
meistern
corps
##regionen
kapsel
samui
samoa
touristenzentren
angelo
angelegenheit
##jahrlich
ausgangsort
##krimin
telefonie
ratschlage
gemeinsamer
verschle
verschrieben
einsatzes
vergreifen
##metall
programs
lehrte
cleaned
##gieß
opens
##zusagen
ostern
tageskarte
tagesausflug
umfassender
praktiziert
##wandel
##buchung
großerer
said
saplpd
saarbrucken
mitgliedstaaten
badezimmern
##grunen
verbrennen
energien
immun
flussufer
außenpolitik
umfangreicher
grafschaft
steuerelement
dacher
yorker
venice
venezuela
wandelt
schwerw
wechselnde
amerikanischer
therm
luxushotels
lichtdurchfl
absoluter
##residenz
backslash
##wartigen
vielfaltiges
kabelfernsehen
materials
finanziert
surpr
expand
luxuriosem
ego
unterschrieben
vertraulich
dokuments
##atessen
45th
eisk
##zentrale
uberwachungs
sicherheitsgrunden
##cret
erzeugte
erzeugnisse
milden
milde
milford
flexibler
campus
okay
schriftlichen
justiz
larger
creek
schwierigkeit
##operation
##operationen
1941
1946
1947
gerechtfertigt
trips
triopoker
ausdrucks
torrem
##udecca
experiment
1966
1963
ansi
##bewusste
macintosh
schiffen
entwicklungszeit
##gegenden
##spektrum
besichtigt
segnung
speech
petro
gemeinschaftsp
90er
##ographische
eingeblendet
##posit
unerh
unerreich
##fullung
##ariat
gefahrdet
zuckerfreie
geheimen
weltkrieges
sonderangeboten
records
actually
autoritat
editieren
paper
relaxed
nachtlebens
rhetor
dekorator
begrußung
##bezogene
taip
wissenschafts
wissenschaftler
debit
gegenwartige
##anspruchn
giudecca
msn
vielerlei
geplante
verfolg
minibus
mexikanischen
mp3videoraptor
denkens
konflikten
midtown
geheimt
inspection
gewohnlichen
faire
epische
tragbaren
castillo
listet
psycho
faszinierend
skytrain
erkenntnisse
mittelmeerkuste
nutzungsbestimmungen
lotterie
geringeren
erhebliche
moblierung
schaltungen
##acao
utop
dialogfenster
mosia
englander
vorbereiten
mundung
##speichern
mechanische
denkmaler
gaumen
verursachten
hrend
##moral
konfigurationsdateien
##zehnten
prominen
draw
zahnfreundlich
zahnarzt
##rustungen
stockholms
verbleibt
ausgebautes
angemessener
resultate
popularitat
kroatiens
##kirch
wunderbares
theoretisch
fehlte
erziehung
tulsa
rheinland
messenger
##runk
hunderttau
daqcard
klaviermusik
erstrecken
megilla
##frucht
##sequenzen
gepflegtes
johnson
fabulous
interpretieren
polnisch
entdeckungs
untersuchungs
sohnen
konstanten
preston
verließ
nachfolgende
registerkarten
wohngemein
einschranken
angehoren
finnische
joint
gewonnenen
anerkannten
zitiert
rohstoffe
galaxie
affinia
jacques
78224
mastercard
streitkrafte
industry
gefangenschaft
moralischen
livemusik
courte
bolschew
scheck
arrangement
arrangements
nationalsozialistische
rechnungen
rechners
vergewaltigung
customer
safes
896
##waldern
##gultig
elektrischen
hongkong
unberuhrt
beheizter
urban
johannesburg
honor
triggerung
beschleunigung
snowboard
##dimensionalen
ethnischen
uberraschungen
erforschung
##ottenburg
ablehnen
zerstorungs
lernte
quickly
enthielt
attribut
noblen
familiaren
zyklus
hochauflosendes
levante
engagierte
kreieren
pdfs
bestraft
hochpraz
seltsame
konvertieren
mikrofocus
victorian
beurteilung
erfrischendes
##temperaturen
wikiwiki
evaluierung
exemplar
versicherungen
brennstoff
transnationalen
attraktivsten
datenubertrag
korrekturen
ausgeglichen
lomond
mountainbike
einwandfrei
sequenz
migration
##kategorie
##agenturen
unubert
neustart
volkswirtschaft
teilnahmeberechtigten
baglioni
weiche
##averei
##strategien
verklein
vervollstandigen
geografischen
cesar
##flieger
merkmal
kuchenchefs
wmv
multilingu
##bewusstsein
prophezeiungen
atemberaubendem
additional
bidet
constant
##sproblemen
kohlenhydrate
joyity
tftp
schoen
kandidaten
raval
mitzuteilen
##demokratie
eroberung
entrance
vordefinierten
suitable
##gebauden
gleichzeitiger
appellations
befurchten
vereinbarungen
transformation
zugriffsschutzeinstellungen
verknupfung
ottima
degli
gdansk
rijks
##rhein
quarter
herauszufinden
sicherheitsupdates
unvermeidlich
paladin
hauseigenen
patriot
rialto
ultimative
rafael
uberflussig
unverzichtbar
dresden
##cadero
appreci
multisim
##korrektur
splendid
momente
spectac
gothic
videoanrufe
workflow
lienz
charlottenburg
visitenkarten
##begeisterte
##kompetenz
grenzuberschreiten
longer
erasmus
fleische
blutzuckerspiegel
handheld
##offentlichkeit
selbstversorger
zuckeraustauschstoff
powell
pattaya
stierkampf
kuwait
sexualitat
meinungsaußerung
catering
tivoli
dejeuner
aberdeen
council
wechselt
ruckerstattung
beziehungsweise
schmidt
pilotdistrikte
unaufhorlich
getting
yarmouth
##priester
enttauscht
##verschiebung
##bekampfung
geregelt
teammit
conflict
vermarktung
anzulegen
absolutely
omniscan
##fruhstuck
cuisine
hamilton
sliema
liechtenstein
chueca
glyphe
einfamilien
shinjuku
phpmyadmin
2nd
877
aac
bav
bander
bande
brid
banner
cant
came
cebit
delle
dehn
ekl
feb
ful
fow
gon
gun
gend
gige
gale
gio
gord
gans
hm
hb
heter
hame
hda
hielten
jas
jungs
ki
kug
kog
kub
kasse
kuhle
kdm
ld
lion
lund
lark
lass
lamp
lugen
lehm
lutton
mt
mam
mest
mant
nad
ness
nue
nannte
p2
pid
passe
piet
ral
rok
ria
rafting
sg
sic
sard
sack
satt
sco
sai
tb
tick
tell
tac
tegel
tonnen
teher
u00
vlas
vaku
wron
waffe
xx
xen
zl
zle
zwer
zeil
##rungen
##ransfer
##oase
##lab
##wellen
##waffe
##ede
##fal
##fra
##fuss
##furt
##feier
##focus
##seg
##sse
##nch
##nica
##m2
##mung
##mischung
##ipt
##gier
##gis
##gert
##guter
##himmel
##kind
##deg
##yu
##yen
##zon
##zehnt
##cor
##cent
##caster
##canner
##colo
##vet
##borg
##brid
##bele
##73
##ни
##chan
##chco
##inde
##inkt
##onik
##sters
##stage
##stahl
##arest
einig
einschl
einigung
einsetzt
einlog
eindring
##anumer
##alster
derselbe
inh
instand
inanspruchn
##orle
##atan
##aters
##emaster
##emla
##igon
##aune
verde
vermer
verraten
verherr
##omon
##achus
##roen
sty
stage
stav
stobern
##berichten
##beratung
eror
ertrag
##iri
##ismo
##ageb
##agle
##agnet
aufsteigen
auftrage
aufzeichnung
aufweist
aufstreben
ana
anche
aneig
anfallig
##egeb
##egler
##dek
univer
uncom
unlang
unheil
##ilde
##ildete
##oland
##olut
furchte
bean
##imir
##imulation
##ahemla
hotelpreise
ausl
ausweg
ausschließ
auszul
ausuben
ausbildungs
##indon
schatt
schlau
schieber
socket
##rede
##reze
##reckt
##osop
##osserie
##ehaus
##abu
##abelle
##abilit
##abschnitt
##ablaufe
alde
alone
alain
##ugia
wirft
ubersehen
ubermittlung
ubergeord
uberreste
demzu
qui
quito
##sergebnisse
##endaten
##endusche
spock
##undzw
protag
prozeß
uml
umzusetzen
entre
entladen
##iva
##ffah
##ffizien
##spiell
nachfragen
nachtelfen
##icia
##icator
##icana
gefl
##uchtern
dazwischen
daily
vororte
vorgelegt
vorhaben
##uli
##edel
##editionen
unterlassen
wieviel
deploy
##antwortet
abfahren
abfrage
abgrund
abwechsel
ability
abmessungen
##umgebungen
apt
besorg
besiegen
besetzten
##allow
beruhr
##iston
##ohne
##ungszauber
manuf
manuel
warnt
warnungen
##ellose
fri
fram
##vere
arischen
##pler
##plant
##plateau
##bef
##beam
##foren
##pton
angerechnet
durchd
durchzusetzen
steiermark
prit
pragen
verfuhr
verfasser
stadtische
fliesen
flush
##risten
großstadten
geschutzte
coming
chill
chilen
##ills
supr
suisse
bloom
blasen
##assige
gelebt
rohre
tratt
trieb
troms
gleit
##hero
darm
dargestellten
##zubereit
##graben
zwingt
geruh
gerufen
##geblieben
##ardi
##gesucht
##izi
##izierter
seos
seca
regels
mint
##folgen
##itee
fruehst
maßen
##gerichts
mary
marie
boz
body
gewartet
##ahnlichen
kob
zeitlichen
zeitrechnung
elf
##atti
##komfort
##aterrasse
landkarte
weltwei
##ify
bestaunen
##tellungen
zweibett
handlern
unsicht
fruhlings
##kennung
##haftem
##zugriff
begehrt
begrenzen
begehrte
versorg
versiegelt
##trin
##tres
entwur
inder
indus
bretag
fahrschein
##ordnete
##ließ
configur
teilung
bedurft
onlin
it8
webbrowser
obdach
instanzen
perugia
buchstab
flugplatz
erwunscht
##sbesch
leading
##prim
urteilen
below
beliz
belgischen
belohnungen
means
meca
##uston
vollzogen
volleyball
interdisziplin
hauptsitz
parli
monch
schlimmer
schlange
encod
##used
funktionellen
ruhm
heimel
##stran
selbstversorgung
selbstmord
##orea
158
baseball
spezifizieren
skisch
204
zusammenfassen
##proz
##pound
verlor
verluste
naturwissenschaft
lebende
altstadter
festgehalten
romane
romagna
komplizierte
unterstreichen
##oney
goldf
willkur
sonden
dojo
garagen
tropfen
kleinstadt
##ainen
antibes
upgra
inside
geschaftsbereich
bildsens
kompakter
dran
dring
charged
programmiert
turbo
##owski
nationalstaaten
nichtraucherbereich
##garia
##booten
##springen
kronen
##etteten
leidet
leistet
diagon
canar
newton
starhotels
gefeiert
##ingtons
portrat
prozessen
wasserski
gemeinschaften
seiden
bausch
bauweise
bauhauses
hervorbringen
beliebigem
##abende
vertritt
vertiefen
kosm
irc
irish
kundenfirma
##ecar
gegrill
##skrit
vereinfach
staffel
sanfte
##gemacht
zusatzliches
spanier
statische
erfunden
gaststatte
##iffe
132
swindon
gemutlichem
salate
wertvoll
doppelklicken
videok
knp
vermuten
vermieter
40d
##inenser
technologische
fernab
integrations
integrierter
einmaliges
qualitatss
universelle
greco
patents
patentanspruch
various
##iveres
tauern
passau
wohltat
##freundliches
##rechung
analy
sommerterrasse
##ilita
##sprochen
##sprofil
raumlich
raumfahrt
##verbande
##verbesser
aufzugen
oberosterreich
##ashion
##gewinnung
gepackt
durst
durban
##kommst
dankbar
##ifiziertes
##fahrts
lebensstil
lebenszyklus
##allee
optimaler
domburg
##gehalt
nichtsdest
textil
textbasierte
foyer
kriegsende
kostenlosem
facing
opened
danischen
wahlweise
berglandschaft
lebe
slave
kaprun
kapazitaten
erschutter
umgebenen
umgebenden
ausgange
globals
laufnahe
staatlicher
qualifizieren
qualifizierte
industrietaug
lehrern
philharmon
professionalitat
##lassung
##status
gedient
gedanke
checking
snom
zukunftig
kaffees
englischsprachigen
feinden
evaku
nordens
colon
kenne
saar
klassischer
schulter
schulden
bemer
immigr
##otti
vorauszahlung
peer
ubel
eroffneten
silken
##weisende
verdamm
freizeitclub
schlechtes
charakters
##ophon
prevent
precio
jani
stadtteilen
montmart
calc
therme
starting
errungen
melchise
zugriffe
##gefallen
320
botschafter
glasfas
breiter
malerei
unterschreiben
##ship
##buros
kaufhausern
invol
##vermogen
ifema
##sdauer
accessible
##crom
decent
taliban
hochwertig
billige
dunas
##sync
##amento
auswirken
argent
moritz
moroni
lieferungen
religionen
sitzungen
sitzplatzen
1971
erneuten
ausgewahlter
urlaubsziel
fantastischer
begriffs
gunstigste
bestatigte
trial
295
experte
experimen
1964
philosophische
##porter
erbteils
ewiges
fischgerichte
senioren
eingangshalle
besichtigungen
himmelbett
speck
individuellem
fertigung
1937
transportiert
##igungsmesser
gesamtheit
forscher
forschungen
blocke
##film
schallisolierten
verkauften
regency
##bussen
portugals
sonderwunsche
chocol
spektrom
trugen
trubel
vatern
mietwohnung
eintritts
verbreiteten
objektes
synony
coffe
parted
##bezogenen
verstoßt
taif
jury
datenschutzbestimmungen
cappu
publikation
datenerfassungsmodule
vietnamesen
unvergessliches
kopfstein
##basierten
israelis
vega
##sstufen
restaurante
pula
sahara
kolonialen
zuverlassigen
incred
##option
communications
franciscos
schauplatz
brandon
lebendig
atlantic
verschlossen
1952
1959
fairmont
ausfuhrlichen
effektivitat
epochen
tragbare
verwandte
buddhistische
bezeichnungen
prinzipiell
paradox
premierminister
ubereinkommen
geringem
physisch
physische
erheblichen
users
pragm
ausgesandt
rustungen
zauberhaften
kontinental
kontinentale
uberblicken
urheberrechte
biom
stillschwei
fiat
haftbar
ngala
klicks
bezaubert
##orbenen
protection
denkmalern
##partnern
bedeutendste
synchronisierung
volvo
##etrics
reprasentieren
formulierung
##quisition
treffer
sternbild
regulierung
begrenzten
verblieben
ausgebaute
grunflachen
bankenviertel
thailands
thailandische
1926
converting
resultieren
popularsten
abzuschließen
fliegenden
frontend
dominieren
refug
hugell
sumatra
meisterwerke
drittanbieter
concert
##kammern
harmonisch
machu
uppige
uppiger
drehkreuz
437
##wissenschaften
spirit
angeht
kennwort
geburtstag
interfaces
multipl
multiplayer
join
joan
##massage
schatzkammer
spannungen
metropolen
longye
schuldig
5800
verteidigungs
pulsierendes
fluchtlinge
museumsinsel
cabarete
uberschrieben
krankenhauser
reitt
eingreifen
##orientierten
konzepten
##gemeinde
streitigkeiten
dolomiti
tsog
##großten
circ
glaubwurd
alphanumer
enormen
zeigten
konsequenz
publikationen
kept
keys
stammende
ndliche
venture
automobilindustrie
beanspruchen
federal
llig
##gespeichert
elektrisch
##reservierung
demonstrieren
demonstrationen
wißt
dali
gesammelten
honig
entstandenen
folgten
##358
perspektiven
beschleunigungsmesser
figuren
wassersportarten
passagier
vortrag
##hochste
energier
rebell
spannenden
gehorsam
quadratkilometer
gerechte
gerechnet
thermalbad
initialisiert
esszimmer
territorial
territorium
##zeiger
glykamischen
##fahrzeuge
vernunftigen
zarahemla
##adressen
schwedisch
simulations
electronic
tasks
quests
questions
hydro
citroen
heidelberger
cfp
versammelt
statistical
visualisierung
fortgeschrittene
anlasslich
##sprechung
diamond
diamanten
softwarepatenten
factory
rennstrecke
kapitalismus
koordinatensystem
cavtat
brennenden
traditionsreiche
##liedert
erwahnte
delikate
delikatessen
nahtlose
gedachtniskirche
einwandfreie
reizenden
synthetischem
impfungen
beauftragt
geklickt
strengen
missbrau
katholischen
pullman
bestmoglichen
bestmogliche
campingplatzes
tendenzen
abgebrochen
wohlfuhl
unendlich
ausreichende
##administr
##angestellten
grounds
externer
pakistans
agrar
nebel
schmutzig
sklaven
replac
betruger
pufferuber
##kabine
ankerpunkt
imposanten
##pflaster
barbara
verkehrsgunstig
kultiv
unschlagbar
uneingeschrankt
##spartei
hochmoderne
fließend
destinationen
gigantischen
krakau
thanks
firmware
angesagtesten
simply
brasilianischen
diagnostik
neighbour
reibungslosen
ajax
emergen
huntington
wundertaten
##magaz
datenprotokollierungs
nahrungsmittel
racing
xf86
emotionen
handhabende
anschlussblocke
zerstreut
intimitat
reproduzieren
gatwick
ranking
einschatzung
##elastigung
waggons
abbildungen
puebla
widerspiegelt
mezzosop
beeintrachtigt
eifer
lehnte
waveform
abstecher
komplettes
ruckgangig
travellers
education
verabschiedet
fisherman
achensee
balearen
unwahrscheinlich
##entscheidung
nachtraglich
vorubergehend
groningen
entsprechendes
capitol
accomodation
screenshots
faksimile
rehabilit
almost
krebs
erscheinungsbild
verunrein
unterrichtet
admiral
dispon
turisticos
architecture
prafektur
dschungel
youtube
zwischendurch
panametrics
columbus
svalbard
fettverbrennung
intranet
peripherie
##boutiquen
karikaturen
bundeskanzler
stephansdom
downloadcredits
jachthafen
##sommer
##aventura
poznan
portmapper
einziggezeugten
courteous
896358
stierkampfarena
teheran
wrong
uncomfortable
unlangst
demzufolge
protagon
deployment
tromsø
bretagne
mezzosopran
3x
aol
aste
bind
bann
bust
biere
bmp
bnc
csel
dx
dang
dul
dachten
d60
dfine
eze
faz
faust
fashion
gm
gul
god
gasse
geltung
gondel
hh
hue
hren
harm
hieß
i3
iis
ile
item
j2
jetz
jachten
kay
kraut
lx
llt
mv
magen
mcd
muhle
nahr
nancy
orakel
penz
putt
pasc
rten
rden
rack
rally
risse
rights
seh
sall
suh
sagten
tuss
tud
tigkeit
treibt
tyr
taking
tafel
veh
vitt
valk
vaj
wy
went
wend
writ
wys
wachs
wisc
write
xin
xorg
yah
ydoc
zak
zee
zunge
zelte
zeige
##aq
##atel
##rten
##rale
##rine
##ronen
##oys
##tig
##tre
##uin
##uxt
##lick
##locher
##wol
##wander
##woche
##wachstum
##wettbewerb
##fieber
##szeiten
##shafen
##sicherung
##nav
##nels
##nius
##massen
##masse
##muhlen
##mangel
##pas
##pil
##pre
##ple
##88
##hes
##haut
##kugel
##kins
##kott
##dicken
##dicke
##ytag
##ymbol
##vd
##vier
##baus
##bade
##bys
##boli
##jab
##jing
##jets
##97
##ер
##ны
##entes
##erstellung
##iefe
##tec
##eibe
##esa
##estern
##estes
##onso
##stanz
diego
##uring
undurch
##arot
##arnt
eingra
einleitung
eingeg
einplanen
##ansen
##alo
##algorith
##alizer
##alaya
infl
inkr
inka
incon
inoffiz
##orges
##ortelle
##ittern
##itive
##atsch
##eleine
##schar
##schem
##schern
##schema
##emma
##ignt
##etungen
##ether
##etool
zuweilen
##aucht
dasein
verhang
verzeichnet
vergehen
##iermeile
##rout
##route
stutz
stutzen
strikt
##berater
erpro
erteilen
erdenk
ersparen
##dert
##derm
##irischen
hole
##iso
##ism
##ished
aufzul
aufhoren
##ands
anfordern
unaus
unzul
##ilaum
##eba
##ebogen
furt
hoteles
##rupt
##ruppe
auszahlung
aussteigen
##reißen
schum
schande
schirm
schreiber
scheiter
schrein
schopfung
##adelle
##rec
##reuz
##ktiken
##oso
##abeth
alu
alster
##ugi
##uglas
wire
uberfl
ubergabe
uberteuert
uberragende
quitt
##serien
##endal
spind
spul
##anna
allgegen
umdre
umsteige
mouse
##spap
##spreise
##spaß
##spots
##orth
##ehrungen
nachlass
nacheinander
##igenden
##icit
gekon
geforderten
##uchteten
beispiell
amount
vorank
vorwarts
vornehme
##ulate
##ulierung
##edet
##editor
untere
unterm
untergeord
##zenen
wies
zimmerausstattung
abhalten
abgeh
abgegeben
abwarts
herang
apia
apres
apfel
besetz
besied
besieg
berkel
zuricher
reaktionen
##egener
##gefahren
##gezogen
mans
nek
fres
frischem
friday
fridge
##ollt
##olly
##verse
aria
##pla
##plak
##bezug
##beziehen
towel
klammer
##ibilitat
angest
liegew
durchqu
biegen
##aussen
stecker
steve
pren
pretty
weiden
weile
weitem
##raub
##rauben
stadtwald
stadtverwaltung
flur
flamme
flotten
##riad
geschw
geschwindigkeiten
genua
plaka
gesichter
exakten
example
comod
jahrzehnt
series
neubau
befanden
cheshire
##uhlung
formal
suppen
bloße
##pfung
gele
rouge
##aure
etna
mehrsprachige
musical
##formaten
loader
loire
gebildeten
hierarch
##quest
##quay
##grimm
barack
barajas
geruchte
geratet
geredet
thule
sehenswerten
##html
##owa
##izione
secret
regimes
minus
##wendungen
mait
schonefeld
1917
dust
coeur
##kly
##iveaus
##arbor
gema
elba
elimin
##attformen
##fahrkarten
##inea
##phy
##idieren
##komme
lands
landet
##fuhrend
##entry
hauch
fruhzeitig
datensicherheit
datenverlust
ausgerechnet
##aval
begehr
begrunde
##ssoftware
wahrnehmen
wahrgenommen
indes
bregen
bryg
bratwur
functions
funcion
##reichende
context
conversion
concept
welle
perlen
buchbar
hochqualitat
##sbad
##sbuffet
##pragen
urauf
urlau
urpm
beleg
empfunden
posten
busfahrt
##cto
clip
linuxt
zahlte
vollwert
volltext
vollmitglied
shah
interior
resour
beschilder
hauptstrasse
hauptattraktion
verwurz
parser
monit
monumenten
schlank
schlager
schloß
enfer
##swagen
gleichmaßig
solide
zentriert
softwareentwicklung
benutzers
##moglichen
##schef
weck
##axis
##laubt
##ielles
bahnlinie
heißer
heims
##strande
##strome
##autob
154
155
kontakten
##spiels
##ology
palas
skrip
1800
1870
205
spieles
namhaften
zusammengesch
##ouristen
##wahlt
nature
besteck
248
sprung
feststellung
renfe
endlosen
endbenutzer
ausgewertet
ausgeubt
folkl
schnellst
schnellmaske
getat
doors
erstgeboren
tropen
standardeinstellungen
installiere
held
nebensaison
grußen
ortsk
bilddaten
##iebhaber
modo
drangen
##affiti
nationales
nationalversammlung
##issia
airy
krestic
##eignisse
loste
innern
##alisation
asym
canary
canister
kunstlers
erlitten
wohnsiedlung
gefal
gefasst
gestiegen
gestalte
zuruckgeben
ubernachtungs
ubernachtungsmoglichkeiten
inselstaaten
einzelpersonen
verkehrsk
167
behebt
sudseite
auswahlwerkzeug
##orno
beruhmter
baute
bauwerke
114
##dentum
hervorkommen
hervorheben
scc
scot
autofahrer
kurzurlaub
trail
##worth
werkstoff
##packungen
veranstalten
aktivismus
nordafrika
sanct
sanitar
generelle
generierten
generally
altertum
##straat
agre
##roller
parts
spanischer
study
studiert
studierte
studies
chris
statue
statuen
##onsin
bildeten
rundfunk
kanadischen
##setzten
##client
swing
playlisten
##orget
sala
salaman
wertsch
sportlich
zentralsten
##kehrungen
knopp
knochen
##bildschirm
hinterland
hinterhof
bequemer
carib
films
messgerat
##atorischen
##renten
madame
bereitzustellen
bereitgestellten
akzent
grey
radfahrer
patentrechts
variety
golfclub
##viewer
entwicklungsprozess
optik
optische
dienstags
italienisches
ambient
anzeig
##finanz
220
##rechnen
einzigartigkeit
##interf
zulasst
obere
oberste
oberflach
ruckgabe
rucktritt
testversion
testwell
privatem
distrikte
interessantes
##iques
##hinweise
##hinweisen
##kommission
linuxrc
##atisiert
angefordert
absor
multib
fitnesszentrum
232
##alled
outlet
butter
optimizer
mannes
##erstattet
merkel
merci
bytes
facetten
wahlt
bergab
fruhstucksbufett
coral
corso
corissia
bundle
katalon
myt
beaches
themas
##liber
globus
lizenzbedingungen
red5
redakte
verschont
verschafft
kombinationen
kombinierte
laufwerke
vergeltung
centers
naturlichem
angebotene
weinberge
##ekocher
##fahigkeiten
##zusuchen
6820
rotlicht
feiner
praktik
praktizieren
aufgedeckt
##fassungen
##grunde
chemischen
saigon
##kamer
ahnlicher
verbrachten
linksliber
immortelle
peel
privatstrand
pfalz
sonstiger
african
eroffnetes
originelle
freizeitreisende
steuerungs
vorhandener
dachgarten
identifikation
schwerter
angezeigte
modulare
unterhaltsame
erging
ergriffen
melrose
##ccino
irgendeinen
##iertere
glaser
surfer
survey
tabs
reality
expon
exposition
malerisch
naval
nightlife
egv
holzmobeln
##shot
erhohten
anzeigengruppe
##ogrande
ehemann
eiscr
##sdienst
##zentralen
evergreen
values
uberwalt
verzicht
vorheriger
direction
aufmerksames
wanderwegen
religions
ausserst
zustandigen
larmb
1970er
lastwagen
erneuern
subs
fantastisch
created
panoramaterrasse
##rakes
gunstigeren
kontinents
einladender
lagos
ansatze
ansassig
##bewegen
##bewohner
monatlich
zeer
zeus
tarife
eindrucke
forderte
senegal
erscheinung
buffets
##iegeln
running
motorsport
##erkennen
souter
roses
seltene
ehrlich
separater
hostals
##badern
verzeichnissen
minimiert
gewinnbringen
activeres
##amenten
reizvoller
harry
devicen
gegrundete
abhangigkeiten
object
voj
markennamen
niederlandische
versuchten
versuchung
hilfreiche
ermacht
ermass
beschriebene
programmiersprachen
debug
jurgen
##seitig
kustenstadt
dynamischer
trendige
elementar
objekts
rtung
rtds
##sstufe
freiheits
payment
kolonien
hingehen
##inosaur
kommentieren
kommentaren
knechtschaft
gewohnheiten
juice
espanya
vertretern
buddhas
buddhisten
psychot
psychologischen
saisonale
prince
paradise
unterhaltungselektronik
##prasentation
bedurfnis
feuerwehr
respect
erkundigen
fliehen
albumgrafik
maschinenbau
andalusische
specific
northern
eastern
robusten
utility
